{
  "version": "1.0",
  "truncation": null,
  "padding": null,
  "added_tokens": [],
  "normalizer": null,
  "pre_tokenizer": {
    "type": "ByteLevel",
    "add_prefix_space": true,
    "trim_offsets": true,
    "use_regex": true
  },
  "post_processor": null,
  "decoder": {
    "type": "ByteLevel",
    "add_prefix_space": true,
    "trim_offsets": true,
    "use_regex": true
  },
  "model": {
    "type": "BPE",
    "dropout": null,
    "unk_token": "<unk>",
    "continuing_subword_prefix": null,
    "end_of_word_suffix": null,
    "fuse_unk": false,
    "byte_fallback": false,
    "ignore_merges": false,
    "vocab": {
      "<unk>": 0,
      "<s>": 1,
      "</s>": 2,
      "<pad>": 3,
      "Ġschool": 4,
      "ov": 5,
      "upiter": 6,
      "Ã¯": 7,
      "ĠJeff": 8,
      "ĠAlexand": 9,
      "Ġadministrator": 10,
      "Ġlaun": 11,
      "k": 12,
      "Ġpoet": 13,
      "Ġlicense": 14,
      "Ġmanager": 15,
      "when": 16,
      "ĠMuss": 17,
      "Ġinsufficient": 18,
      "Ġspirit": 19,
      "Ġagriculture": 20,
      "ĠGeneration": 21,
      "Ġallow": 22,
      "ĠSudan": 23,
      "ulated": 24,
      "ocese": 25,
      "ock": 26,
      "++": 27,
      "ĠWashington": 28,
      "Ġ1928": 29,
      "Ġdecide": 30,
      "Ġ450": 31,
      "Ġhig": 32,
      "Ġgods": 33,
      "Ġ56": 34,
      "Ġnovel": 35,
      "Ġothers": 36,
      "Ġsurprised": 37,
      "Ġday": 38,
      "Ġbroader": 39,
      "Ġanalyses": 40,
      "Ġexile": 41,
      "OS": 42,
      "Ġjustified": 43,
      "Ġalbum": 44,
      "Ġwaves": 45,
      "name": 46,
      "Ġmembrane": 47,
      "ĠRo": 48,
      "Ġacadem": 49,
      "ĠGardner": 50,
      "ĠMerc": 51,
      "Ġlaser": 52,
      "ivalent": 53,
      "ĠPerspectives": 54,
      "ĠRead": 55,
      "los": 56,
      "ĠMississippi": 57,
      "Ġethanol": 58,
      "Ġceleb": 59,
      "Ġprob": 60,
      "Ð°": 61,
      "ĠMt": 62,
      "ĠIgn": 63,
      "ĠOnly": 64,
      "Ġideals": 65,
      "Ġsanctuary": 66,
      "ay": 67,
      "Ġdestruction": 68,
      "Ġreport": 69,
      "ĠCycl": 70,
      "Ġhands": 71,
      "idents": 72,
      "Ġlob": 73,
      "Ġcooperative": 74,
      "Ġsinking": 75,
      "Ġfission": 76,
      "ĠVision": 77,
      "strong": 78,
      "Ġbombs": 79,
      "ĠSarah": 80,
      "ician": 81,
      "Ġaug": 82,
      "ader": 83,
      "Ġ237": 84,
      "ĠVo": 85,
      "Ġfus": 86,
      "ĠAff": 87,
      "rang": 88,
      "ĠChemistry": 89,
      "Ġtip": 90,
      "oday": 91,
      "Ġgoals": 92,
      "ĠIsab": 93,
      "Ġflourished": 94,
      "ĠPolice": 95,
      "Ġapproaching": 96,
      "Ġoffence": 97,
      "Ġbackground": 98,
      "Ġsubord": 99,
      "Ġworker": 100,
      "stru": 101,
      "Ġvan": 102,
      "unit": 103,
      "Ġstars": 104,
      "×Ļ": 105,
      "ĠCreat": 106,
      "Ġsees": 107,
      "Ġwars": 108,
      "aus": 109,
      "ĠTHE": 110,
      "rigade": 111,
      "Ġflux": 112,
      "ĠComputer": 113,
      "Ġ'": 114,
      "isholm": 115,
      "redited": 116,
      "144": 117,
      "omans": 118,
      "Ġfavorable": 119,
      "ĠBonn": 120,
      "Ġperformances": 121,
      "ĠMR": 122,
      "ĠÎ¼": 123,
      "Ġ1869": 124,
      "Irish": 125,
      "Ġcutting": 126,
      "ipment": 127,
      "Ġpronounced": 128,
      "Ġeleg": 129,
      "utation": 130,
      "Ġcodes": 131,
      "Ġpresence": 132,
      "ĠInc": 133,
      "Ġpg": 134,
      "lectric": 135,
      "Ġla": 136,
      "ĠCaucasus": 137,
      "ĠFreedom": 138,
      "Ġacids": 139,
      "ĠAugustus": 140,
      "inners": 141,
      "Ġmanner": 142,
      "Ġ151": 143,
      "Ġpalace": 144,
      "ĠKap": 145,
      "ĠTogether": 146,
      "Ġrecogn": 147,
      "Ġcreatures": 148,
      "ĠFab": 149,
      "ĠRe": 150,
      "ĠCommission": 151,
      "ensity": 152,
      "Ġradiation": 153,
      "ĠLy": 154,
      "ĠWiktionary": 155,
      "asties": 156,
      "Id": 157,
      "ĠMes": 158,
      "ĠFinancial": 159,
      "Ġstreet": 160,
      "Ġheav": 161,
      "modern": 162,
      "Ġdismant": 163,
      "ĠChapel": 164,
      "Ġfarther": 165,
      "astrop": 166,
      "Ġprec": 167,
      "Ġlem": 168,
      "ĠTo": 169,
      "ĠSlav": 170,
      "agos": 171,
      "Ġdioxide": 172,
      "Ġcore": 173,
      "Ġworn": 174,
      "ĠTranslation": 175,
      "ossary": 176,
      "ĠHood": 177,
      "ion": 178,
      "Ġhither": 179,
      "Ġcooking": 180,
      "oso": 181,
      "Ġecl": 182,
      "Ġpriority": 183,
      "Ġelectronics": 184,
      "Ġcig": 185,
      "ds": 186,
      "Ã¶": 187,
      "ĠPrad": 188,
      "Ġdem": 189,
      "Ġdwell": 190,
      "ĠJudge": 191,
      "Ġrank": 192,
      "Ġcommenced": 193,
      "Ġarmy": 194,
      "leg": 195,
      "Ġconflicts": 196,
      "ou": 197,
      "Ġcreature": 198,
      "Ġrad": 199,
      "486": 200,
      "UR": 201,
      "Ġattribute": 202,
      "Ġvol": 203,
      "ĠDion": 204,
      "Ġversion": 205,
      "Ġmuch": 206,
      "ĠPil": 207,
      "Ġchlor": 208,
      "Ġfacilit": 209,
      "ĠProf": 210,
      "ĠKennedy": 211,
      "ĠAwards": 212,
      "Ġecology": 213,
      "via": 214,
      "TR": 215,
      "ĠLouis": 216,
      "ĠHab": 217,
      "Ġ99": 218,
      "Ġoffshore": 219,
      "Ġfier": 220,
      "167": 221,
      "away": 222,
      "Ġcoord": 223,
      "Ġsum": 224,
      "ĠDu": 225,
      "Ġabs": 226,
      "Un": 227,
      "Ġsort": 228,
      "Ġperipheral": 229,
      ".(": 230,
      "Ġharmony": 231,
      "Ġpreceding": 232,
      "$": 233,
      "Ġloans": 234,
      "ĠProvince": 235,
      "ĠExper": 236,
      "Ġstart": 237,
      "Ġelev": 238,
      "UC": 239,
      "Ġparallel": 240,
      "ĠAe": 241,
      "Ġgood": 242,
      "__": 243,
      "ĠAfricans": 244,
      "Ġpoliticians": 245,
      "Ġhoriz": 246,
      "ĠSp": 247,
      "abad": 248,
      "war": 249,
      "ĠBrain": 250,
      "Ġstandards": 251,
      "Î½": 252,
      "Ġsource": 253,
      "ĠPutnam": 254,
      "Ġjudicial": 255,
      "inks": 256,
      "ĠMaria": 257,
      "ylene": 258,
      "ĠBene": 259,
      "011": 260,
      "ĠTransl": 261,
      "Port": 262,
      "Ġpriest": 263,
      "ĠHermann": 264,
      "ĠFormation": 265,
      "Ġcensus": 266,
      "Ġteeth": 267,
      "Ġbeh": 268,
      "Ġglacial": 269,
      "á¹": 270,
      "Ġteles": 271,
      "ports": 272,
      "Ġmetropolitan": 273,
      "ĠNu": 274,
      "ĠNeither": 275,
      "Ġcrit": 276,
      "Ġproduced": 277,
      "Ġoption": 278,
      "Ġpocket": 279,
      "ees": 280,
      "ĠGlass": 281,
      "ĠFam": 282,
      "Ġsuff": 283,
      "atz": 284,
      "acial": 285,
      "ineteenth": 286,
      "raw": 287,
      "Ġstores": 288,
      "ocene": 289,
      "Ġban": 290,
      "Ġloyalty": 291,
      "hol": 292,
      "ĠDou": 293,
      "Ġ1847": 294,
      "ĠLawrence": 295,
      "Ġgets": 296,
      "Ġoccurs": 297,
      "rice": 298,
      "raviolet": 299,
      "ĠSche": 300,
      "urus": 301,
      "Ġthee": 302,
      "Ġstrat": 303,
      "Ġpotential": 304,
      "jection": 305,
      "Ġtransported": 306,
      "Ġoccurred": 307,
      "Ġtiss": 308,
      "Ġexpend": 309,
      "Russ": 310,
      "Ġnecessity": 311,
      "AE": 312,
      "ĠNorse": 313,
      "ĠTechnology": 314,
      "asive": 315,
      "ĠNan": 316,
      "Ġvoted": 317,
      "Ġmedication": 318,
      "Ġfather": 319,
      "Ġfamilies": 320,
      "ĠAt": 321,
      "Ġrecognition": 322,
      "Ġfarming": 323,
      "ĠPale": 324,
      "ĠStreet": 325,
      "ĠBusiness": 326,
      "Ġinherent": 327,
      "Ġpronunciation": 328,
      "agg": 329,
      "Ġtended": 330,
      "Ġlinked": 331,
      "Ġafford": 332,
      "Ġputting": 333,
      "etics": 334,
      "Ġ1931": 335,
      "ĠVolunte": 336,
      "Ġvideo": 337,
      "Ġjob": 338,
      "Ġtail": 339,
      "ace": 340,
      "aly": 341,
      "ument": 342,
      "etic": 343,
      "isons": 344,
      "ĠShuttle": 345,
      "antry": 346,
      "Ġsuppl": 347,
      "pit": 348,
      "Ġsolar": 349,
      "Ġepidemic": 350,
      "ĠJoint": 351,
      "ĠVlad": 352,
      "ĠWei": 353,
      "Ġlies": 354,
      "Ġagre": 355,
      "Ġupstream": 356,
      "cil": 357,
      "Ġfragments": 358,
      "ĠCook": 359,
      "ĠMinn": 360,
      "uh": 361,
      "ool": 362,
      "arse": 363,
      "Ġinfants": 364,
      "Ġpracticed": 365,
      "018": 366,
      "ĠChron": 367,
      "imet": 368,
      "EF": 369,
      "Ġrecognize": 370,
      "verage": 371,
      "Ġvery": 372,
      "ĠM": 373,
      "ĠImmun": 374,
      "mons": 375,
      "ous": 376,
      "Ġsmall": 377,
      "French": 378,
      "ĠTw": 379,
      "ni": 380,
      "Ġrub": 381,
      "Ġadequate": 382,
      "ja": 383,
      "eville": 384,
      "Ġshould": 385,
      "greg": 386,
      "Ġpoems": 387,
      "Ġarchitects": 388,
      "Ġpo": 389,
      "its": 390,
      "ĠDra": 391,
      "Ġreservation": 392,
      "Ġgrape": 393,
      "Ġpromise": 394,
      "ederal": 395,
      "ĠFinland": 396,
      "Ġprominent": 397,
      "Ġeducational": 398,
      "duct": 399,
      "Ġmeans": 400,
      "lord": 401,
      "We": 402,
      "435": 403,
      "Part": 404,
      "ĠClif": 405,
      "Ġeither": 406,
      "Ġshall": 407,
      "American": 408,
      "pol": 409,
      "Ġpersu": 410,
      "risis": 411,
      "Ġcards": 412,
      "Ġindustrial": 413,
      "Ġtracking": 414,
      "ĠKur": 415,
      "ital": 416,
      "Ġbarriers": 417,
      "ĠBattalion": 418,
      "1993": 419,
      "Ġpresented": 420,
      "ĠCool": 421,
      "Rep": 422,
      "ĠBelarus": 423,
      "Ġmodeling": 424,
      "Ġscholarly": 425,
      "Ġresumed": 426,
      "Ġlighting": 427,
      "ĠLet": 428,
      "ĠPir": 429,
      "ologies": 430,
      "ĠLomb": 431,
      "ĠRobinson": 432,
      "hibition": 433,
      "Ġreact": 434,
      "Ġobservations": 435,
      "Ġoffered": 436,
      "Ġfault": 437,
      "iness": 438,
      "pectives": 439,
      "Ġpump": 440,
      "Ġ55": 441,
      "Ġelectrons": 442,
      "ĠIf": 443,
      "EA": 444,
      "Ġdeveloped": 445,
      "ĠAnthrop": 446,
      "Ġnegative": 447,
      "Ġstretch": 448,
      "oter": 449,
      "Ġharsh": 450,
      "ĠUkrainian": 451,
      "Ġpioneer": 452,
      "Ġ250": 453,
      "ain": 454,
      "Ġele": 455,
      "Ġinadequate": 456,
      "Ġforces": 457,
      "atholic": 458,
      "ĠÐ¸": 459,
      "ĠSwedish": 460,
      "à¥į": 461,
      "Ġrecover": 462,
      "ĠPeters": 463,
      "atible": 464,
      ")|": 465,
      "Pa": 466,
      "Ġgame": 467,
      "ĠPsychology": 468,
      "48": 469,
      "Î³": 470,
      "enburg": 471,
      "Ġ|âĢ": 472,
      "ĠTru": 473,
      "50": 474,
      "ÃŁ": 475,
      "Ġundertaken": 476,
      "orous": 477,
      "Ġinches": 478,
      "Ġstroke": 479,
      "ĠSource": 480,
      "Ġdemonstrate": 481,
      "ĠABC": 482,
      "30": 483,
      "RI": 484,
      "ĠReading": 485,
      "icular": 486,
      "Ġsensitivity": 487,
      "Ġprospect": 488,
      "ongo": 489,
      "Ġchildren": 490,
      "Ġbibli": 491,
      "ĠColombia": 492,
      "anning": 493,
      "icles": 494,
      "Ġdesign": 495,
      "utions": 496,
      "osphere": 497,
      "Ġrapidly": 498,
      "ĠFell": 499,
      "ished": 500,
      "ĠInstitution": 501,
      "Ġdefence": 502,
      "ĠSalisbury": 503,
      "Ġversus": 504,
      "ĠGeorges": 505,
      "Ġseveral": 506,
      "Ġattending": 507,
      "Ġmort": 508,
      "Ġangle": 509,
      "ĠActs": 510,
      "Ġ1911": 511,
      "Ġjuven": 512,
      "Ġunclear": 513,
      "ĠViking": 514,
      "42": 515,
      "ĠStates": 516,
      "Ġstruct": 517,
      "Ġlogic": 518,
      "rint": 519,
      "Ġrather": 520,
      "Ġphysicist": 521,
      "onic": 522,
      "han": 523,
      "Ġacid": 524,
      "ĠSword": 525,
      "1994": 526,
      "Ġwithdraw": 527,
      "osh": 528,
      "231": 529,
      "Ġleft": 530,
      "Ġsid": 531,
      "oters": 532,
      "UL": 533,
      "ĠEmb": 534,
      "Ġencourage": 535,
      "onder": 536,
      "Ġmerchants": 537,
      "ashi": 538,
      "ĠAnnual": 539,
      "Ġelectric": 540,
      "Ġ1935": 541,
      "ett": 542,
      "idae": 543,
      "ĠMarian": 544,
      "ki": 545,
      "Ġexhibited": 546,
      "Ġborrowed": 547,
      "Ġprevents": 548,
      "Ġused": 549,
      "ĠTerror": 550,
      "ĠGame": 551,
      "Ġmostly": 552,
      "Ġinvestigation": 553,
      "ĠPal": 554,
      "since": 555,
      "edes": 556,
      "Ġdocumented": 557,
      "ops": 558,
      "ĠGreek": 559,
      "Ġduc": 560,
      "Ġlamp": 561,
      "Ġdescent": 562,
      "Ġat": 563,
      "uka": 564,
      "pez": 565,
      "Ã£o": 566,
      "Ġstore": 567,
      "rose": 568,
      "ĠDC": 569,
      "Ġorg": 570,
      "la": 571,
      "Ġcup": 572,
      "ĠBronze": 573,
      "ent": 574,
      "phone": 575,
      "ĠTelegraph": 576,
      "Ġcorresponding": 577,
      "adal": 578,
      "ick": 579,
      "Ġdiagon": 580,
      "ĠAnth": 581,
      "ĠTucker": 582,
      "type": 583,
      "uly": 584,
      "ĠMaj": 585,
      "arte": 586,
      "ĠDonald": 587,
      "Ġcom": 588,
      "Ġident": 589,
      "ĠFrance": 590,
      "Ġcenter": 591,
      "Ġselection": 592,
      "Ġtheat": 593,
      "Ġgenus": 594,
      "Ġoriginal": 595,
      "Ġperception": 596,
      "Ġresided": 597,
      "Christian": 598,
      "Ð¹": 599,
      "Ġserves": 600,
      "Ġ1822": 601,
      "Ġunstable": 602,
      "Ġopening": 603,
      "Ġdivor": 604,
      "Ġnamed": 605,
      "ĠHawaii": 606,
      "Ġaccident": 607,
      "Ġthin": 608,
      "Ġmore": 609,
      "ber": 610,
      "ĠVi": 611,
      "ĠFou": 612,
      "ĠLetter": 613,
      "ĠGazette": 614,
      "ĠIL": 615,
      "Ġthat": 616,
      "black": 617,
      "ĠSC": 618,
      "ĠHugh": 619,
      "ry": 620,
      "Ġjazz": 621,
      "âĢ¦": 622,
      "Ġsulf": 623,
      "´": 624,
      "ĠMiami": 625,
      "cience": 626,
      "Ġsounds": 627,
      "Ġcavity": 628,
      "Ġexceeding": 629,
      "Ġconnected": 630,
      "Ġ1895": 631,
      "Ġworsh": 632,
      "ĠSoc": 633,
      "Ġminer": 634,
      "ĠPalace": 635,
      "Ġtruck": 636,
      "Ġplague": 637,
      "Ġtargeted": 638,
      "Ġextending": 639,
      "Ġduration": 640,
      "ĠEmer": 641,
      "Ġcontempor": 642,
      "kins": 643,
      "Ġ1840": 644,
      "Ġenough": 645,
      "ĠGent": 646,
      "quarters": 647,
      "riff": 648,
      "force": 649,
      "Ġcognitive": 650,
      "iov": 651,
      "Ġnational": 652,
      "elly": 653,
      "Ġmillions": 654,
      "racks": 655,
      "Ġalleged": 656,
      "ĠLeone": 657,
      "Ġdifferentiate": 658,
      "Ġlaw": 659,
      "ĠIndeed": 660,
      "ĠMind": 661,
      "ttp": 662,
      "Ġpneum": 663,
      "Ġcircumst": 664,
      "Ġsurfaces": 665,
      "GO": 666,
      "Class": 667,
      "ĠSpr": 668,
      "Ġexports": 669,
      "ÃŃs": 670,
      "Ġcl": 671,
      "itan": 672,
      "cius": 673,
      "ums": 674,
      "nels": 675,
      "irms": 676,
      "ĠWhite": 677,
      "Ġcontest": 678,
      "ĠAN": 679,
      "Ġconceived": 680,
      "iz": 681,
      "ĠWald": 682,
      "ĠEvolutionary": 683,
      "ĠâĢĵ": 684,
      "Ġcouncil": 685,
      "rodu": 686,
      "Ñħ": 687,
      "orious": 688,
      "ĠBulgaria": 689,
      "Ġjurisd": 690,
      "Ġ350": 691,
      "Ġproducers": 692,
      "opol": 693,
      "ĠâŁ": 694,
      "Ġost": 695,
      "Ġspecial": 696,
      "Ġever": 697,
      "ĠSy": 698,
      "cer": 699,
      "ĠFlood": 700,
      "Ġattrib": 701,
      "ulses": 702,
      "Ġprosper": 703,
      "enth": 704,
      "quire": 705,
      "Ã¹": 706,
      "ĠCNN": 707,
      "Ġdism": 708,
      "atio": 709,
      "ĠDuke": 710,
      "Ġbasic": 711,
      "ĠManagement": 712,
      "Ġcombined": 713,
      "Ġagents": 714,
      "chers": 715,
      "ĠPict": 716,
      "Ġgoverned": 717,
      "Ġdesigned": 718,
      "Ġretirement": 719,
      "Ġdeaths": 720,
      "Ġcrash": 721,
      "ĠSubst": 722,
      "ĠLA": 723,
      "ĠCurrently": 724,
      "Ġextend": 725,
      "Ġfre": 726,
      "Ġlatter": 727,
      "ĠJews": 728,
      "Ġcomplexes": 729,
      "Ġchip": 730,
      "Ġelectron": 731,
      "ĠDA": 732,
      "Ġcapable": 733,
      "Ġrelated": 734,
      "Ġcommented": 735,
      "Ġ|âĢľ||": 736,
      "ĠTab": 737,
      "bad": 738,
      ".||": 739,
      "Ġmassive": 740,
      "inctions": 741,
      "Ġterrain": 742,
      "ĠTy": 743,
      "Ġrural": 744,
      "Ġparliament": 745,
      "Ġpurely": 746,
      "otton": 747,
      "ylvania": 748,
      "Ġbott": 749,
      "ĠBalkans": 750,
      "Ġwitnessed": 751,
      "Ġ+": 752,
      "Ġshadow": 753,
      "ĠGerald": 754,
      "Mal": 755,
      "Ġrecalled": 756,
      "ĠJe": 757,
      "Ġfold": 758,
      "Ġfragment": 759,
      "Ġevents": 760,
      "ĠPublic": 761,
      "ĠQuestion": 762,
      "309": 763,
      "ench": 764,
      "64": 765,
      "ĠVenet": 766,
      "ĠLat": 767,
      "ĠTwelve": 768,
      "inal": 769,
      "Ġclassification": 770,
      "inf": 771,
      "John": 772,
      "Ġreverse": 773,
      "South": 774,
      "ĠPMID": 775,
      "ecker": 776,
      "icide": 777,
      "ĠCarm": 778,
      "Ġprotocols": 779,
      "inburgh": 780,
      "Ġbutter": 781,
      "adi": 782,
      "anti": 783,
      "aze": 784,
      "Ġ1837": 785,
      "Ġanywhere": 786,
      "Ġorganic": 787,
      "Ġmyself": 788,
      "Ġ229": 789,
      "Ġprinces": 790,
      "uit": 791,
      "ela": 792,
      "eterm": 793,
      "Ġ110": 794,
      "Ġinvestig": 795,
      "Ġund": 796,
      "ĠChristianity": 797,
      "ĠOS": 798,
      "product": 799,
      "andel": 800,
      "Ġmoney": 801,
      "level": 802,
      "Ġhave": 803,
      "Ġdaughter": 804,
      "ĠThrough": 805,
      "184": 806,
      "ĠRank": 807,
      "Ġlook": 808,
      "ĠFriends": 809,
      "Ġentity": 810,
      "ĠElect": 811,
      "Ġmedic": 812,
      "asury": 813,
      "ĠMethods": 814,
      "Ġunderm": 815,
      "Ġdriver": 816,
      "1136": 817,
      "ould": 818,
      "ĠIns": 819,
      "uremberg": 820,
      "pected": 821,
      "ĠLouise": 822,
      "Ġobjects": 823,
      "Ġconduct": 824,
      "ĠSchw": 825,
      "nis": 826,
      "utral": 827,
      "Ġ1821": 828,
      "ĠÃĹ": 829,
      "istry": 830,
      "ession": 831,
      "Ġherb": 832,
      "rem": 833,
      "Ġequally": 834,
      "015": 835,
      "Ġconviction": 836,
      "ĠWy": 837,
      "Ġexpenses": 838,
      "ĠWHO": 839,
      "ahl": 840,
      "Ġrac": 841,
      "Ġranking": 842,
      "Ġaccurate": 843,
      "Ġright": 844,
      "ĠPaste": 845,
      "978": 846,
      "back": 847,
      "Ġdialect": 848,
      "Ġsatellites": 849,
      "Ġcreation": 850,
      "Ġadvent": 851,
      "Ġá¼": 852,
      "Ġpy": 853,
      "IT": 854,
      "roke": 855,
      "Ġindustries": 856,
      "ĠCo": 857,
      "Ġretail": 858,
      "ĠAndes": 859,
      "ĠHistoria": 860,
      "Ġentities": 861,
      "ĠDiet": 862,
      "ĠRus": 863,
      "ĠCyp": 864,
      "ĠCorporation": 865,
      "ĠSalv": 866,
      "Ġmanuscripts": 867,
      "Ñĩ": 868,
      "ĠÅł": 869,
      "Ġdrum": 870,
      "Ġrecru": 871,
      "ĠEthnic": 872,
      "Ġprin": 873,
      "Ġglory": 874,
      "idding": 875,
      "ĠDa": 876,
      "handed": 877,
      "Ġhence": 878,
      "Ġworld": 879,
      "iley": 880,
      "umps": 881,
      "Ġenact": 882,
      "ĠParker": 883,
      "Ġagain": 884,
      "ĠChile": 885,
      "lived": 886,
      "Ġblack": 887,
      "||/": 888,
      "hens": 889,
      "Ġcrafts": 890,
      "ford": 891,
      "Ġvast": 892,
      "ĠWend": 893,
      "ĠDim": 894,
      "Ġchang": 895,
      "ĠBlue": 896,
      "ĠS": 897,
      "Ġbra": 898,
      "Ġregiments": 899,
      "55": 900,
      "ĠStef": 901,
      "Ġsalmon": 902,
      "ines": 903,
      "Ġbicy": 904,
      "La": 905,
      "¢": 906,
      "uj": 907,
      "rano": 908,
      "Ġinsurg": 909,
      "ropolitan": 910,
      "Ġutilized": 911,
      "ĠBlock": 912,
      "So": 913,
      "Ġreception": 914,
      "ĠGenetics": 915,
      "ĠMaritime": 916,
      "Ġtypes": 917,
      "ĠGust": 918,
      "achute": 919,
      "Ġseats": 920,
      "roscop": 921,
      "ĠEM": 922,
      "ĠAND": 923,
      "gr": 924,
      "ride": 925,
      "1080": 926,
      "Ġarrested": 927,
      "Ġhierarchy": 928,
      "now": 929,
      "Ġrole": 930,
      "1901": 931,
      "Ġantib": 932,
      "Ġnatives": 933,
      "Ġmaster": 934,
      "Ġcorrel": 935,
      "Ġslender": 936,
      "Ġrelocated": 937,
      "Ġash": 938,
      "Ġexclusion": 939,
      "ĠPeace": 940,
      "Ġfamine": 941,
      "Ġintroduction": 942,
      "Ġmotivated": 943,
      "Ġunt": 944,
      "Ġhas": 945,
      "Ġcontroller": 946,
      "Ġspear": 947,
      "ĠVe": 948,
      "Ġpa": 949,
      "Ġparameters": 950,
      "ĠJim": 951,
      "itime": 952,
      "Ġeducated": 953,
      "Ġmilit": 954,
      "artment": 955,
      "Ġdental": 956,
      "Ġorganize": 957,
      "Ġyield": 958,
      "ĠStrateg": 959,
      "cell": 960,
      "ĠAid": 961,
      "ĺ": 962,
      "Ġ45": 963,
      "ĠChicago": 964,
      "ĠAnt": 965,
      "ington": 966,
      "Ġsoph": 967,
      "Ġstations": 968,
      "ollow": 969,
      "abeth": 970,
      "ĠVII": 971,
      "Ġappeal": 972,
      "Ġsilent": 973,
      "Ġaudio": 974,
      "elling": 975,
      "Ġsailors": 976,
      "ĠFight": 977,
      "ĠDelaware": 978,
      "gh": 979,
      "phal": 980,
      "Ġfilter": 981,
      "Ġsovereignty": 982,
      "Ġflowing": 983,
      "ob": 984,
      "ĠChamp": 985,
      "Ġstatic": 986,
      "Ġeval": 987,
      "medi": 988,
      "Ġmis": 989,
      "Ġdignity": 990,
      "Ġcredited": 991,
      "Ġcounterpart": 992,
      "Ġgentle": 993,
      "Ġsurrend": 994,
      "Ġii": 995,
      "Ġequipped": 996,
      "sur": 997,
      "Ġbirthday": 998,
      "historic": 999,
      "du": 1000,
      "Ġdrift": 1001,
      "Ġstorage": 1002,
      "Ġadjusted": 1003,
      "Ġdwarf": 1004,
      "ĠLil": 1005,
      "ĠYale": 1006,
      "Ġdramatic": 1007,
      "Ġcuts": 1008,
      "Ġ1790": 1009,
      "ĠReferences": 1010,
      "Ġrav": 1011,
      "Ġfirst": 1012,
      "Ġfarms": 1013,
      "Ġinduced": 1014,
      "Torrent": 1015,
      "Ġnec": 1016,
      "ĠF": 1017,
      "orial": 1018,
      "Ġdestroyed": 1019,
      "ĠBatt": 1020,
      "rag": 1021,
      "ĠUsing": 1022,
      "Ġ70": 1023,
      "ĠStrategy": 1024,
      "ĠBirmingham": 1025,
      "cher": 1026,
      "Ġconstit": 1027,
      "itism": 1028,
      "ĠLaure": 1029,
      "aration": 1030,
      "ĠPowers": 1031,
      "utory": 1032,
      "ĠBar": 1033,
      "Ġprefer": 1034,
      "Ġroutine": 1035,
      "Ġaccumulation": 1036,
      "ithmetic": 1037,
      "fil": 1038,
      "Ġassigned": 1039,
      "1942": 1040,
      "Ġengaging": 1041,
      "Ġcontinually": 1042,
      "Ġer": 1043,
      "rt": 1044,
      "ĠOut": 1045,
      "ĠHop": 1046,
      "ĠMarg": 1047,
      "Ġconsider": 1048,
      "Ġthesis": 1049,
      "ĠLt": 1050,
      "ĠFord": 1051,
      "Ġlocomotive": 1052,
      "Ġacceleration": 1053,
      "Ġsurround": 1054,
      "ĠWeap": 1055,
      "Ġev": 1056,
      "Ġexterior": 1057,
      "rub": 1058,
      "Ġstyl": 1059,
      "ĠWhy": 1060,
      "Ġlex": 1061,
      "Ġdifficult": 1062,
      "dem": 1063,
      "cht": 1064,
      "Ġmen": 1065,
      "ĠPenns": 1066,
      "Ġcommunist": 1067,
      "Ġcar": 1068,
      "Ġbeliev": 1069,
      "ĠMackenzie": 1070,
      "ĠBolog": 1071,
      "ĠEffects": 1072,
      "ĠDynasty": 1073,
      "ĠDespite": 1074,
      "Ġplane": 1075,
      "Ġedges": 1076,
      "isions": 1077,
      "Ġonwards": 1078,
      "pers": 1079,
      "Ġrails": 1080,
      "ĠFergus": 1081,
      "Ġordered": 1082,
      "Ġafterwards": 1083,
      "Ġmeasures": 1084,
      "ĠJonathan": 1085,
      "otes": 1086,
      "Ġcosts": 1087,
      "ratic": 1088,
      "ĠWag": 1089,
      "onies": 1090,
      "Ġhier": 1091,
      "action": 1092,
      "Ġincidence": 1093,
      "ĠMaced": 1094,
      "ĠJah": 1095,
      "Ġsentenced": 1096,
      "ester": 1097,
      "ropri": 1098,
      "Ġtribute": 1099,
      "pped": 1100,
      "Ġelement": 1101,
      "ell": 1102,
      "Ġsocio": 1103,
      "Ġpreced": 1104,
      "person": 1105,
      "Ġarchitectural": 1106,
      "ĠNar": 1107,
      "ĠKaren": 1108,
      "Ġresignation": 1109,
      "Î¼": 1110,
      "oen": 1111,
      "Ġtaxation": 1112,
      "Ġreally": 1113,
      "ourses": 1114,
      ")": 1115,
      "Ġ1852": 1116,
      "BS": 1117,
      "ementia": 1118,
      "Ġdissolved": 1119,
      "Ġphenomen": 1120,
      "atively": 1121,
      "Ġcit": 1122,
      "lighten": 1123,
      "ĠInter": 1124,
      "\")": 1125,
      "Ġgroups": 1126,
      "ĠLibrary": 1127,
      "ĠEpic": 1128,
      "Ġwitnesses": 1129,
      "Ġevening": 1130,
      "ĠUV": 1131,
      "Ġcord": 1132,
      "Ġtreatise": 1133,
      "Ġlifestyle": 1134,
      "ĠPhil": 1135,
      "eti": 1136,
      "ĠKo": 1137,
      "ĠLen": 1138,
      "itic": 1139,
      "able": 1140,
      "Ġunit": 1141,
      "aces": 1142,
      "ĠAre": 1143,
      "Ġactual": 1144,
      "ĠNordic": 1145,
      "illing": 1146,
      "ĠÃ©": 1147,
      "Ġgrouped": 1148,
      "05": 1149,
      "Ġreflected": 1150,
      "iances": 1151,
      "ĠHolland": 1152,
      "/.": 1153,
      "xt": 1154,
      "ĠCla": 1155,
      "ĠInterior": 1156,
      "Ġenh": 1157,
      "Ġlived": 1158,
      "nac": 1159,
      "Ġprinting": 1160,
      "Ġallows": 1161,
      "rolog": 1162,
      "Ġcriticized": 1163,
      "Ġceased": 1164,
      "ieved": 1165,
      "Ġincomp": 1166,
      "Ġ1819": 1167,
      "Ġrailroads": 1168,
      "Ġ1926": 1169,
      "Ġyielded": 1170,
      "Ġacted": 1171,
      "aten": 1172,
      "Ġdefects": 1173,
      "itable": 1174,
      "ayy": 1175,
      "less": 1176,
      "Ġneighboring": 1177,
      "Ġfunctioning": 1178,
      "ĠMel": 1179,
      "ĠReturn": 1180,
      "ufact": 1181,
      "ĠMant": 1182,
      "ĠWorkers": 1183,
      "nt": 1184,
      "ĠXI": 1185,
      "ĠCoss": 1186,
      "ĠPet": 1187,
      "Ġ72": 1188,
      "Ġpeaks": 1189,
      "ĠAP": 1190,
      "time": 1191,
      "ĠOffic": 1192,
      "Ġsatisfy": 1193,
      "oh": 1194,
      "ĠOral": 1195,
      "ĠVenezuel": 1196,
      "po": 1197,
      "Ġvine": 1198,
      "Ġinsurance": 1199,
      "Ġhighlight": 1200,
      "Ġrendered": 1201,
      "ĠAlcohol": 1202,
      "Ġreplied": 1203,
      "ĠTam": 1204,
      "Ġorganisms": 1205,
      "Ġcables": 1206,
      "ĠHil": 1207,
      "ÑĪ": 1208,
      "ixed": 1209,
      "Ġsuper": 1210,
      "ĠFinance": 1211,
      "Ġcrater": 1212,
      "ensus": 1213,
      "Ġblock": 1214,
      "Ġearliest": 1215,
      "Ġden": 1216,
      "Ġwhom": 1217,
      "Ġpowers": 1218,
      "otechn": 1219,
      "Ġgrown": 1220,
      "ĠMcC": 1221,
      "ishop": 1222,
      "Ġmouse": 1223,
      "ĠâĨĳ": 1224,
      "Ġauthor": 1225,
      "Ġpriests": 1226,
      "ĠDNA": 1227,
      "cl": 1228,
      "viol": 1229,
      "Ġcontinuity": 1230,
      "161": 1231,
      "ĠScientists": 1232,
      "Ġonly": 1233,
      "ĠNept": 1234,
      "fts": 1235,
      "Ġeditors": 1236,
      "ĠStern": 1237,
      "oras": 1238,
      "notes": 1239,
      "ĠAri": 1240,
      "Ġsword": 1241,
      "Ġfaster": 1242,
      "acific": 1243,
      "ĠChinese": 1244,
      "ĠNetwork": 1245,
      "ĠAmaz": 1246,
      "Ġadop": 1247,
      "Ġdevelop": 1248,
      "chest": 1249,
      "Ġborder": 1250,
      "ĠEx": 1251,
      "ĠDennis": 1252,
      "ates": 1253,
      "Ġbatteries": 1254,
      "ĠVenice": 1255,
      "ĠMcG": 1256,
      "ĠAber": 1257,
      "ira": 1258,
      "archy": 1259,
      "ric": 1260,
      "ĠPress": 1261,
      "ĠSurvey": 1262,
      "Ġno": 1263,
      "lease": 1264,
      "Ġtobacco": 1265,
      "ta": 1266,
      "ĠDream": 1267,
      "ĠRein": 1268,
      "Ġbapt": 1269,
      "Ġimported": 1270,
      "Ġ1914": 1271,
      "Cl": 1272,
      "Ġdam": 1273,
      "Be": 1274,
      "Ġ1844": 1275,
      "ukary": 1276,
      "Ġinterfer": 1277,
      "Ġembra": 1278,
      "ĠRos": 1279,
      "ioned": 1280,
      "Ġwhether": 1281,
      "Ġcommunity": 1282,
      "Ġpsychological": 1283,
      "ĠMalaysia": 1284,
      "Ġdocumentary": 1285,
      "ĠMinistry": 1286,
      "cill": 1287,
      "ĠFal": 1288,
      "Ġsold": 1289,
      "ĠLewis": 1290,
      "Ġgrant": 1291,
      "ika": 1292,
      "ĠWer": 1293,
      "Ġpastoral": 1294,
      "rology": 1295,
      "ĠGaz": 1296,
      "ĠUnion": 1297,
      "ase": 1298,
      "Ġweb": 1299,
      "ĠBour": 1300,
      "Ġnear": 1301,
      "Ġ107": 1302,
      "iday": 1303,
      "\"),": 1304,
      "ors": 1305,
      "Ġzo": 1306,
      "ters": 1307,
      "yster": 1308,
      "IR": 1309,
      "alled": 1310,
      "ĠMadison": 1311,
      "Ġnetworks": 1312,
      "odia": 1313,
      "166": 1314,
      "Ġcolonization": 1315,
      "Ġtake": 1316,
      "Ġsand": 1317,
      "Ġbear": 1318,
      "ĠWikip": 1319,
      "ĠAng": 1320,
      "MT": 1321,
      "ĠPortrait": 1322,
      "ahan": 1323,
      "ÑģÐº": 1324,
      "ĠUg": 1325,
      "Ġfeelings": 1326,
      "Ġrept": 1327,
      "ounter": 1328,
      "ĠAnti": 1329,
      "Ġstatistics": 1330,
      "Ġrace": 1331,
      "Ġlanded": 1332,
      "ĠPortuguese": 1333,
      "ĠCav": 1334,
      "midt": 1335,
      "ivist": 1336,
      "elfare": 1337,
      "arded": 1338,
      "urities": 1339,
      "Ġdischarge": 1340,
      "ĠMk": 1341,
      "Ġqualities": 1342,
      "ĠPan": 1343,
      "plan": 1344,
      "ĠServ": 1345,
      "ressions": 1346,
      "ĠNum": 1347,
      "Ġsan": 1348,
      "ĠGor": 1349,
      "ĠReyn": 1350,
      "Ġfingers": 1351,
      "Ġtransaction": 1352,
      "ian": 1353,
      "Ġsome": 1354,
      "utter": 1355,
      "ĠApplication": 1356,
      "Ġmounted": 1357,
      "olve": 1358,
      "very": 1359,
      "ĠSebast": 1360,
      "Ġmarched": 1361,
      "Ġcere": 1362,
      "Ġal": 1363,
      "ĠDefin": 1364,
      "ounted": 1365,
      "Ġstimuli": 1366,
      "ysis": 1367,
      "ĠJo": 1368,
      "oll": 1369,
      "ĠSpain": 1370,
      "Ġmagist": 1371,
      "Ġsuperior": 1372,
      "gs": 1373,
      "Ġpositioned": 1374,
      "Ġdict": 1375,
      "Ġnephew": 1376,
      "Ġinstalled": 1377,
      "OC": 1378,
      "Ġmake": 1379,
      "ius": 1380,
      "01": 1381,
      "ĠInstitute": 1382,
      "ĠGeneva": 1383,
      "ĠAh": 1384,
      "ĠBurgundy": 1385,
      "Ġ|âĢ¢": 1386,
      "pa": 1387,
      "ighthouse": 1388,
      "Ġheaded": 1389,
      "Ġedition": 1390,
      "ĠProfile": 1391,
      "Ġcooked": 1392,
      "Ġlease": 1393,
      "AA": 1394,
      "Ġveterans": 1395,
      "left": 1396,
      "Ġmountain": 1397,
      "ĠDul": 1398,
      "Ġepidem": 1399,
      "ĠSymphony": 1400,
      "My": 1401,
      "Ġsugg": 1402,
      "ifest": 1403,
      "Ġrarely": 1404,
      "Ġfreezing": 1405,
      "Ġformed": 1406,
      "anned": 1407,
      "unda": 1408,
      "ĠCounty": 1409,
      "Ġsymmet": 1410,
      "026": 1411,
      "ĠGet": 1412,
      "ĠWhitman": 1413,
      "Â·": 1414,
      "Ġprov": 1415,
      "oints": 1416,
      "ĠPrag": 1417,
      "ĠGiov": 1418,
      "ĠDean": 1419,
      "Ġstream": 1420,
      "ĠCommercial": 1421,
      "Ġra": 1422,
      "ĠCust": 1423,
      "mo": 1424,
      "Ġcontrolled": 1425,
      "Ġthrough": 1426,
      "Ġexplo": 1427,
      "Ġrelationships": 1428,
      "¥": 1429,
      "Ġincent": 1430,
      "Ġopium": 1431,
      "ahu": 1432,
      "ĠVig": 1433,
      "Ġunless": 1434,
      "Ġapprent": 1435,
      "ĠPres": 1436,
      ".\"": 1437,
      "ĠNe": 1438,
      "icularly": 1439,
      "Ġwealth": 1440,
      "Ġvest": 1441,
      "ĠChapman": 1442,
      "Ġpenet": 1443,
      "ĠJapan": 1444,
      "idi": 1445,
      "Ġinfectious": 1446,
      "ĠCret": 1447,
      "verb": 1448,
      "ĠKant": 1449,
      "ĠAbb": 1450,
      "/": 1451,
      "Ġweakened": 1452,
      "efficient": 1453,
      "Ġt": 1454,
      "Ġgreatest": 1455,
      "Ġlion": 1456,
      "ĠMine": 1457,
      "opy": 1458,
      "lin": 1459,
      "ĠBear": 1460,
      "Ġattitudes": 1461,
      "Ġhall": 1462,
      "Î²": 1463,
      "Ġenvironments": 1464,
      "ĠVari": 1465,
      "Ġloos": 1466,
      "ĠPortugal": 1467,
      "ĠCave": 1468,
      "fam": 1469,
      "ĠCommunications": 1470,
      "Ġdraw": 1471,
      "Ġenable": 1472,
      "Ġinternationally": 1473,
      "Ġschools": 1474,
      "Ġaffected": 1475,
      "cium": 1476,
      "ĠEv": 1477,
      "ĠConstruction": 1478,
      "ioch": 1479,
      "ĠMedical": 1480,
      "Ar": 1481,
      "oqu": 1482,
      "Dec": 1483,
      "Ġbecome": 1484,
      "ambig": 1485,
      "ĠType": 1486,
      "anted": 1487,
      "ĠPhiladelphia": 1488,
      "Ġteam": 1489,
      "Ġinduce": 1490,
      "Ġceremonies": 1491,
      "Ġgate": 1492,
      "Ġ1989": 1493,
      "ĠVictory": 1494,
      "ĠSikh": 1495,
      "ĠRing": 1496,
      "Ġcomputer": 1497,
      "gel": 1498,
      "Ġsinger": 1499,
      "Ġencry": 1500,
      "ĠChoctaw": 1501,
      "ilee": 1502,
      "Ġpersonality": 1503,
      "ĠSod": 1504,
      "ĠGand": 1505,
      "Ġfiring": 1506,
      "Ġ1817": 1507,
      "Ġalternate": 1508,
      "ential": 1509,
      "rio": 1510,
      "Ġplans": 1511,
      "á¹Ľ": 1512,
      "Ġshorter": 1513,
      "ĠFon": 1514,
      "Ġsaints": 1515,
      "hattan": 1516,
      "ĠEty": 1517,
      "Ġdivid": 1518,
      "rÃ¶": 1519,
      "lical": 1520,
      "Ġresign": 1521,
      "defined": 1522,
      "erous": 1523,
      "ĠColin": 1524,
      "ita": 1525,
      "Ġsprings": 1526,
      "building": 1527,
      "ĠTool": 1528,
      "Ġrode": 1529,
      "Ġindigenous": 1530,
      "Volume": 1531,
      "Ġ1955": 1532,
      "Ġnotice": 1533,
      "Ġhttp": 1534,
      "Spanish": 1535,
      "ĠVic": 1536,
      "bin": 1537,
      "Ġaffiliated": 1538,
      "ĠPatri": 1539,
      "gian": 1540,
      "ĠEar": 1541,
      "ĠAB": 1542,
      "Ġformer": 1543,
      "Ġ34": 1544,
      "Ġren": 1545,
      "ros": 1546,
      "Ġsquad": 1547,
      "ones": 1548,
      "ea": 1549,
      "onel": 1550,
      "Ġinability": 1551,
      "Ġprejud": 1552,
      "Ġdiv": 1553,
      "ĠLutheran": 1554,
      "ila": 1555,
      "ĠApollo": 1556,
      "ĠAfrica": 1557,
      "Ġsimulation": 1558,
      "ĠMovement": 1559,
      "German": 1560,
      "ĠMir": 1561,
      "ĠWes": 1562,
      "ission": 1563,
      "night": 1564,
      "eva": 1565,
      "Ġshipping": 1566,
      "irds": 1567,
      "matical": 1568,
      "berger": 1569,
      "imer": 1570,
      "ĠÃ¡": 1571,
      "ĠFace": 1572,
      "Ġmolecular": 1573,
      "ĠR": 1574,
      "Ġregist": 1575,
      "ĠHimal": 1576,
      "head": 1577,
      "ĠHonduras": 1578,
      "ott": 1579,
      "ĠKashmir": 1580,
      "Ġch": 1581,
      "ĠSO": 1582,
      "ĠSolomon": 1583,
      "Ġsustained": 1584,
      "@": 1585,
      "Ġwel": 1586,
      "ĠHelm": 1587,
      "irable": 1588,
      "Ġproblem": 1589,
      "ically": 1590,
      "Ġ1857": 1591,
      "anes": 1592,
      "Ġassess": 1593,
      "Ġbroad": 1594,
      "Ġrestaur": 1595,
      "Ġfool": 1596,
      "Ġcomplicated": 1597,
      "aper": 1598,
      "ask": 1599,
      "Ġfood": 1600,
      "Ġimproved": 1601,
      "Ġtowards": 1602,
      "Ġcommander": 1603,
      "ĠCzechosl": 1604,
      "Ġ1939": 1605,
      "joy": 1606,
      "ĠConst": 1607,
      "ļ": 1608,
      "ĠHind": 1609,
      "Ġsoldiers": 1610,
      "Ġvulnerable": 1611,
      "icated": 1612,
      "Ġclean": 1613,
      "kien": 1614,
      "ĠNC": 1615,
      "ĠPolit": 1616,
      "Ġsteps": 1617,
      "yan": 1618,
      "ĠRather": 1619,
      "Ġdarkness": 1620,
      "Ġimaging": 1621,
      "ĠSherman": 1622,
      "Ġavailability": 1623,
      "ĠRoosevelt": 1624,
      "277": 1625,
      "ĠChampionship": 1626,
      "ĠSalvador": 1627,
      "Ġblacks": 1628,
      "ĠIncre": 1629,
      "Ġthe": 1630,
      "Ġbacter": 1631,
      "etyl": 1632,
      "ĠSept": 1633,
      "Ġincluded": 1634,
      "Ġdramatically": 1635,
      "print": 1636,
      "hl": 1637,
      "Hz": 1638,
      "anger": 1639,
      "uzzle": 1640,
      "Ġschem": 1641,
      "p": 1642,
      "Ġsensory": 1643,
      "Î¹": 1644,
      "Ġpoison": 1645,
      "ĠJersey": 1646,
      "Ġcannot": 1647,
      "field": 1648,
      "Ġcomm": 1649,
      "Ġbesides": 1650,
      "ĠMorm": 1651,
      "Ġ47": 1652,
      "Ġjointly": 1653,
      "Ġprograms": 1654,
      "Ġchemical": 1655,
      "uter": 1656,
      "Ġinvented": 1657,
      "Ġabout": 1658,
      "ĠBelg": 1659,
      "ĠRh": 1660,
      "Ġthreatened": 1661,
      "Ġaggressive": 1662,
      "azine": 1663,
      "Ġrally": 1664,
      "illon": 1665,
      "ilation": 1666,
      "Ġmans": 1667,
      "Ġbotan": 1668,
      "Ġinvestigations": 1669,
      "Ġfunding": 1670,
      "1945": 1671,
      "Ġfishing": 1672,
      "ĠOthers": 1673,
      "ĠApart": 1674,
      "ĠChristians": 1675,
      "Ġhunting": 1676,
      "Ġlords": 1677,
      "ĠBaroque": 1678,
      "Ġ1963": 1679,
      "Ġmir": 1680,
      "Ġformula": 1681,
      "ĠâĢ¦": 1682,
      "uties": 1683,
      "Ġreal": 1684,
      "ĠFox": 1685,
      "Ġelite": 1686,
      "Ġsexual": 1687,
      "||(": 1688,
      "omery": 1689,
      "ĠDiv": 1690,
      "aved": 1691,
      "Ġrough": 1692,
      "Ġdefined": 1693,
      "grim": 1694,
      "Ġfive": 1695,
      "Ġover": 1696,
      "ridges": 1697,
      "onymous": 1698,
      "Éª": 1699,
      "Ġaided": 1700,
      "alogy": 1701,
      "ate": 1702,
      "anton": 1703,
      "DS": 1704,
      "ĠNormandy": 1705,
      "Ġlaid": 1706,
      "Ġanthrop": 1707,
      "amer": 1708,
      "heimer": 1709,
      "ey": 1710,
      "Ġtemporal": 1711,
      "Ġprovin": 1712,
      "Ġbell": 1713,
      "Ġdemocratic": 1714,
      "Ġstem": 1715,
      "136": 1716,
      "Ġcompatible": 1717,
      "iment": 1718,
      "Ġinfected": 1719,
      "ÑĢ": 1720,
      "Heb": 1721,
      "ĠSteel": 1722,
      "Ġcourse": 1723,
      "Ġsink": 1724,
      "Ġweapons": 1725,
      "http": 1726,
      "Ġrelate": 1727,
      "ĠDisp": 1728,
      "ama": 1729,
      "ĠMaine": 1730,
      "Ġapproximation": 1731,
      "Ġfundamental": 1732,
      "1918": 1733,
      "ĠV": 1734,
      "tionary": 1735,
      "ĠJ": 1736,
      "appropri": 1737,
      "Ġ138": 1738,
      "Ġdiscipl": 1739,
      "Ġoff": 1740,
      "Ġgenes": 1741,
      "law": 1742,
      "Ġsoldier": 1743,
      "ĠContemporary": 1744,
      "ĠDun": 1745,
      "ĠDest": 1746,
      "Ġprevention": 1747,
      "olation": 1748,
      "cop": 1749,
      "borg": 1750,
      "Ġintegration": 1751,
      "ressed": 1752,
      "iola": 1753,
      "ĠAeron": 1754,
      "Ġapparently": 1755,
      "itance": 1756,
      "Ġits": 1757,
      "Ġ1930": 1758,
      "Ġstriking": 1759,
      "Ġharv": 1760,
      "Ġbalance": 1761,
      "ĠAppalach": 1762,
      "ĠYugoslavia": 1763,
      "Ġfoc": 1764,
      "Bel": 1765,
      "Ġfest": 1766,
      "ĠLater": 1767,
      "Ġseconds": 1768,
      "Ġsubsequent": 1769,
      "Ġimmigrants": 1770,
      "Ġbreak": 1771,
      "iotic": 1772,
      "ĠFathers": 1773,
      "ĠEffect": 1774,
      "Ġfashion": 1775,
      "Ġsignals": 1776,
      "Ġkept": 1777,
      "Ġgenetics": 1778,
      "ĠSand": 1779,
      "rices": 1780,
      "enn": 1781,
      "¤": 1782,
      "hers": 1783,
      "Ġfees": 1784,
      "Ġmars": 1785,
      "indu": 1786,
      "Ġlack": 1787,
      "elfth": 1788,
      "ĠReport": 1789,
      "ĠCost": 1790,
      "ĠCircuit": 1791,
      "Ġbeneficial": 1792,
      "Ġproductions": 1793,
      "Ġflow": 1794,
      ":âĢĶ": 1795,
      "Ġox": 1796,
      "Ġbuild": 1797,
      "Ġwavelength": 1798,
      "Ġcomparison": 1799,
      "ĠFrem": 1800,
      "ĠCeltic": 1801,
      "ktop": 1802,
      "rage": 1803,
      "Ġviews": 1804,
      "sis": 1805,
      "ĠReed": 1806,
      "Ġsib": 1807,
      "Ġcomes": 1808,
      "amber": 1809,
      "Ġcreating": 1810,
      "ufficient": 1811,
      "Ġreconcil": 1812,
      "idelines": 1813,
      "Ġvag": 1814,
      "Ġoperational": 1815,
      "Ġcond": 1816,
      "ĠCurrent": 1817,
      "Ġfif": 1818,
      "Ġcontent": 1819,
      "Ġcream": 1820,
      "ingen": 1821,
      "ĠCaptain": 1822,
      "itia": 1823,
      "Ġminority": 1824,
      "ĠBag": 1825,
      "Ġsurrounding": 1826,
      "Ġmilitary": 1827,
      "Ġgovernmental": 1828,
      "Ġcareer": 1829,
      "exts": 1830,
      "Ġarms": 1831,
      "Ġshowing": 1832,
      "swick": 1833,
      "ĠDarl": 1834,
      "ĠGeorg": 1835,
      "oura": 1836,
      "Ġpathway": 1837,
      "ete": 1838,
      "rine": 1839,
      "ĠFollowing": 1840,
      "ĠForum": 1841,
      "ĠBy": 1842,
      "edia": 1843,
      "ĠMean": 1844,
      "uay": 1845,
      "fully": 1846,
      "Ġprinciple": 1847,
      "ĠD": 1848,
      "ĠRegional": 1849,
      "Ġregistered": 1850,
      "kee": 1851,
      "iation": 1852,
      "ĠSup": 1853,
      "Ġchim": 1854,
      "Ġgathering": 1855,
      "cript": 1856,
      "Ġreflecting": 1857,
      "inen": 1858,
      "Ġcou": 1859,
      "fig": 1860,
      "1973": 1861,
      "Ġappropri": 1862,
      "near": 1863,
      "Ġeas": 1864,
      "Ġundergo": 1865,
      "Ġtotal": 1866,
      "Ġuniversally": 1867,
      "ground": 1868,
      "Ġcommerce": 1869,
      "Ġcoefficient": 1870,
      "Ġtrem": 1871,
      ",'": 1872,
      "ĠExped": 1873,
      "Ġdisappear": 1874,
      "Ġdiscrimination": 1875,
      "olv": 1876,
      "Ġexpedition": 1877,
      "imental": 1878,
      "Ġ1776": 1879,
      "ĠPuerto": 1880,
      "enness": 1881,
      "ĠBruce": 1882,
      "obert": 1883,
      "ĠNer": 1884,
      "ases": 1885,
      "Ġmental": 1886,
      "ĠMak": 1887,
      "ĠSund": 1888,
      "ĠPoles": 1889,
      "ĠSocial": 1890,
      "ĠThree": 1891,
      "Ġquotes": 1892,
      "conom": 1893,
      "Ġbacterial": 1894,
      "ishers": 1895,
      "Ġbinary": 1896,
      "rep": 1897,
      "Ġeliminating": 1898,
      "ĠAG": 1899,
      "Ġspecimen": 1900,
      "Ġ\"\"": 1901,
      "Ġproduction": 1902,
      "iph": 1903,
      "Ġperformance": 1904,
      "Ġmunicipalities": 1905,
      "atabases": 1906,
      "Main": 1907,
      "Ġ118": 1908,
      "ĠNFL": 1909,
      "Ġnomin": 1910,
      "iece": 1911,
      "Ġ1842": 1912,
      "Ġglob": 1913,
      "Ġ198": 1914,
      "ĠIndonesian": 1915,
      "ĠHoly": 1916,
      "Ġspir": 1917,
      "Ġattraction": 1918,
      "Ġinstitution": 1919,
      "ĠSub": 1920,
      "í": 1921,
      "akespeare": 1922,
      "iÄĩ": 1923,
      "olithic": 1924,
      "ĠCroat": 1925,
      "Ġheating": 1926,
      "mar": 1927,
      "Ġmaintenance": 1928,
      "ĠFlore": 1929,
      "Ġinher": 1930,
      "ĠGren": 1931,
      "gae": 1932,
      "Ġchiefs": 1933,
      "Ġbas": 1934,
      "Ġleading": 1935,
      "kl": 1936,
      "ĠCensus": 1937,
      "Ġpursue": 1938,
      "mentary": 1939,
      "ĠOak": 1940,
      "seau": 1941,
      "Ġpel": 1942,
      "tha": 1943,
      "ĠPo": 1944,
      "Ġadmission": 1945,
      "âĢ³": 1946,
      "illion": 1947,
      "Ġanchor": 1948,
      "Ġtrials": 1949,
      "Ġtelling": 1950,
      "aeus": 1951,
      "ĠBut": 1952,
      "IM": 1953,
      "uper": 1954,
      "Ġseven": 1955,
      "Ġqual": 1956,
      "connected": 1957,
      "Ġsmoking": 1958,
      "Ġach": 1959,
      "ces": 1960,
      "Ġgrave": 1961,
      "sing": 1962,
      "Ġstructure": 1963,
      "bourne": 1964,
      "Ġdeployed": 1965,
      "Ġdesigns": 1966,
      "ĠChairman": 1967,
      "rock": 1968,
      "Ġfulfill": 1969,
      "Ġstra": 1970,
      "tre": 1971,
      "oly": 1972,
      ".]": 1973,
      "ĠAtt": 1974,
      "oyd": 1975,
      "214": 1976,
      "ĠCul": 1977,
      "Ġes": 1978,
      "ĠNi": 1979,
      "khaz": 1980,
      "ĠMust": 1981,
      "ropy": 1982,
      "elson": 1983,
      "Ġ900": 1984,
      "Ab": 1985,
      "Ġcase": 1986,
      "ĠBritain": 1987,
      "ĠThirty": 1988,
      "Ġwit": 1989,
      "rial": 1990,
      "ĠShort": 1991,
      "Ã¦": 1992,
      "Ġattempted": 1993,
      "gage": 1994,
      "Ġaround": 1995,
      "Ġlim": 1996,
      "Ġdoub": 1997,
      "ĠPostal": 1998,
      "aron": 1999,
      "Ġmyth": 2000,
      "Ġanatomy": 2001,
      "'s": 2002,
      "ourag": 2003,
      "Ġadvantage": 2004,
      "ĠIndividual": 2005,
      "site": 2006,
      "Stud": 2007,
      "ĠLebanon": 2008,
      "Ġlimited": 2009,
      "Ġquestion": 2010,
      "Form": 2011,
      "ĠGeneral": 2012,
      "rics": 2013,
      "Ġmomentum": 2014,
      "Ġ86": 2015,
      "ĠDeutsche": 2016,
      "olly": 2017,
      "\"": 2018,
      "elin": 2019,
      "imo": 2020,
      "Ġweaken": 2021,
      "Ġparties": 2022,
      "amental": 2023,
      "ĠGy": 2024,
      "ĠCam": 2025,
      "oire": 2026,
      "ĠHundred": 2027,
      "far": 2028,
      "Ġsymbol": 2029,
      "gart": 2030,
      "ĠMacmillan": 2031,
      "Ġ1902": 2032,
      "Ġadapted": 2033,
      "ichy": 2034,
      "ĠRizal": 2035,
      "Ġputs": 2036,
      "Ġvacuum": 2037,
      "Ġpossession": 2038,
      "Ġvascular": 2039,
      "ikh": 2040,
      "Ġprocessing": 2041,
      "Ġcircle": 2042,
      "ĠTerritory": 2043,
      "ĠJackson": 2044,
      "ĠTs": 2045,
      "pling": 2046,
      "Ġpink": 2047,
      "azz": 2048,
      "ĠAdministrative": 2049,
      "lings": 2050,
      "BL": 2051,
      "count": 2052,
      "Ġperfectly": 2053,
      "ĠNorman": 2054,
      "1919": 2055,
      "Ġmerch": 2056,
      "ĠSP": 2057,
      "Ġfind": 2058,
      "Ġinclude": 2059,
      "Ġwine": 2060,
      "Ġ1835": 2061,
      "Ġhour": 2062,
      "itations": 2063,
      "ED": 2064,
      "Ġto": 2065,
      "ĠFranklin": 2066,
      "Ġlux": 2067,
      "Population": 2068,
      "amm": 2069,
      "||$": 2070,
      "Ã¢": 2071,
      "Ġval": 2072,
      "alys": 2073,
      "ĠSalmon": 2074,
      "Ġfaith": 2075,
      "IO": 2076,
      "cor": 2077,
      "ati": 2078,
      "gn": 2079,
      "Ġhistory": 2080,
      "Ġplants": 2081,
      "Ġdemands": 2082,
      "Ġspect": 2083,
      "ĠMicrosoft": 2084,
      "amba": 2085,
      "Î´": 2086,
      "Ġnort": 2087,
      "Ġ164": 2088,
      "ton": 2089,
      "TI": 2090,
      "ĠJesus": 2091,
      "Ġmembers": 2092,
      "ither": 2093,
      "Ġemployers": 2094,
      "Ġemotional": 2095,
      "forms": 2096,
      "234": 2097,
      "Ġcolleges": 2098,
      "apsed": 2099,
      "Ġexamined": 2100,
      "Ġloc": 2101,
      "icht": 2102,
      "Ġstand": 2103,
      "Ġmant": 2104,
      "ĠPent": 2105,
      "PP": 2106,
      "th": 2107,
      "Ïį": 2108,
      "soci": 2109,
      "istan": 2110,
      "Ġfri": 2111,
      "Ġwitch": 2112,
      "Ġ1991": 2113,
      "And": 2114,
      "onde": 2115,
      "Con": 2116,
      "ĠTele": 2117,
      "Ġadopt": 2118,
      "kers": 2119,
      "Ġgrass": 2120,
      "DA": 2121,
      "ĠCzechoslovakia": 2122,
      "Ġmountainous": 2123,
      "Ġsuggesting": 2124,
      "ĠBrook": 2125,
      "Ġdeter": 2126,
      "Ġopposed": 2127,
      "lish": 2128,
      "ĠYears": 2129,
      "ilian": 2130,
      "raska": 2131,
      "Ġbread": 2132,
      "urd": 2133,
      "Ġbrings": 2134,
      "247": 2135,
      "ĠBa": 2136,
      "ĠKay": 2137,
      ":|": 2138,
      "134": 2139,
      "Ġpregnancy": 2140,
      "ĠCanadians": 2141,
      "thlet": 2142,
      "ĠSons": 2143,
      "Old": 2144,
      "ĠPak": 2145,
      "olics": 2146,
      "Ġhapp": 2147,
      "Ġtheir": 2148,
      "bell": 2149,
      "ĠScotia": 2150,
      "ĠG": 2151,
      "Ġvirt": 2152,
      "Ġdoctrines": 2153,
      "Ġfleet": 2154,
      "ĠAstronomy": 2155,
      "Ġmention": 2156,
      "Ġsuicide": 2157,
      "ĠÎ²": 2158,
      "Ġdecree": 2159,
      "Ġefficacy": 2160,
      "ĠFriedrich": 2161,
      "ĠAlzheimer": 2162,
      "Ġrestricted": 2163,
      "Ġmag": 2164,
      "master": 2165,
      "Ġappear": 2166,
      "Ġmic": 2167,
      "help": 2168,
      "Ġoffensive": 2169,
      "ĠOklahoma": 2170,
      "inian": 2171,
      "Ġ|": 2172,
      "ĠFaith": 2173,
      "lav": 2174,
      "Ġdrives": 2175,
      "Ġunlikely": 2176,
      "NET": 2177,
      "band": 2178,
      "ĠUkraine": 2179,
      "ĠCell": 2180,
      "um": 2181,
      "she": 2182,
      "Ì": 2183,
      "ori": 2184,
      "ĠBacon": 2185,
      "006": 2186,
      "Ġlesser": 2187,
      "ignty": 2188,
      "ĠSummer": 2189,
      "Ġreturning": 2190,
      "137": 2191,
      "ĠItal": 2192,
      "ĠLords": 2193,
      "Ġfinite": 2194,
      "ĠBuddhism": 2195,
      "Ġstructured": 2196,
      "Ġtransplant": 2197,
      "Ġlag": 2198,
      "Ġmentions": 2199,
      "Ġraces": 2200,
      "Ġtu": 2201,
      "ĠAug": 2202,
      "Ġfilt": 2203,
      "ĠCarl": 2204,
      "Ġfate": 2205,
      "Ġdry": 2206,
      "Ġunemployment": 2207,
      "ensation": 2208,
      "Ġjobs": 2209,
      "Ġconsequence": 2210,
      "ËĲ": 2211,
      "gence": 2212,
      "Ġorbit": 2213,
      "Ġauto": 2214,
      "Ġsimilarly": 2215,
      "unar": 2216,
      "ech": 2217,
      "Ġallied": 2218,
      "Ġconvention": 2219,
      "Ġfranch": 2220,
      "ĠEU": 2221,
      "arck": 2222,
      "Ġgod": 2223,
      "Ġins": 2224,
      "alph": 2225,
      "ĠSaint": 2226,
      "Ġ1896": 2227,
      "Ġthoughts": 2228,
      "Ġfilm": 2229,
      "rous": 2230,
      "Ġfabric": 2231,
      "Ġhole": 2232,
      "ĠCollection": 2233,
      "ĠSouth": 2234,
      "ĠNeo": 2235,
      "apping": 2236,
      "ĠMade": 2237,
      "Ġradical": 2238,
      "Ġ1938": 2239,
      "ĠDom": 2240,
      "Ġvari": 2241,
      "Ġsends": 2242,
      "ĠCastle": 2243,
      "scape": 2244,
      "Ġelements": 2245,
      "ĠIssues": 2246,
      "enson": 2247,
      "Ã¡r": 2248,
      "Ġornam": 2249,
      "Ġviolation": 2250,
      "ĠJon": 2251,
      "Ġatt": 2252,
      "Ġ2006": 2253,
      "ĠClin": 2254,
      "Ġcapitalist": 2255,
      "Ġproved": 2256,
      "ĠWarsaw": 2257,
      "ĠFront": 2258,
      "Ġresearchers": 2259,
      "gate": 2260,
      "Ġarchived": 2261,
      "yers": 2262,
      "Ø": 2263,
      "boats": 2264,
      "Ġcalcul": 2265,
      "wn": 2266,
      "Ġequals": 2267,
      "Ġrestoration": 2268,
      "Ind": 2269,
      "Ġbind": 2270,
      "Ġbed": 2271,
      "Ġadvocated": 2272,
      "Ġenters": 2273,
      "ĠUpper": 2274,
      "Ġappearance": 2275,
      "Ġfast": 2276,
      "ĠBrooklyn": 2277,
      "cible": 2278,
      "ĠTheology": 2279,
      "ĠJin": 2280,
      "EP": 2281,
      "Ġdigest": 2282,
      "ĠCle": 2283,
      "ming": 2284,
      "advant": 2285,
      "Ġo": 2286,
      "Ġshops": 2287,
      "rait": 2288,
      "Ġlooks": 2289,
      "Ġfinding": 2290,
      "«": 2291,
      "Ġartist": 2292,
      "ĠBed": 2293,
      "Ġprisoner": 2294,
      "ĠThir": 2295,
      "Ľ": 2296,
      "Ġcooperation": 2297,
      "Ġfought": 2298,
      "Ġarrest": 2299,
      "Ġspinal": 2300,
      "Sur": 2301,
      "abits": 2302,
      "Ġradar": 2303,
      "Ġinvited": 2304,
      "il": 2305,
      "ty": 2306,
      "Ġconv": 2307,
      "hard": 2308,
      "ĠEnglish": 2309,
      "opard": 2310,
      "ĠStevens": 2311,
      "armac": 2312,
      "Ġ95": 2313,
      "Ġlead": 2314,
      "Ġjew": 2315,
      "ogy": 2316,
      "Ġexert": 2317,
      "Ġ94": 2318,
      "Ġbehalf": 2319,
      "Ġbarrel": 2320,
      "ior": 2321,
      "ĠHyp": 2322,
      "ĠNiger": 2323,
      ":||": 2324,
      "undred": 2325,
      "ummer": 2326,
      "king": 2327,
      "aren": 2328,
      "art": 2329,
      "ĠGab": 2330,
      "Ġtoler": 2331,
      "Ġhot": 2332,
      "Ġnar": 2333,
      "Ġcreates": 2334,
      "VA": 2335,
      "oles": 2336,
      "Ġforg": 2337,
      "Ġlad": 2338,
      "ĠLuther": 2339,
      "ies": 2340,
      "Ġ1807": 2341,
      "'re": 2342,
      "Ġreceive": 2343,
      "Ġsatell": 2344,
      "ĠSoon": 2345,
      "CS": 2346,
      "Ġvolunteer": 2347,
      "Ġcancer": 2348,
      "Ġcultivated": 2349,
      "Ġbaby": 2350,
      "148": 2351,
      "ifically": 2352,
      "Ġinformal": 2353,
      "ns": 2354,
      "Ĥ¬": 2355,
      "Ġgranite": 2356,
      "Ġ1999": 2357,
      "Ġstaged": 2358,
      "ĠWay": 2359,
      "irmed": 2360,
      "inese": 2361,
      "ĠEvangelical": 2362,
      "Ġelectricity": 2363,
      "ĠSm": 2364,
      "210": 2365,
      "Ġultimate": 2366,
      "ĠLady": 2367,
      "ĠOtto": 2368,
      "Ġresembles": 2369,
      "Ġarithmetic": 2370,
      "1007": 2371,
      "ĠDistribution": 2372,
      "ĠRoberts": 2373,
      "ı": 2374,
      "Ġexplanation": 2375,
      "Ġdimensions": 2376,
      "ĠâĪ": 2377,
      "ressive": 2378,
      "ĠJohns": 2379,
      "emeteries": 2380,
      "Ġtrib": 2381,
      "Ġsul": 2382,
      "atern": 2383,
      "Ġforts": 2384,
      "Äģs": 2385,
      "Ġintest": 2386,
      "Ġhast": 2387,
      "pot": 2388,
      "Ġphones": 2389,
      "Ġbetween": 2390,
      "ĠRet": 2391,
      "Ġdeities": 2392,
      "Ġlibraries": 2393,
      "Ġcrowd": 2394,
      "ĠDetroit": 2395,
      "abor": 2396,
      "ĠBenn": 2397,
      "Ġreplacement": 2398,
      "×ľ": 2399,
      "ĠNotable": 2400,
      "1002": 2401,
      "ĠBerg": 2402,
      "USA": 2403,
      "had": 2404,
      "Ġregional": 2405,
      "ĠDol": 2406,
      "ĠNic": 2407,
      "Ġ1990": 2408,
      "',": 2409,
      "alf": 2410,
      "Ġrecomb": 2411,
      "itional": 2412,
      "Ġbr": 2413,
      "Ġshare": 2414,
      "Ġflights": 2415,
      "Ġparticipated": 2416,
      "Ġthings": 2417,
      "ĠCyr": 2418,
      "Ġparam": 2419,
      "Ġearned": 2420,
      "ì": 2421,
      "Ġcontributing": 2422,
      "Ġarguing": 2423,
      "annon": 2424,
      "iated": 2425,
      "mber": 2426,
      "Ġconsequ": 2427,
      "Ġfirearms": 2428,
      "Ġreadily": 2429,
      "ulator": 2430,
      "Ġquickly": 2431,
      "Ġtravel": 2432,
      "ĠPacific": 2433,
      "ĠEach": 2434,
      "Ġmanaged": 2435,
      "front": 2436,
      "estrian": 2437,
      "Ġhunt": 2438,
      "Ġearn": 2439,
      "ĠStart": 2440,
      "umn": 2441,
      "ĠReligion": 2442,
      "fred": 2443,
      "ĠSources": 2444,
      "Ġimmort": 2445,
      "Ġinsert": 2446,
      "Ġtransl": 2447,
      "ĠFolk": 2448,
      "Ġtries": 2449,
      "ethe": 2450,
      "ĠBo": 2451,
      "Ġusual": 2452,
      "ĠEff": 2453,
      "ata": 2454,
      "Ġmonks": 2455,
      "ene": 2456,
      "ĠTac": 2457,
      "Ġbreast": 2458,
      "prise": 2459,
      "ĠConstantine": 2460,
      "thood": 2461,
      "Ġpoin": 2462,
      "op": 2463,
      "tail": 2464,
      "ĠFram": 2465,
      "Ġsigned": 2466,
      "Ġcir": 2467,
      "%),": 2468,
      "rug": 2469,
      "ĠCong": 2470,
      "amin": 2471,
      "Ġmold": 2472,
      "Ġconsistently": 2473,
      "ĠPrentice": 2474,
      "aded": 2475,
      "Ġactually": 2476,
      "ĠHeadquarters": 2477,
      "fficiently": 2478,
      "Ġtaught": 2479,
      "gression": 2480,
      "mas": 2481,
      "Ġelse": 2482,
      "ĠTun": 2483,
      "Ġeat": 2484,
      "Ġ147": 2485,
      "Ġdealt": 2486,
      "Ġbehind": 2487,
      "Ġstrong": 2488,
      "pir": 2489,
      "Ġliterature": 2490,
      "ls": 2491,
      "ĠEdition": 2492,
      "ep": 2493,
      "rument": 2494,
      "\"\".": 2495,
      "Ġadapt": 2496,
      "elage": 2497,
      "ĠDe": 2498,
      "ĠHungary": 2499,
      "Ġranges": 2500,
      "ipped": 2501,
      "pic": 2502,
      "cker": 2503,
      "Ġruling": 2504,
      "Ġmust": 2505,
      "Ġdella": 2506,
      "ĠAcadem": 2507,
      "ĠElement": 2508,
      "ĠHack": 2509,
      "ĠElementary": 2510,
      "Ġattacking": 2511,
      "w": 2512,
      "99": 2513,
      "Ġclause": 2514,
      "Ġvibr": 2515,
      "anced": 2516,
      "Ġmartyr": 2517,
      "ass": 2518,
      "Ġaffirm": 2519,
      "ĠAdmiralty": 2520,
      "Ġone": 2521,
      "iji": 2522,
      "Latin": 2523,
      "Ġexhibit": 2524,
      "Ġloop": 2525,
      "etically": 2526,
      "Ġrocks": 2527,
      "Ġmm": 2528,
      "holm": 2529,
      "Ġabsence": 2530,
      "Ġdestroying": 2531,
      "ĠSwed": 2532,
      "ĠThomson": 2533,
      "Ġproblematic": 2534,
      "Ġpursued": 2535,
      "Ġcalcium": 2536,
      "Aut": 2537,
      "ĠArgent": 2538,
      "Ġweight": 2539,
      "ĠRepublican": 2540,
      "ĠHence": 2541,
      "Ġmolecule": 2542,
      "ĠBuddha": 2543,
      "Ġarbitrary": 2544,
      "ciences": 2545,
      "Ġsubjected": 2546,
      "Ġkilometres": 2547,
      "Ġexit": 2548,
      "Ġless": 2549,
      "Ġconsisting": 2550,
      "Ġassumption": 2551,
      "Ġabstract": 2552,
      "Ġboys": 2553,
      "Ġprovider": 2554,
      "BC": 2555,
      "Ġexc": 2556,
      "ley": 2557,
      "ĠPreservation": 2558,
      "mel": 2559,
      "Ġseem": 2560,
      "ĠBooks": 2561,
      "Ġcollecting": 2562,
      "Ġidentify": 2563,
      "Ġreliability": 2564,
      "ĠÂ£": 2565,
      "Ġenterprises": 2566,
      "ales": 2567,
      "ĠLevy": 2568,
      "mp": 2569,
      "Ġflags": 2570,
      "OD": 2571,
      "ĠFris": 2572,
      "ĠPy": 2573,
      "Ġcultural": 2574,
      "ĠAccess": 2575,
      "West": 2576,
      "Ġstarts": 2577,
      "stan": 2578,
      "hern": 2579,
      "Ġgaining": 2580,
      "do": 2581,
      "ĠHal": 2582,
      "Ġsod": 2583,
      "chan": 2584,
      "ĠBren": 2585,
      "icans": 2586,
      "Ġcongregation": 2587,
      "ĠAndrews": 2588,
      "Ġhat": 2589,
      "Ġcu": 2590,
      "ĠPDF": 2591,
      "Ġstrains": 2592,
      "ĠEaster": 2593,
      "Ġalgorithms": 2594,
      "Ġguaranteed": 2595,
      "Ġuncons": 2596,
      "Ġsyndrome": 2597,
      "abit": 2598,
      "Ġ76": 2599,
      "ĠBrew": 2600,
      "orrh": 2601,
      "ĠOriginally": 2602,
      "Ġeman": 2603,
      "Ġsynchron": 2604,
      "per": 2605,
      "Ġcampus": 2606,
      "estern": 2607,
      "ogenic": 2608,
      "ĠHast": 2609,
      "ĠFork": 2610,
      "Ġdead": 2611,
      "ĠEc": 2612,
      "ĠHughes": 2613,
      "Ġ146": 2614,
      "vation": 2615,
      "ĠRod": 2616,
      "Ġhorizont": 2617,
      "Ġ140": 2618,
      "Ġresident": 2619,
      "Ġmother": 2620,
      "Ġordering": 2621,
      "Ġsegments": 2622,
      "Ġmolecules": 2623,
      "Ġ1830": 2624,
      "..": 2625,
      "ĠCombat": 2626,
      "overy": 2627,
      "Ġduties": 2628,
      "ĠTell": 2629,
      "Ġver": 2630,
      "ividual": 2631,
      "ram": 2632,
      "insky": 2633,
      "Ġarmor": 2634,
      "ĠCanaan": 2635,
      "ĠCommunities": 2636,
      "ĠAustral": 2637,
      "Ġl": 2638,
      "ĠStewart": 2639,
      "Ġminist": 2640,
      "Ġevidently": 2641,
      "Ġfair": 2642,
      "Ġtensions": 2643,
      "ĠPearson": 2644,
      "Ġconflict": 2645,
      "Ġape": 2646,
      "Ġchoosing": 2647,
      "ĠHarbor": 2648,
      "ĠBlair": 2649,
      "Ġcriteria": 2650,
      "ĠMead": 2651,
      "ĠBlake": 2652,
      "ozoic": 2653,
      "ĠMexico": 2654,
      "iew": 2655,
      "ĠScience": 2656,
      "1999": 2657,
      "ĠBasilica": 2658,
      "Ġoccupied": 2659,
      "both": 2660,
      "Ġclothing": 2661,
      "energy": 2662,
      "perial": 2663,
      "Ġlab": 2664,
      "ĠSloven": 2665,
      "ica": 2666,
      "ĠFe": 2667,
      "Ġtemperature": 2668,
      "Ġbeyond": 2669,
      "ommod": 2670,
      "Ġ2002": 2671,
      "Ġsubdiv": 2672,
      "Ġdisapp": 2673,
      "Ġcitizen": 2674,
      "ries": 2675,
      "Ġtraffic": 2676,
      "ĠRE": 2677,
      "Ġfeature": 2678,
      "Ġexplor": 2679,
      "ĠAirlines": 2680,
      "Ġaccum": 2681,
      "âĨ": 2682,
      "ĠMort": 2683,
      "Ġinc": 2684,
      "ause": 2685,
      "ĠDoes": 2686,
      "Ġstrongest": 2687,
      "Ġsequences": 2688,
      "ĠSz": 2689,
      "rain": 2690,
      "ĠLabor": 2691,
      "habil": 2692,
      "Ġgold": 2693,
      "etta": 2694,
      "ymn": 2695,
      "157": 2696,
      "Ġenforcement": 2697,
      "ĠKos": 2698,
      "ĠVirtual": 2699,
      "150": 2700,
      "Ġfocused": 2701,
      "Ġwall": 2702,
      "Ġstrip": 2703,
      "HS": 2704,
      "Ġspl": 2705,
      "Ġpyram": 2706,
      "=": 2707,
      "347": 2708,
      "ieutenant": 2709,
      "Ġretreated": 2710,
      "Ò": 2711,
      "Ġmainstream": 2712,
      "Ġ1907": 2713,
      "Ġcomment": 2714,
      "ĠEth": 2715,
      "port": 2716,
      "Ġunsuccessful": 2717,
      "Ġtechnology": 2718,
      "ĠSuez": 2719,
      "Ġ1843": 2720,
      "ek": 2721,
      "amb": 2722,
      "1073": 2723,
      "ĠMechan": 2724,
      "Ġexplan": 2725,
      "Ġprice": 2726,
      "Ġmedications": 2727,
      "Ġall": 2728,
      "Ġbre": 2729,
      "Ġmoment": 2730,
      "ĠMont": 2731,
      "ĠAll": 2732,
      "49": 2733,
      "ellan": 2734,
      "rak": 2735,
      "Ġcompressed": 2736,
      "encing": 2737,
      "ĠAnother": 2738,
      "Ġtouch": 2739,
      "ersion": 2740,
      "ĠLanka": 2741,
      "Ġreflection": 2742,
      "Ġcul": 2743,
      "Ġlamps": 2744,
      "Ġthir": 2745,
      "gments": 2746,
      "\\": 2747,
      "usions": 2748,
      "Ġhits": 2749,
      "Ġrigid": 2750,
      "ĠLim": 2751,
      "Ġtravelled": 2752,
      "Ġnames": 2753,
      "Ġdeparted": 2754,
      "Ġsympathy": 2755,
      "Ġfictional": 2756,
      "Ġpassing": 2757,
      "ĠJam": 2758,
      "Ö¼": 2759,
      "NO": 2760,
      "Ġwait": 2761,
      "ĠVirginia": 2762,
      "Trans": 2763,
      "orian": 2764,
      "Ġastronomical": 2765,
      "ĠJupiter": 2766,
      "Ġdescription": 2767,
      "Ġchanged": 2768,
      "Ġaccidents": 2769,
      "Ġliqu": 2770,
      "ord": 2771,
      "Ġarrows": 2772,
      "Ġkilometers": 2773,
      "ĠCross": 2774,
      "Ġmonk": 2775,
      "Ġattacked": 2776,
      "Ġcontrib": 2777,
      "ĠLeo": 2778,
      "omach": 2779,
      "Ġwatch": 2780,
      "Ġdeaf": 2781,
      "ĠOper": 2782,
      "Ġgeology": 2783,
      "1937": 2784,
      "acy": 2785,
      "ĠZoo": 2786,
      "Note": 2787,
      "Ġuprising": 2788,
      "Ġtim": 2789,
      "Ġbattalion": 2790,
      "argest": 2791,
      "ĠMich": 2792,
      "Conn": 2793,
      "Ġcable": 2794,
      "Ġroutes": 2795,
      "Ġintensive": 2796,
      "Ġgalaxies": 2797,
      "Ġexamination": 2798,
      "Ġwhen": 2799,
      "ining": 2800,
      "Ġdirected": 2801,
      "Ġdut": 2802,
      "Ġconductor": 2803,
      "ties": 2804,
      "Ġappealed": 2805,
      "Ġpools": 2806,
      "ĠThomas": 2807,
      "Ġtraces": 2808,
      "ĠSpe": 2809,
      "dess": 2810,
      "enue": 2811,
      "ecting": 2812,
      "ĠNight": 2813,
      "ĠLect": 2814,
      "AR": 2815,
      "ĠRadio": 2816,
      "ĠCruz": 2817,
      "Ġappropriate": 2818,
      "Ġoverview": 2819,
      "ĠThom": 2820,
      "ilit": 2821,
      "Ġplanning": 2822,
      "ons": 2823,
      "itionally": 2824,
      "Do": 2825,
      "onds": 2826,
      "ict": 2827,
      "ĠRevival": 2828,
      "Ġdress": 2829,
      "ĠWood": 2830,
      "Ġnoun": 2831,
      "ĠCollect": 2832,
      "ĠCall": 2833,
      "Ġgains": 2834,
      "ĠChristopher": 2835,
      "Ġopened": 2836,
      "ĠMeasure": 2837,
      "Ġpub": 2838,
      "Nov": 2839,
      "Ġintervention": 2840,
      "Ġtreated": 2841,
      "Ġprofessionals": 2842,
      "Ġshows": 2843,
      "ysical": 2844,
      "San": 2845,
      "Ġdig": 2846,
      "ĠEye": 2847,
      "Ġflame": 2848,
      "Ġengrav": 2849,
      "Ġsettled": 2850,
      "Ġcoral": 2851,
      "Ġmeant": 2852,
      "390": 2853,
      "path": 2854,
      "Ġmanagers": 2855,
      "uated": 2856,
      "Ġeasily": 2857,
      "ĠJamaica": 2858,
      "ĠAttorney": 2859,
      "akers": 2860,
      "Ġescort": 2861,
      "Ġbus": 2862,
      "hetical": 2863,
      "ĠAlaska": 2864,
      "Ġsupplied": 2865,
      "Ġalph": 2866,
      "Ġmodern": 2867,
      "DB": 2868,
      "Ġcanc": 2869,
      "ĠAmsterdam": 2870,
      "ĠPer": 2871,
      "ĠFalk": 2872,
      "int": 2873,
      "ĠGram": 2874,
      "inai": 2875,
      "Ġartillery": 2876,
      "ĠSusan": 2877,
      "Ġeventually": 2878,
      "Ġachievements": 2879,
      "sign": 2880,
      "Ġchamp": 2881,
      "ĠAsia": 2882,
      "Ġcooling": 2883,
      "Ġ1833": 2884,
      "oustic": 2885,
      "ured": 2886,
      "Ġconstructed": 2887,
      "Ġscar": 2888,
      "ĠPhillips": 2889,
      "comes": 2890,
      "AM": 2891,
      "oxic": 2892,
      "Ġproduct": 2893,
      "Ġplease": 2894,
      "Ġmi": 2895,
      "ĠAM": 2896,
      "egovina": 2897,
      "Ġparts": 2898,
      "Ġinitial": 2899,
      "Ġdiscover": 2900,
      "Ġindicating": 2901,
      "obic": 2902,
      "Ġmotor": 2903,
      "ĠMuch": 2904,
      "Ġapproached": 2905,
      "Ġfacilitate": 2906,
      "Ġdisag": 2907,
      "Ġ1983": 2908,
      "Ġscientist": 2909,
      "ensively": 2910,
      "Ġpublications": 2911,
      "to": 2912,
      "cool": 2913,
      "ulsion": 2914,
      "ĠAnim": 2915,
      "ĠUsually": 2916,
      "ĠMur": 2917,
      "18": 2918,
      "ĠKent": 2919,
      "ĠSyd": 2920,
      "Ġwa": 2921,
      "oss": 2922,
      "ĠCarrier": 2923,
      "26": 2924,
      "Ġpredecess": 2925,
      "ĠQu": 2926,
      "cap": 2927,
      "ĠStructure": 2928,
      "rog": 2929,
      "Ġcease": 2930,
      "110": 2931,
      "erts": 2932,
      "Ġdomestic": 2933,
      "Ġ2017": 2934,
      "Ġexplore": 2935,
      "Ġproper": 2936,
      "typ": 2937,
      "elas": 2938,
      "Ġus": 2939,
      "Ġampl": 2940,
      "Ġdescribing": 2941,
      "Ġaux": 2942,
      "ortun": 2943,
      "Ġdollar": 2944,
      "Ġforty": 2945,
      "Ġworlds": 2946,
      "ĠRussians": 2947,
      "Ġphilosoph": 2948,
      "/,": 2949,
      "anish": 2950,
      "ĠLuke": 2951,
      "1177": 2952,
      "course": 2953,
      "ĠSantiago": 2954,
      "Ġdefinite": 2955,
      "ĠAlbania": 2956,
      "Ġbring": 2957,
      "æ": 2958,
      "Ġhang": 2959,
      "Ġfaithful": 2960,
      "Ġsodium": 2961,
      "ĠNa": 2962,
      "Ġ000": 2963,
      "Ġinsect": 2964,
      "Ġclients": 2965,
      "walk": 2966,
      "104": 2967,
      "Ġchemist": 2968,
      "Ġprocessed": 2969,
      "asha": 2970,
      "Ġbulk": 2971,
      "Ñģ": 2972,
      "Ġelastic": 2973,
      "uta": 2974,
      "gging": 2975,
      "Ġmanag": 2976,
      "Ġempt": 2977,
      "Ġaper": 2978,
      "132": 2979,
      "case": 2980,
      "ĠBerkeley": 2981,
      "Ġdevelopment": 2982,
      "Ġadvantages": 2983,
      "Mil": 2984,
      "Ġ1886": 2985,
      "Ġnewsp": 2986,
      "Ġcarried": 2987,
      "Ġske": 2988,
      "run": 2989,
      "Ġphotography": 2990,
      "Ġchart": 2991,
      "109": 2992,
      "imately": 2993,
      "Ġhorizontal": 2994,
      "ithe": 2995,
      "Ġmetres": 2996,
      "ano": 2997,
      "Ġeternal": 2998,
      "Ġ0": 2999,
      "Ġnineteenth": 3000,
      "ĠOst": 3001,
      "ĠTom": 3002,
      "ĠPT": 3003,
      "ĠInvent": 3004,
      "itte": 3005,
      "Ġdiffering": 3006,
      "286": 3007,
      "Ġlaunch": 3008,
      "Ġeduc": 3009,
      "ĠLinda": 3010,
      "ĠGay": 3011,
      "Ġ1834": 3012,
      "Ġrid": 3013,
      "ĠFish": 3014,
      "ĠDevon": 3015,
      "ĠIsaac": 3016,
      "No": 3017,
      "Sl": 3018,
      "ĠKh": 3019,
      "ĠWhit": 3020,
      "j": 3021,
      "cian": 3022,
      "ĠLiu": 3023,
      "ationally": 3024,
      "Ġhappiness": 3025,
      "anna": 3026,
      "Ġ1916": 3027,
      "ĠFound": 3028,
      "Ġoverlap": 3029,
      "ensions": 3030,
      "itian": 3031,
      "Ġmole": 3032,
      "ĠUse": 3033,
      "ussels": 3034,
      "Ġgrandfather": 3035,
      "ĠReynolds": 3036,
      "asant": 3037,
      "Ġcontaining": 3038,
      "ĠSmy": 3039,
      "Ġrises": 3040,
      "ĠReid": 3041,
      "Ġprotected": 3042,
      "Ġregion": 3043,
      "ĠStaff": 3044,
      "ĠâĪĴ": 3045,
      "ĠElsevier": 3046,
      "Ġfeathers": 3047,
      "lock": 3048,
      "ĠElder": 3049,
      "achelor": 3050,
      "Ġprofile": 3051,
      "ĠHad": 3052,
      "ĠPos": 3053,
      ".\".": 3054,
      "ĠNumbers": 3055,
      "Ġtoxic": 3056,
      "Ġdegradation": 3057,
      "85": 3058,
      "Ġbol": 3059,
      "Ġbegin": 3060,
      "ĠLink": 3061,
      "ĠPS": 3062,
      "insula": 3063,
      "Ġfacial": 3064,
      "earch": 3065,
      "Ġ12": 3066,
      "Ġcoordination": 3067,
      "ĠSerbian": 3068,
      "Ġearly": 3069,
      "ĠManufact": 3070,
      "W": 3071,
      "Ġoffering": 3072,
      "ĠLane": 3073,
      "ĠMall": 3074,
      "ural": 3075,
      "ĠFor": 3076,
      "Ġcut": 3077,
      "ĠDiplom": 3078,
      "ological": 3079,
      "Ġgen": 3080,
      "uchy": 3081,
      "rown": 3082,
      "ĠGw": 3083,
      "ĠGreg": 3084,
      "rium": 3085,
      "aring": 3086,
      "Ġcoinc": 3087,
      "Ġvolt": 3088,
      "riac": 3089,
      "EG": 3090,
      "Ĵ": 3091,
      "Ġsatisfaction": 3092,
      "Ġrepresented": 3093,
      "ithuan": 3094,
      "chron": 3095,
      "108": 3096,
      "mented": 3097,
      "ĠTwentieth": 3098,
      "ler": 3099,
      "Ġexpanded": 3100,
      "Ġcelebrate": 3101,
      "aping": 3102,
      "imp": 3103,
      "Ġpatterns": 3104,
      "Ġ61": 3105,
      "also": 3106,
      "omencl": 3107,
      "ĠCritics": 3108,
      "aid": 3109,
      "If": 3110,
      "ĠByron": 3111,
      "âĢĿ,": 3112,
      "ĠTrent": 3113,
      "ĠKentucky": 3114,
      ";": 3115,
      "Ġyear": 3116,
      "Ġcharacteristics": 3117,
      "bean": 3118,
      "Ġcompliance": 3119,
      "namese": 3120,
      "oslav": 3121,
      "Ġpossibly": 3122,
      "arted": 3123,
      "ishes": 3124,
      "ĠRestoration": 3125,
      "els": 3126,
      "illas": 3127,
      "Ġahead": 3128,
      "Ġevaluation": 3129,
      "Ġfossils": 3130,
      "ĠLam": 3131,
      "Ġmirror": 3132,
      "Ġmonarch": 3133,
      "Ġsheep": 3134,
      "group": 3135,
      "Ġappre": 3136,
      "ĠSolar": 3137,
      "Ġclosest": 3138,
      "Ġphilosophers": 3139,
      "Ġsuch": 3140,
      "Ġfore": 3141,
      "Green": 3142,
      "iques": 3143,
      "ĠJar": 3144,
      "ĠMary": 3145,
      "Ġsu": 3146,
      "Ġinj": 3147,
      "Ġrecording": 3148,
      "Ġpredominant": 3149,
      "¹": 3150,
      "Ġmeasure": 3151,
      "ĠMatt": 3152,
      "ĠVA": 3153,
      "Ġunion": 3154,
      "Ġhon": 3155,
      "ĠColumb": 3156,
      "ht": 3157,
      "ĠNova": 3158,
      "Ġhidden": 3159,
      "ĠJerusalem": 3160,
      "ĠViet": 3161,
      "Ġhistorian": 3162,
      "Ġresponses": 3163,
      "ĠExamples": 3164,
      "Ġingred": 3165,
      "ul": 3166,
      "fin": 3167,
      "ig": 3168,
      "ĠQueens": 3169,
      "Ġitems": 3170,
      "Sch": 3171,
      "Ġdistress": 3172,
      "Ġdecreases": 3173,
      "Ġmaking": 3174,
      "ĠRol": 3175,
      "Ġphase": 3176,
      "Ġthumb": 3177,
      "Ġouter": 3178,
      "Ġconclusions": 3179,
      "ĠFact": 3180,
      "ĠSull": 3181,
      "ugh": 3182,
      "ics": 3183,
      "etz": 3184,
      "resents": 3185,
      "Ġtr": 3186,
      "lie": 3187,
      "ĠAli": 3188,
      "ĠExample": 3189,
      "Ġdiplomatic": 3190,
      "Ġrelating": 3191,
      "ĠAr": 3192,
      "Ġoverwhel": 3193,
      "Ġfile": 3194,
      "ĠJulius": 3195,
      "Ġcategories": 3196,
      "ĠArchived": 3197,
      "Ġdetect": 3198,
      "ega": 3199,
      "ĠDocument": 3200,
      "ĠKaw": 3201,
      "Ġwere": 3202,
      "Ġcorporate": 3203,
      "part": 3204,
      "oming": 3205,
      "Ġsnow": 3206,
      "Ġelectro": 3207,
      "Ġdisplaced": 3208,
      "240": 3209,
      "ãĢ": 3210,
      "Ġbelieved": 3211,
      "dist": 3212,
      "sel": 3213,
      "Ġoutline": 3214,
      "Ġconnecting": 3215,
      "ĠPhilosophical": 3216,
      "supp": 3217,
      "uine": 3218,
      "Ġbiggest": 3219,
      "aling": 3220,
      "Ġrebellion": 3221,
      "Ġ1805": 3222,
      "Ġreference": 3223,
      "ple": 3224,
      "ure": 3225,
      "Ġ5": 3226,
      "Ġsus": 3227,
      "Ġlacking": 3228,
      "rh": 3229,
      "Ġactivity": 3230,
      "Ġexample": 3231,
      "ã": 3232,
      "ained": 3233,
      ",âĢĿ": 3234,
      "ĠClarke": 3235,
      "Ġcapt": 3236,
      "Ġcentral": 3237,
      "autical": 3238,
      "ĠGoogle": 3239,
      "%||": 3240,
      "ĠRenaissance": 3241,
      "1955": 3242,
      "ĠKre": 3243,
      "Ġserial": 3244,
      "Ġdiagn": 3245,
      "alis": 3246,
      "Ġow": 3247,
      "ĠAlps": 3248,
      "Ġrepl": 3249,
      "112": 3250,
      "Ġfulf": 3251,
      "Ġtributary": 3252,
      "Ġdomains": 3253,
      "Ġattempting": 3254,
      "ket": 3255,
      "ĠConrad": 3256,
      "Ġmeal": 3257,
      "ĠProto": 3258,
      "Ġcrime": 3259,
      "Ġpartnership": 3260,
      "Ġfoundation": 3261,
      "Ġturbine": 3262,
      "4": 3263,
      "Ġwhite": 3264,
      "inem": 3265,
      "ĠTowns": 3266,
      "Ġvictory": 3267,
      "ĠWol": 3268,
      "enos": 3269,
      "Ġbudget": 3270,
      "itation": 3271,
      "ĠPrince": 3272,
      "inc": 3273,
      "Ġsust": 3274,
      "ĠUlt": 3275,
      "Ġaspect": 3276,
      "rut": 3277,
      "Ġcamps": 3278,
      "uous": 3279,
      "Ġpractition": 3280,
      "ny": 3281,
      "¨": 3282,
      "Ġflo": 3283,
      "ĠCaucas": 3284,
      "ĠMason": 3285,
      "February": 3286,
      "Ġcommittee": 3287,
      "ĠToday": 3288,
      "letin": 3289,
      "ivid": 3290,
      "ĠPlains": 3291,
      "Ġprovides": 3292,
      "uster": 3293,
      "Ġunderstood": 3294,
      "ĠVictoria": 3295,
      "Ġreflects": 3296,
      "Ġcompuls": 3297,
      "ublished": 3298,
      "castle": 3299,
      "Ġep": 3300,
      "Ġwoods": 3301,
      "ĠKÃ¶": 3302,
      "Ġbeds": 3303,
      "ĠRegulations": 3304,
      "ivan": 3305,
      "Ġdownload": 3306,
      "Ġkin": 3307,
      "oral": 3308,
      "Ġ9": 3309,
      "Ġleads": 3310,
      "Ġdrown": 3311,
      "Ġrecognised": 3312,
      "Ġobedience": 3313,
      "Ġpatents": 3314,
      "Ġreproduction": 3315,
      "Ġcancelled": 3316,
      "DE": 3317,
      "oration": 3318,
      "Ġcreative": 3319,
      "zerb": 3320,
      "Ġretin": 3321,
      "Ġhusband": 3322,
      "ĠFerm": 3323,
      "ĠJun": 3324,
      "ĠHague": 3325,
      "porary": 3326,
      "ĠSan": 3327,
      "ĠSh": 3328,
      "Ġrequired": 3329,
      "Ġnucle": 3330,
      "pril": 3331,
      "ĠRog": 3332,
      "essed": 3333,
      "ĠGovernor": 3334,
      "Ġprecursor": 3335,
      "ĠXVI": 3336,
      "66": 3337,
      "Ġignor": 3338,
      "Ġsubstances": 3339,
      "Ġsuperv": 3340,
      "Ġrising": 3341,
      "Ġfields": 3342,
      "rust": 3343,
      "Ġshares": 3344,
      "ĠIndustrial": 3345,
      "Ġconfiguration": 3346,
      "edu": 3347,
      "bed": 3348,
      "iling": 3349,
      "ĠProtestants": 3350,
      "Ġflexible": 3351,
      "Ġ2022": 3352,
      "ĠUnf": 3353,
      "ĠSic": 3354,
      "Ġfluorescent": 3355,
      "bour": 3356,
      "ĠNash": 3357,
      "pill": 3358,
      "ider": 3359,
      "illo": 3360,
      "books": 3361,
      "Ġinto": 3362,
      "Ġeach": 3363,
      "Ġhyp": 3364,
      "Ġbore": 3365,
      "ĠFund": 3366,
      "Ġconstruction": 3367,
      "Ġdebated": 3368,
      "phrine": 3369,
      "Ġcomposers": 3370,
      "obil": 3371,
      "profit": 3372,
      "ropol": 3373,
      "Ġgrap": 3374,
      "Ġpist": 3375,
      "ima": 3376,
      "Ġcommanding": 3377,
      "Ġstood": 3378,
      "Ġfles": 3379,
      "Ġmodify": 3380,
      "za": 3381,
      "families": 3382,
      "ML": 3383,
      "Ġyet": 3384,
      "Res": 3385,
      "ĠCritical": 3386,
      "Ġhospitals": 3387,
      "roscopic": 3388,
      "ĠHarvey": 3389,
      "Ġsuffering": 3390,
      "Ġownership": 3391,
      "Ġrest": 3392,
      "L": 3393,
      "Ġwins": 3394,
      "arn": 3395,
      "Ġcorporations": 3396,
      "Ġmodule": 3397,
      "Ġsuspic": 3398,
      "ffer": 3399,
      "Ġaccus": 3400,
      "Ġant": 3401,
      "uations": 3402,
      "Ġraise": 3403,
      "Ġsurv": 3404,
      "ph": 3405,
      "Ġdescendants": 3406,
      "Ġliterary": 3407,
      "Ġvote": 3408,
      "IP": 3409,
      "ĠArgentine": 3410,
      "ĠPsych": 3411,
      "ĠMÃ¼ller": 3412,
      "ih": 3413,
      "Ġ600": 3414,
      "Ġprovision": 3415,
      "Ġalk": 3416,
      "Ġswit": 3417,
      "ense": 3418,
      "ĠLarge": 3419,
      "ĠArea": 3420,
      "ishment": 3421,
      "iously": 3422,
      "Ġ1890": 3423,
      "ĠInitially": 3424,
      "ĠReports": 3425,
      "hon": 3426,
      "Ġbased": 3427,
      "orage": 3428,
      "rud": 3429,
      "Ġprivacy": 3430,
      "Ġgenetically": 3431,
      "MP": 3432,
      "Ġemerged": 3433,
      "ÑĮ": 3434,
      "Ġdeparture": 3435,
      "ĠTurn": 3436,
      "ples": 3437,
      "Ġmagnet": 3438,
      "ersonal": 3439,
      "ohn": 3440,
      "Ġincident": 3441,
      "Ġstory": 3442,
      "Ġfix": 3443,
      "ripp": 3444,
      "Ġsched": 3445,
      "eyer": 3446,
      "Ġwe": 3447,
      "irus": 3448,
      "Ġdiscretion": 3449,
      "¦": 3450,
      "gov": 3451,
      "Ġbord": 3452,
      "Ġfollowing": 3453,
      "Ġmeals": 3454,
      "eu": 3455,
      "Ġtaken": 3456,
      "Ġpatronage": 3457,
      "Ġwaiting": 3458,
      "osp": 3459,
      "Ġkings": 3460,
      "Ac": 3461,
      "eler": 3462,
      "Ġtrans": 3463,
      "Ġsubmar": 3464,
      "als": 3465,
      "Ġhim": 3466,
      "ĠSch": 3467,
      "ĠAmong": 3468,
      "edar": 3469,
      "rusted": 3470,
      "Ġpolitician": 3471,
      "pled": 3472,
      "ĠDevelop": 3473,
      "ĠPav": 3474,
      "Ġparameter": 3475,
      "Ġfl": 3476,
      "ĠFarm": 3477,
      "Ġma": 3478,
      "Ġconstant": 3479,
      "perm": 3480,
      "ĠGrey": 3481,
      "Ġrealized": 3482,
      "ĠMond": 3483,
      "Ġleather": 3484,
      "ĠCat": 3485,
      "Ġbasin": 3486,
      "ĠQual": 3487,
      "ĠDefense": 3488,
      "bore": 3489,
      "ices": 3490,
      "Ġfairly": 3491,
      "Ġcountries": 3492,
      "Ġinflation": 3493,
      "aland": 3494,
      "Ġbeaut": 3495,
      "Us": 3496,
      "Ġgiant": 3497,
      "Ġbones": 3498,
      "making": 3499,
      "ĠJer": 3500,
      "eper": 3501,
      "ĠPro": 3502,
      "Ġtruth": 3503,
      "Ġsuffer": 3504,
      "Ġhappens": 3505,
      "utch": 3506,
      "Ġcentered": 3507,
      "rians": 3508,
      "29": 3509,
      "113": 3510,
      "ĠNap": 3511,
      "umi": 3512,
      "ĠTerm": 3513,
      "rough": 3514,
      "14": 3515,
      "ĠCornwall": 3516,
      "ĠGilbert": 3517,
      "ĠBarn": 3518,
      "Ġ1970": 3519,
      "ymph": 3520,
      "åŃ": 3521,
      "Ġsummar": 3522,
      "Ġcontemporaries": 3523,
      "ĠEin": 3524,
      "Ġfil": 3525,
      "ĠDead": 3526,
      "Ġretro": 3527,
      "Ġflower": 3528,
      "ĠMoh": 3529,
      "ĠChe": 3530,
      "Ġprison": 3531,
      "Ġwear": 3532,
      "Ġbigger": 3533,
      "beit": 3534,
      "lected": 3535,
      "ersh": 3536,
      "This": 3537,
      "atro": 3538,
      "Ġelect": 3539,
      "prus": 3540,
      "Sh": 3541,
      "Ġlat": 3542,
      "ĠXX": 3543,
      "ĠBos": 3544,
      "Ġguarantee": 3545,
      "Ġcriticism": 3546,
      "Ġchoose": 3547,
      "ĠPione": 3548,
      "Äģn": 3549,
      "ĠReason": 3550,
      "âĨĴ": 3551,
      "ĠGro": 3552,
      "Ġorganized": 3553,
      "ĠMay": 3554,
      "Ġreasoning": 3555,
      "ĠLaws": 3556,
      "uture": 3557,
      "ĠTib": 3558,
      "ķ": 3559,
      "idian": 3560,
      "Ġverse": 3561,
      "Ġdeck": 3562,
      "bishop": 3563,
      "bor": 3564,
      "Ġheaven": 3565,
      "ĠPlato": 3566,
      "Ġbrand": 3567,
      "Ġassoci": 3568,
      "ĠNich": 3569,
      "Ġill": 3570,
      "Ġgeneration": 3571,
      "ĠDecember": 3572,
      "ĠArd": 3573,
      "sp": 3574,
      "Ġadoption": 3575,
      "Ġ|-": 3576,
      "Ġvolunteers": 3577,
      "overs": 3578,
      "Ġcasualties": 3579,
      "Ġterminology": 3580,
      "ĠAtl": 3581,
      "Ġneglect": 3582,
      "ĠBismarck": 3583,
      "Ġusers": 3584,
      "evel": 3585,
      "Ġsubstitute": 3586,
      "ĠJones": 3587,
      "munition": 3588,
      "Ġremov": 3589,
      "ART": 3590,
      "uy": 3591,
      "Ġcomprises": 3592,
      "Ġpremature": 3593,
      "ĠDub": 3594,
      "Ġsuc": 3595,
      "inters": 3596,
      "Ġoverseas": 3597,
      "entin": 3598,
      "ĠNot": 3599,
      "ĠO": 3600,
      "rab": 3601,
      "1903": 3602,
      "Ġvariations": 3603,
      "ĠBoris": 3604,
      "andom": 3605,
      "ĠLis": 3606,
      "Ġcostly": 3607,
      "Ġconclude": 3608,
      "Ġocc": 3609,
      "'\".": 3610,
      "ĠSymb": 3611,
      "ĠMicro": 3612,
      "Ġspherical": 3613,
      "ĠGrande": 3614,
      "ĠLake": 3615,
      "amorph": 3616,
      "Hill": 3617,
      "edies": 3618,
      "off": 3619,
      "Ġresulted": 3620,
      "Ġproximity": 3621,
      "ĠBoard": 3622,
      "Ġpir": 3623,
      "gus": 3624,
      "urban": 3625,
      "Ġwage": 3626,
      "ciples": 3627,
      "Ġ1816": 3628,
      "ĵ": 3629,
      "Ġsyllable": 3630,
      "Ġissued": 3631,
      "Ġrenew": 3632,
      "Ġencounter": 3633,
      "Ass": 3634,
      "ĠGlobe": 3635,
      "mill": 3636,
      "ae": 3637,
      "IA": 3638,
      "ĠAnatolia": 3639,
      "Ö°": 3640,
      "Ġ185": 3641,
      "Ġequivalent": 3642,
      "Spe": 3643,
      "About": 3644,
      "eter": 3645,
      "rel": 3646,
      "ography": 3647,
      "Ġ1846": 3648,
      "uary": 3649,
      "áĢ": 3650,
      "1927": 3651,
      "ĠPra": 3652,
      "Ġ1997": 3653,
      "ĠDeath": 3654,
      "izal": 3655,
      "Ġproverbs": 3656,
      "Ġelectoral": 3657,
      "ĠJu": 3658,
      "Ġpit": 3659,
      "Ġcra": 3660,
      "ĠElectric": 3661,
      "ĠFitz": 3662,
      "Ġarray": 3663,
      "Ġmap": 3664,
      "ĠItalian": 3665,
      "life": 3666,
      "dead": 3667,
      "Ġdensity": 3668,
      "Ġanger": 3669,
      "Ġparade": 3670,
      "ĠCharacter": 3671,
      "52": 3672,
      "Born": 3673,
      "ĠJustice": 3674,
      "Ġtonn": 3675,
      "ĠBorough": 3676,
      "Ġsav": 3677,
      "ĠCand": 3678,
      "B": 3679,
      "Ġsomething": 3680,
      "Ġdepartments": 3681,
      "Ġcontamination": 3682,
      "Ġback": 3683,
      "Ġrolling": 3684,
      "ĠLetters": 3685,
      "Ġviewed": 3686,
      "TS": 3687,
      "ĠHard": 3688,
      "ĠCavalry": 3689,
      "Ġwhereby": 3690,
      "Ġbiblical": 3691,
      "ĠAntarctic": 3692,
      "ĠBiol": 3693,
      "ĠDod": 3694,
      "speaking": 3695,
      "*": 3696,
      "ĠPand": 3697,
      "ĠPrest": 3698,
      "Ġmonth": 3699,
      "Ġdemand": 3700,
      "Ġdiscoveries": 3701,
      "ĠStudies": 3702,
      "Ġsupports": 3703,
      "Ġelectrom": 3704,
      "ĠDiversity": 3705,
      "oms": 3706,
      "oces": 3707,
      "Ġisol": 3708,
      "Ġefficiency": 3709,
      "ë": 3710,
      "Ġunrelated": 3711,
      "Ġ42": 3712,
      "ĠPack": 3713,
      "Ġresult": 3714,
      "Ġclo": 3715,
      "ĠLabour": 3716,
      "raits": 3717,
      "ĠDist": 3718,
      "aedia": 3719,
      "ī": 3720,
      "Ġnov": 3721,
      "Ġinterview": 3722,
      "ĠSH": 3723,
      "March": 3724,
      "Ġaureus": 3725,
      "Ġsecre": 3726,
      "cence": 3727,
      "Ġregulations": 3728,
      "ĠArthur": 3729,
      "culine": 3730,
      "fecture": 3731,
      "Ġrun": 3732,
      "airo": 3733,
      "Ġpolitically": 3734,
      "Ġaddressed": 3735,
      "Ġtoday": 3736,
      "Ġ79": 3737,
      "ocking": 3738,
      "ĠWords": 3739,
      "Ġ1872": 3740,
      "Ġfreed": 3741,
      "ĠTechnical": 3742,
      "Ġlove": 3743,
      "Ġdue": 3744,
      "Ġinvestors": 3745,
      "Ġ171": 3746,
      "eastern": 3747,
      "tain": 3748,
      "Elevation": 3749,
      "Ġencyclop": 3750,
      "Ġescape": 3751,
      "ĠNicholas": 3752,
      "Ġtempor": 3753,
      "Ġimpe": 3754,
      "Ġcard": 3755,
      "ĠColon": 3756,
      "Ġfree": 3757,
      "Ġ1917": 3758,
      "oons": 3759,
      "resh": 3760,
      "FB": 3761,
      "Ġimper": 3762,
      "ounds": 3763,
      "Ġannoun": 3764,
      "Ġexercised": 3765,
      "Ġsignal": 3766,
      "Ġpathways": 3767,
      "Ġappoint": 3768,
      "ĠOg": 3769,
      "Ġcomposition": 3770,
      "Ġpurif": 3771,
      "inians": 3772,
      "Ġ181": 3773,
      "ĠCollins": 3774,
      "point": 3775,
      "utsc": 3776,
      "Ġeffects": 3777,
      "Ġelected": 3778,
      "lla": 3779,
      "atre": 3780,
      "ennon": 3781,
      "Ġcourt": 3782,
      "ĠNY": 3783,
      "Ġsolutions": 3784,
      "ogs": 3785,
      "ĠPractice": 3786,
      "has": 3787,
      "ĠEngineers": 3788,
      "ĠResp": 3789,
      "Ġcam": 3790,
      "Ġout": 3791,
      "Ġlater": 3792,
      "ĠSoviet": 3793,
      "Ġfreely": 3794,
      "ĠSqu": 3795,
      "ulus": 3796,
      "Ġstamps": 3797,
      "Ġfalling": 3798,
      "aven": 3799,
      "hin": 3800,
      "Ġefforts": 3801,
      "ĠResear": 3802,
      "Ġprophet": 3803,
      "WR": 3804,
      "current": 3805,
      "Ġnative": 3806,
      "ĠEdward": 3807,
      "ĠOri": 3808,
      "rials": 3809,
      "otic": 3810,
      "hyth": 3811,
      "ention": 3812,
      "Ġiniti": 3813,
      "aneously": 3814,
      "Ġdirect": 3815,
      "Ġ165": 3816,
      "Ġdaily": 3817,
      "new": 3818,
      "ĠClimate": 3819,
      "acon": 3820,
      "ĠPrem": 3821,
      "Ġuses": 3822,
      "Ġtold": 3823,
      "Ã¤r": 3824,
      "ĠGothic": 3825,
      "sych": 3826,
      "Ġdecreased": 3827,
      "ences": 3828,
      "Ġglobal": 3829,
      "seud": 3830,
      "Ġpredicted": 3831,
      "ĠMag": 3832,
      "Ġxx": 3833,
      "ĠMif": 3834,
      "ceed": 3835,
      "cember": 3836,
      "Ġeveryone": 3837,
      "Ġbridge": 3838,
      "iations": 3839,
      "Ġinteraction": 3840,
      "Ġdiffusion": 3841,
      "ĠMarket": 3842,
      "lev": 3843,
      "isan": 3844,
      "leigh": 3845,
      "ĠRailroad": 3846,
      "hu": 3847,
      "ĠFritz": 3848,
      "Ġlev": 3849,
      "Ġlifetime": 3850,
      "Ġsnakes": 3851,
      "Ġprojection": 3852,
      "Ġcorps": 3853,
      "Ġmarriages": 3854,
      "Ġverb": 3855,
      "Ġalgebra": 3856,
      "fs": 3857,
      "Ġsure": 3858,
      "93": 3859,
      "1974": 3860,
      "Ġspark": 3861,
      "ĠDrug": 3862,
      "ĠCatholicism": 3863,
      "Ġlist": 3864,
      "Ġpione": 3865,
      "Ġrefuge": 3866,
      "Ġfrequencies": 3867,
      "Ġbomber": 3868,
      "Ġerosion": 3869,
      "ographic": 3870,
      "Ġpal": 3871,
      "Ġcommonly": 3872,
      "Ġconfused": 3873,
      "Ġleader": 3874,
      "Ġincreasingly": 3875,
      "ĠAnton": 3876,
      "iege": 3877,
      "Ġexplicitly": 3878,
      "bury": 3879,
      "Ġamalgam": 3880,
      "Ġvit": 3881,
      "alus": 3882,
      "acity": 3883,
      "Ġmonopoly": 3884,
      "Ġinterpre": 3885,
      ")(": 3886,
      "ĠRebell": 3887,
      "Ġpromin": 3888,
      "ĠLeft": 3889,
      "iah": 3890,
      "Ġcontext": 3891,
      "Ġ161": 3892,
      "ĠCraig": 3893,
      "Ġgases": 3894,
      "Ġlinks": 3895,
      "Ġevangel": 3896,
      "hemat": 3897,
      "ĠRoss": 3898,
      "Ġworst": 3899,
      "ĠCA": 3900,
      "ĠFa": 3901,
      "å": 3902,
      "Ġbreed": 3903,
      "212": 3904,
      "Ġseventh": 3905,
      "ĠCicero": 3906,
      "ort": 3907,
      "Ġthereby": 3908,
      "Ġplaced": 3909,
      "Ð": 3910,
      "ĠEnter": 3911,
      "kind": 3912,
      "Ġassist": 3913,
      "Ġconcrete": 3914,
      "ĠBalt": 3915,
      "active": 3916,
      "ĠMuseum": 3917,
      "Ġpolitics": 3918,
      "iciency": 3919,
      "iterranean": 3920,
      "ĠVichy": 3921,
      "ĠOrchestra": 3922,
      "ĠCanon": 3923,
      "urt": 3924,
      "Ġremained": 3925,
      "ĠVill": 3926,
      "âĪĴ": 3927,
      "ĠBaptist": 3928,
      "Ġaccess": 3929,
      "Ġexpl": 3930,
      "ĠGrant": 3931,
      "Ġthr": 3932,
      "ĠAustria": 3933,
      "ĠApril": 3934,
      "ĠBasic": 3935,
      "ĠDob": 3936,
      "ĠPenguin": 3937,
      "Ġdivorce": 3938,
      "ĠAge": 3939,
      "Ġdictionaries": 3940,
      "eur": 3941,
      "Ġpole": 3942,
      "1921": 3943,
      "Ġhimself": 3944,
      "itzer": 3945,
      "ĠJune": 3946,
      "Ġexternal": 3947,
      "ĠPolitical": 3948,
      "ĠVers": 3949,
      "Ġideology": 3950,
      "Ġultimately": 3951,
      "Ġster": 3952,
      "Ġshar": 3953,
      "Ġrobust": 3954,
      "Ġpatri": 3955,
      "ĠRou": 3956,
      "Ġconfidence": 3957,
      "stream": 3958,
      "Ġoak": 3959,
      "Ġarts": 3960,
      "131": 3961,
      "ĠSaudi": 3962,
      "Ġmiddle": 3963,
      "Ø¯": 3964,
      "ÐµÐ»": 3965,
      "ĠIndo": 3966,
      "2018": 3967,
      "Ġnests": 3968,
      "reen": 3969,
      "ardment": 3970,
      "Ġ62": 3971,
      "NC": 3972,
      "ĠPerspective": 3973,
      "hew": 3974,
      "ĠIntroduction": 3975,
      "ĠJur": 3976,
      "eval": 3977,
      "Ġesc": 3978,
      "ĠBosnia": 3979,
      "114": 3980,
      "Ġopp": 3981,
      "utenberg": 3982,
      "Ġforeigners": 3983,
      "uccess": 3984,
      "ĠStatistics": 3985,
      "Ġsamples": 3986,
      "Ġ48": 3987,
      "Ġparticipating": 3988,
      "ĠDog": 3989,
      "Ġpine": 3990,
      "Ġexposure": 3991,
      "Ġtourists": 3992,
      "ĠGiovanni": 3993,
      "itical": 3994,
      "ĠHold": 3995,
      "prin": 3996,
      "ĠEsp": 3997,
      "Ġensuring": 3998,
      "Ġacres": 3999,
      "Ġmart": 4000,
      "ĠLyon": 4001,
      "Ġspotted": 4002,
      "pres": 4003,
      "Ġrate": 4004,
      "Ġsystems": 4005,
      "Ġdeliver": 4006,
      "ĠAlong": 4007,
      "Hung": 4008,
      "Ġtraits": 4009,
      "ĠUrban": 4010,
      "Ġbul": 4011,
      "ĠHaz": 4012,
      "Ġfreight": 4013,
      "Ġwore": 4014,
      "Ġax": 4015,
      "ĠMoon": 4016,
      "spe": 4017,
      "Ġsignificance": 4018,
      "oufl": 4019,
      "ife": 4020,
      "Ġspecification": 4021,
      "tered": 4022,
      "ĠCape": 4023,
      "Ġcalm": 4024,
      "ĠBelgium": 4025,
      "RA": 4026,
      "ĠInformation": 4027,
      "Ġresembl": 4028,
      "Ġcontinent": 4029,
      "ival": 4030,
      "Ġmosque": 4031,
      "agne": 4032,
      "ĠKurd": 4033,
      "alls": 4034,
      "ĠRS": 4035,
      "Ġorganization": 4036,
      "ĠFlorence": 4037,
      "Ġdisin": 4038,
      "ĠMetropolitan": 4039,
      "ĠDelta": 4040,
      "apped": 4041,
      "Ġ01": 4042,
      "Ġquotations": 4043,
      "ĠSimple": 4044,
      "ĠSmithsonian": 4045,
      "Ġstates": 4046,
      "å¤": 4047,
      "ĠK": 4048,
      "ysics": 4049,
      "ĠFranks": 4050,
      "Ġ>": 4051,
      "Ġvoting": 4052,
      "áº": 4053,
      "ia": 4054,
      "1970": 4055,
      "Ġcontains": 4056,
      "ĠTherapy": 4057,
      "Ġcities": 4058,
      "ages": 4059,
      "anas": 4060,
      "ajo": 4061,
      "Ġcrossing": 4062,
      "ĠMunicipal": 4063,
      "oves": 4064,
      "235": 4065,
      "Ġtracks": 4066,
      "Ġlow": 4067,
      "ĠGn": 4068,
      "oy": 4069,
      "Ġmissionary": 4070,
      "her": 4071,
      "Ġge": 4072,
      "rigg": 4073,
      "ĠWhile": 4074,
      "rinted": 4075,
      "zes": 4076,
      "inter": 4077,
      "imity": 4078,
      "Ġinfant": 4079,
      "Neill": 4080,
      "leading": 4081,
      "ĠPM": 4082,
      "ĠOther": 4083,
      "ĠPun": 4084,
      "Ġcame": 4085,
      "ĠDepend": 4086,
      "Ġlegendary": 4087,
      "Ġcommer": 4088,
      "ĠArnold": 4089,
      "aps": 4090,
      "Ġacquaint": 4091,
      "Ġlikely": 4092,
      "Ġcarefully": 4093,
      "Bo": 4094,
      "cat": 4095,
      "aff": 4096,
      "Ġdemonst": 4097,
      "ĠWalter": 4098,
      "Ġlate": 4099,
      "ĠSlavic": 4100,
      "ĠUlster": 4101,
      "Pe": 4102,
      "Ġbottom": 4103,
      "Ġconfirmed": 4104,
      "Ġstret": 4105,
      "Ġcomple": 4106,
      "ĠFurther": 4107,
      "mon": 4108,
      "ĠTrist": 4109,
      "Ġapparatus": 4110,
      "Ġinfluences": 4111,
      "ĠReformed": 4112,
      "ya": 4113,
      "ĠU": 4114,
      "mann": 4115,
      "ĠAngl": 4116,
      "Ġ1791": 4117,
      "sk": 4118,
      "Ġpipes": 4119,
      "Ġallegiance": 4120,
      "Ġsovereign": 4121,
      "ĠSo": 4122,
      "Ġadvant": 4123,
      "alks": 4124,
      "ĠKem": 4125,
      "Ġwriter": 4126,
      "à¦": 4127,
      "Ġ209": 4128,
      "b": 4129,
      "Ġmurder": 4130,
      "Ġplace": 4131,
      "Ġhe": 4132,
      "ĠPalest": 4133,
      "ivered": 4134,
      "Ġasserted": 4135,
      "Ġinduct": 4136,
      "cock": 4137,
      "Ġstimulus": 4138,
      "Ġform": 4139,
      "Ġeven": 4140,
      "Ġgoddess": 4141,
      "Ġcarries": 4142,
      "Ġawareness": 4143,
      "iza": 4144,
      "Ġprepare": 4145,
      "UTC": 4146,
      "nest": 4147,
      "Ġsch": 4148,
      "Ġvariation": 4149,
      "ĠProtocol": 4150,
      "ĠSecond": 4151,
      "Ġappointment": 4152,
      "ĠRussia": 4153,
      "ashes": 4154,
      "ite": 4155,
      "Ġmassac": 4156,
      "Ġnecess": 4157,
      "nature": 4158,
      "rinking": 4159,
      "ĠPly": 4160,
      "Ġdisappe": 4161,
      "ĠNorton": 4162,
      "Ġcompared": 4163,
      "earn": 4164,
      "bit": 4165,
      "ĠWorld": 4166,
      "Comm": 4167,
      "Ġfart": 4168,
      "Ġhumans": 4169,
      "ĠSold": 4170,
      "Ġcalling": 4171,
      "Ġproposal": 4172,
      "Ġbroadly": 4173,
      "Ġbuy": 4174,
      "ĠTos": 4175,
      "way": 4176,
      "alam": 4177,
      "Ġotherwise": 4178,
      "ĠLucas": 4179,
      "jet": 4180,
      "Ġplacing": 4181,
      "Ġremain": 4182,
      "weight": 4183,
      "Ġsell": 4184,
      "isters": 4185,
      "opes": 4186,
      "atorial": 4187,
      "Ġsurvival": 4188,
      "Ġreality": 4189,
      "ÃŃ": 4190,
      "âĻ": 4191,
      "ĠCanal": 4192,
      "Ġlowest": 4193,
      "Ġhelmet": 4194,
      "Ġtimber": 4195,
      "Ġvisiting": 4196,
      "Ġnit": 4197,
      "Ġlock": 4198,
      "Ġapproaches": 4199,
      "ĠUs": 4200,
      "ĠSubject": 4201,
      "Ġconcerns": 4202,
      "ciously": 4203,
      "ĠCalifornia": 4204,
      "Ġinland": 4205,
      "mod": 4206,
      "Ġsaid": 4207,
      "ĠReserve": 4208,
      "ĠHaw": 4209,
      "ĠDere": 4210,
      "prof": 4211,
      "Ġairport": 4212,
      "Ġvaries": 4213,
      "osaurs": 4214,
      "ĠProm": 4215,
      "674": 4216,
      "users": 4217,
      "Ġadj": 4218,
      "Ġfaculty": 4219,
      "fold": 4220,
      "ss": 4221,
      "Ġassumes": 4222,
      "Ġsheet": 4223,
      "Ġlet": 4224,
      "subscription": 4225,
      "ĠBor": 4226,
      "Ġadaptive": 4227,
      "ĠNumber": 4228,
      "Ġnode": 4229,
      "Ġorganism": 4230,
      "iatic": 4231,
      "ĠPac": 4232,
      "uming": 4233,
      "ÏĮ": 4234,
      "ĠLike": 4235,
      "Ġstatute": 4236,
      "Ġsphere": 4237,
      "ĠPhoen": 4238,
      "Ġvertical": 4239,
      "Ġpopularity": 4240,
      "kan": 4241,
      "Ġburn": 4242,
      "ĠManhattan": 4243,
      "oven": 4244,
      "Ġ117": 4245,
      "Ġmortality": 4246,
      "Sem": 4247,
      "racle": 4248,
      "oria": 4249,
      "idth": 4250,
      "Ġscore": 4251,
      "Ġ115": 4252,
      "onyms": 4253,
      "Ġshape": 4254,
      "oyage": 4255,
      "Ġabroad": 4256,
      "EL": 4257,
      "Ġbush": 4258,
      "Ġconsidering": 4259,
      "ĠWinchester": 4260,
      "SA": 4261,
      "Ġabol": 4262,
      "ĠBalkan": 4263,
      "Ġpromotion": 4264,
      "erc": 4265,
      "Ġautumn": 4266,
      "ĠPrinciples": 4267,
      "Ġsophisticated": 4268,
      "ĠMacedon": 4269,
      "Ġsick": 4270,
      "ĠHealth": 4271,
      "urgery": 4272,
      "ĠJenkins": 4273,
      "Ġmaximum": 4274,
      "ĠSig": 4275,
      "st": 4276,
      "built": 4277,
      "Ġformally": 4278,
      "Ġobtained": 4279,
      "Ġlengths": 4280,
      "ritis": 4281,
      "Ġexplosion": 4282,
      "Ġdirectly": 4283,
      "fort": 4284,
      "Ġdeclined": 4285,
      "ĠSpencer": 4286,
      "Ġpollution": 4287,
      "Ġtreaty": 4288,
      "Ġactor": 4289,
      "ĠHu": 4290,
      "ĠTraining": 4291,
      "Ġships": 4292,
      "ĠVIII": 4293,
      "Ġown": 4294,
      "dimensional": 4295,
      "Can": 4296,
      "Ġenthus": 4297,
      "Ġmyster": 4298,
      "Ġregiment": 4299,
      "Ġfol": 4300,
      "iating": 4301,
      "rael": 4302,
      "Ġphoto": 4303,
      "Ġarmour": 4304,
      "Ġwhatever": 4305,
      "ions": 4306,
      "Ġclubs": 4307,
      "Į": 4308,
      "Ġregards": 4309,
      "Ġefficient": 4310,
      "ĠSon": 4311,
      "hed": 4312,
      "ĠLoc": 4313,
      "Ġinvent": 4314,
      "Ġquantities": 4315,
      "Î»": 4316,
      "Ġof": 4317,
      "adium": 4318,
      "akov": 4319,
      "mal": 4320,
      "orning": 4321,
      "ĠDh": 4322,
      "oca": 4323,
      "ĠHahn": 4324,
      "ĠCharter": 4325,
      "ĠMeanwhile": 4326,
      "Af": 4327,
      "Ġgolden": 4328,
      "ĠCoalition": 4329,
      "Ġcommissioned": 4330,
      "enzie": 4331,
      "Ġhorm": 4332,
      "endum": 4333,
      "Ġimpl": 4334,
      "ĠHistoric": 4335,
      "Ġbasal": 4336,
      "Ġoutlaw": 4337,
      "ĠMagn": 4338,
      "Ġarchaeological": 4339,
      "Ġ1884": 4340,
      "ĠFranÃ§": 4341,
      "Ġsurveys": 4342,
      "ĠLuxembourg": 4343,
      "Ġheavier": 4344,
      "ized": 4345,
      "eneral": 4346,
      "ĠSwedenborg": 4347,
      "chem": 4348,
      "ĠWales": 4349,
      "aught": 4350,
      "Ġdetermining": 4351,
      "Ġguns": 4352,
      "Ġphases": 4353,
      "ĠRegion": 4354,
      "ĠSpecial": 4355,
      "ĠCry": 4356,
      "rooms": 4357,
      "rav": 4358,
      "yer": 4359,
      "Ġdrill": 4360,
      "Ġglucose": 4361,
      "ĠComputing": 4362,
      "ĠLiver": 4363,
      "evelt": 4364,
      "onald": 4365,
      "Ġclassified": 4366,
      "Ġeasier": 4367,
      "Ġcategor": 4368,
      "Ġcomput": 4369,
      "Ġprivilege": 4370,
      "Ġexpressing": 4371,
      "Ġcaught": 4372,
      "Ġmarking": 4373,
      "ĠAbbey": 4374,
      "ĠErnest": 4375,
      "Ġinnocent": 4376,
      "Ġradius": 4377,
      "Ġauthorities": 4378,
      "irk": 4379,
      "Ġdistingu": 4380,
      "Ġhold": 4381,
      "ĠDevelopment": 4382,
      "Ġreveals": 4383,
      "uda": 4384,
      "Ġconspiracy": 4385,
      "ref": 4386,
      "1935": 4387,
      "inned": 4388,
      "ischen": 4389,
      "Ġmarked": 4390,
      "Ġtribut": 4391,
      "Ġexpert": 4392,
      "BM": 4393,
      "ometime": 4394,
      "ĠGal": 4395,
      "ewise": 4396,
      "see": 4397,
      "Ġtranslation": 4398,
      "ilding": 4399,
      "Ġpreserve": 4400,
      "ĠFCC": 4401,
      "tole": 4402,
      "UCN": 4403,
      "med": 4404,
      "ĠLib": 4405,
      "03": 4406,
      "orpor": 4407,
      "dated": 4408,
      "rines": 4409,
      "og": 4410,
      "Ġcommun": 4411,
      "Ġchosen": 4412,
      "eme": 4413,
      "Ġ186": 4414,
      "Ġsubstance": 4415,
      "ĠPharmac": 4416,
      "ĠRoom": 4417,
      "herence": 4418,
      "Ġpros": 4419,
      "ĠFM": 4420,
      "Ġalready": 4421,
      "Ġref": 4422,
      "Ġinstrumental": 4423,
      "ĠBio": 4424,
      "ents": 4425,
      "ĠPlants": 4426,
      "OL": 4427,
      "Ġdecoration": 4428,
      "ĠCun": 4429,
      "Ġindust": 4430,
      "ĠNor": 4431,
      "oque": 4432,
      "Ġtit": 4433,
      "0": 4434,
      "ĠDep": 4435,
      "Ġtelenovelas": 4436,
      "ĠAch": 4437,
      "ĠJourney": 4438,
      "which": 4439,
      "Ġobliged": 4440,
      "Ġeditor": 4441,
      "ogues": 4442,
      "Äħ": 4443,
      "evelopment": 4444,
      "yard": 4445,
      "Ġwarned": 4446,
      "flies": 4447,
      "ĠSettle": 4448,
      "Ġalter": 4449,
      "static": 4450,
      "Ġsolo": 4451,
      "Ġports": 4452,
      "Ġremoval": 4453,
      "Ġmotion": 4454,
      "commun": 4455,
      "omical": 4456,
      "plus": 4457,
      "Ġinhib": 4458,
      "itting": 4459,
      "Ġwww": 4460,
      "ĠLep": 4461,
      "xual": 4462,
      "001": 4463,
      "Ġshells": 4464,
      "Ġsund": 4465,
      "ĠPradesh": 4466,
      "Ġ1973": 4467,
      "omi": 4468,
      "ĠBagh": 4469,
      "ĠOregon": 4470,
      "Ġacquisition": 4471,
      "Ġ77": 4472,
      "ĠPort": 4473,
      "Ġmaneu": 4474,
      "chief": 4475,
      "ĠAgreement": 4476,
      "ĠAth": 4477,
      "Ġcorners": 4478,
      "ĠMan": 4479,
      "Ġ2016": 4480,
      "ĠMount": 4481,
      "Ġdating": 4482,
      "Ġtried": 4483,
      "fried": 4484,
      "ĠAmericas": 4485,
      "ism": 4486,
      "ĠHuman": 4487,
      "Ġinfluential": 4488,
      "Ġequation": 4489,
      "Ġgel": 4490,
      "Ġtheolog": 4491,
      "gin": 4492,
      "rity": 4493,
      "Ġsetting": 4494,
      "ĠHave": 4495,
      "ĠThey": 4496,
      "ĠWin": 4497,
      "elaide": 4498,
      "Ġvolcanic": 4499,
      "1972": 4500,
      "ĠAccessed": 4501,
      "Ġadjective": 4502,
      "ĠMaterials": 4503,
      "ĠHigh": 4504,
      "fulness": 4505,
      "Ġexclusive": 4506,
      "eldom": 4507,
      "ĠOv": 4508,
      "Ġendangered": 4509,
      "ĠAlexandria": 4510,
      "such": 4511,
      "Ġ87": 4512,
      "Ġbehaviors": 4513,
      "Ġprivate": 4514,
      "Ġprint": 4515,
      "Ġencourag": 4516,
      "warf": 4517,
      "lli": 4518,
      "Ġadvoc": 4519,
      "Ġstick": 4520,
      "Ġcolon": 4521,
      "Ġequations": 4522,
      "Ġcult": 4523,
      "Ĩ": 4524,
      "ĠMet": 4525,
      "GS": 4526,
      "ĠMÃ¼": 4527,
      "Ġ173": 4528,
      "Ġenemies": 4529,
      "stock": 4530,
      "Ġamended": 4531,
      "erver": 4532,
      "Ġchampion": 4533,
      "Ġvalleys": 4534,
      "Ġexcer": 4535,
      "ĠEssex": 4536,
      "?\"": 4537,
      "Ġlyrics": 4538,
      "Ġappointed": 4539,
      "ibald": 4540,
      "ĠMountain": 4541,
      "°": 4542,
      "Ġwreck": 4543,
      "Ġcommodities": 4544,
      "Ġsunk": 4545,
      "ĠExpedition": 4546,
      "ĠDeep": 4547,
      "ĠFlorida": 4548,
      "Ġthroat": 4549,
      "ods": 4550,
      "ven": 4551,
      "Met": 4552,
      "Ġfuel": 4553,
      "ioxide": 4554,
      "!\"": 4555,
      "Ġstrate": 4556,
      "Ġreduce": 4557,
      "Ġmandatory": 4558,
      "Ġsubt": 4559,
      "ĠLatter": 4560,
      "ĠMontreal": 4561,
      "ĠUk": 4562,
      "ĠLtd": 4563,
      "ĠBased": 4564,
      "Camb": 4565,
      "Ġdrop": 4566,
      "Ġstrain": 4567,
      "ĠCont": 4568,
      "ust": 4569,
      "ĠConfederacy": 4570,
      "Ġsepar": 4571,
      "phones": 4572,
      "uation": 4573,
      "Ġneeded": 4574,
      "ĠMaya": 4575,
      "rastructure": 4576,
      "Ġtwelve": 4577,
      "ĠIsles": 4578,
      "ĠCongo": 4579,
      "ality": 4580,
      "ĠSteph": 4581,
      "Ġconne": 4582,
      "Ġprocedure": 4583,
      "rish": 4584,
      "Ġministry": 4585,
      "Ġhip": 4586,
      "Ġmoderate": 4587,
      "ĠIN": 4588,
      "Ġordin": 4589,
      "Ġ206": 4590,
      "Ġcoordinate": 4591,
      "Ġfelt": 4592,
      "Ġmer": 4593,
      "Ġkick": 4594,
      "ĠKrist": 4595,
      "thly": 4596,
      "Ġcorrespond": 4597,
      "ushing": 4598,
      "ĠLloyd": 4599,
      "Ġweigh": 4600,
      "olo": 4601,
      "Ġdesire": 4602,
      "beck": 4603,
      "Ġyellow": 4604,
      "ĠGreater": 4605,
      "ĠOreg": 4606,
      "ĠPTSD": 4607,
      "ĠWeather": 4608,
      "Ġenhance": 4609,
      "Ġradioactive": 4610,
      "ĠRob": 4611,
      "col": 4612,
      "orient": 4613,
      "171": 4614,
      "ie": 4615,
      "Ġearthquake": 4616,
      "ashed": 4617,
      "1111": 4618,
      "ĠJub": 4619,
      "à¸": 4620,
      "recht": 4621,
      "ogen": 4622,
      "ĠVladimir": 4623,
      "esch": 4624,
      "ize": 4625,
      "biology": 4626,
      "Ġ1891": 4627,
      "Ġsimplified": 4628,
      "eway": 4629,
      "uan": 4630,
      "Ġtuber": 4631,
      "Ġemphasis": 4632,
      "India": 4633,
      "omal": 4634,
      "Ġ178": 4635,
      "round": 4636,
      "ava": 4637,
      "ŀ": 4638,
      "Ġareas": 4639,
      "×ķ": 4640,
      "78": 4641,
      "ĠWindows": 4642,
      "ogl": 4643,
      "inisc": 4644,
      "flight": 4645,
      "Ġbearing": 4646,
      "Cambridge": 4647,
      "Ġ1855": 4648,
      "ĠVel": 4649,
      "ĠAircraft": 4650,
      "imal": 4651,
      "ĠAmericans": 4652,
      "Ġesp": 4653,
      "Ġdat": 4654,
      "pl": 4655,
      "boy": 4656,
      "Ġglobe": 4657,
      "EM": 4658,
      "rection": 4659,
      "ĠJammu": 4660,
      "Ġdiving": 4661,
      "ĠSoft": 4662,
      "Ġliberal": 4663,
      "áĥ": 4664,
      "Ġmodular": 4665,
      "elf": 4666,
      "Ġ1921": 4667,
      "ĠFried": 4668,
      "Ġstrengthened": 4669,
      "icine": 4670,
      "ĠKirk": 4671,
      "ento": 4672,
      "Ġdepicts": 4673,
      "met": 4674,
      "Ġfloods": 4675,
      "eting": 4676,
      "Ġquantity": 4677,
      "Ġgradual": 4678,
      "Ġ2004": 4679,
      "var": 4680,
      "Ġmutual": 4681,
      "Ġheated": 4682,
      "Ġcylindrical": 4683,
      "ĠThor": 4684,
      "Ġunrest": 4685,
      "ĠClass": 4686,
      "week": 4687,
      "ĠVon": 4688,
      "ĠMaterial": 4689,
      "ĠHitler": 4690,
      "Ġmarine": 4691,
      "Ġease": 4692,
      "SN": 4693,
      "Ġdign": 4694,
      "Ġchairman": 4695,
      "ony": 4696,
      "ÙĪ": 4697,
      "Ġbiology": 4698,
      "Ġargues": 4699,
      "239": 4700,
      "omas": 4701,
      "ĠNative": 4702,
      "olph": 4703,
      "Ġthough": 4704,
      "Ġoperated": 4705,
      "gestion": 4706,
      "Ġ85": 4707,
      "ells": 4708,
      "Ġsymbols": 4709,
      "Ġrow": 4710,
      "ĠPh": 4711,
      "uels": 4712,
      "Ġcivil": 4713,
      "hydro": 4714,
      "Ġdigits": 4715,
      "ĠJane": 4716,
      "ĠBrun": 4717,
      "clamation": 4718,
      "Ġmetab": 4719,
      "ĠLad": 4720,
      "Ġpreferred": 4721,
      "inema": 4722,
      "ĠConflict": 4723,
      "Ġseventy": 4724,
      "Ġentered": 4725,
      "arson": 4726,
      "Ġinvestigated": 4727,
      "ĠAnne": 4728,
      "wealth": 4729,
      "gow": 4730,
      "ĠStill": 4731,
      "Ġaccur": 4732,
      "Ġbicycle": 4733,
      "iga": 4734,
      "ĠNg": 4735,
      "ĠMalay": 4736,
      "illes": 4737,
      "ĠNavy": 4738,
      "Ġcontinuation": 4739,
      "Ġnavig": 4740,
      "Ġreaction": 4741,
      "on": 4742,
      "Ġess": 4743,
      "osis": 4744,
      "nick": 4745,
      "ĠPakistani": 4746,
      "Ġaltern": 4747,
      "ĠMar": 4748,
      "unciation": 4749,
      "ĠControl": 4750,
      "Ġfacility": 4751,
      "Ġcomponents": 4752,
      "Ġpreparing": 4753,
      "ĠShaw": 4754,
      "born": 4755,
      "orum": 4756,
      "Ġemployer": 4757,
      "Ġexchang": 4758,
      "Ġphilosophy": 4759,
      "Ġemot": 4760,
      "Ġeng": 4761,
      "ĠEn": 4762,
      "ĠSang": 4763,
      "ublin": 4764,
      "Ġprompted": 4765,
      "Ġgunpowder": 4766,
      "ĠJefferson": 4767,
      "Ġattended": 4768,
      "Ġcatalog": 4769,
      "Ġscreen": 4770,
      "eling": 4771,
      "ĠEgyptians": 4772,
      "agger": 4773,
      "there": 4774,
      "iversity": 4775,
      "fer": 4776,
      "Ġrelatively": 4777,
      "river": 4778,
      "Ġboundary": 4779,
      "Ĳ": 4780,
      "Ġphrases": 4781,
      "Ġacquire": 4782,
      "008": 4783,
      "Ġware": 4784,
      "Ġ,": 4785,
      "arily": 4786,
      "Ġink": 4787,
      "Ġ2": 4788,
      "Ġcyl": 4789,
      "Ġlooking": 4790,
      "2007": 4791,
      "Ġà¤": 4792,
      "ĠStep": 4793,
      "ĠSouthwest": 4794,
      "Ġtimes": 4795,
      "athered": 4796,
      "Ġscatter": 4797,
      "it": 4798,
      "arian": 4799,
      "Ġmonetary": 4800,
      "ĠDensity": 4801,
      "Ġeff": 4802,
      "Ġarsen": 4803,
      "ĠBank": 4804,
      "bo": 4805,
      "225": 4806,
      "ongs": 4807,
      "ountain": 4808,
      "Ġoccupies": 4809,
      "ĠFood": 4810,
      "rien": 4811,
      "Ġperman": 4812,
      "urbs": 4813,
      "Ġlumin": 4814,
      "Ġmathemat": 4815,
      "ĠAnd": 4816,
      "ti": 4817,
      "eget": 4818,
      "Ġsuffix": 4819,
      "urch": 4820,
      "ĠChev": 4821,
      "¾": 4822,
      "ospital": 4823,
      "Ġirrigation": 4824,
      "Ġdisp": 4825,
      "quir": 4826,
      "Ġthemselves": 4827,
      "istance": 4828,
      "even": 4829,
      "Ġdemonstration": 4830,
      "Ġdra": 4831,
      "ĠVictor": 4832,
      "81": 4833,
      "Ġsuccessor": 4834,
      "Ġjunior": 4835,
      "ĠFasc": 4836,
      "ĠTaylor": 4837,
      "Ġbaptism": 4838,
      "ource": 4839,
      "ik": 4840,
      "ĠIR": 4841,
      "Ġmonaster": 4842,
      "che": 4843,
      "ucceeded": 4844,
      "Ġolder": 4845,
      "Ġbees": 4846,
      "estic": 4847,
      "Ġem": 4848,
      "ĠE": 4849,
      "Ġestablishment": 4850,
      "atories": 4851,
      "asons": 4852,
      "Ġunderstand": 4853,
      "Ġmanufact": 4854,
      "eks": 4855,
      "165": 4856,
      "Ġfollows": 4857,
      "ĠCumberland": 4858,
      "Ġbrick": 4859,
      "ĠOrigins": 4860,
      "ĠIslam": 4861,
      "ĠSuff": 4862,
      "ĠSpecies": 4863,
      "Ġdelay": 4864,
      "ĠHir": 4865,
      "idden": 4866,
      "ĠCT": 4867,
      "2008": 4868,
      "Ġdrugs": 4869,
      "ĠGard": 4870,
      "40": 4871,
      "ĠIndustry": 4872,
      "Ġheadquarters": 4873,
      "century": 4874,
      "297": 4875,
      "Ġfeminine": 4876,
      "1902": 4877,
      "ĠNine": 4878,
      "uku": 4879,
      "utable": 4880,
      "\";": 4881,
      "ĠPhilosophy": 4882,
      "ĠBra": 4883,
      "ierra": 4884,
      "ĠRalph": 4885,
      "25": 4886,
      "SO": 4887,
      "Ġperv": 4888,
      "ĠCuba": 4889,
      "Ġarch": 4890,
      "Ġphilos": 4891,
      "ĠFry": 4892,
      "ered": 4893,
      "ani": 4894,
      "ĠSingh": 4895,
      "Ġreinforced": 4896,
      "ĠLe": 4897,
      "Ġeligible": 4898,
      "ĠGu": 4899,
      "emble": 4900,
      "Ġworks": 4901,
      "ĠShel": 4902,
      "1961": 4903,
      "3": 4904,
      "Ġrefers": 4905,
      "itudes": 4906,
      "Ġcommunicate": 4907,
      "Ġtie": 4908,
      "Ġdro": 4909,
      "Ġtri": 4910,
      "Ġ1870": 4911,
      "Ġfusion": 4912,
      "ĠPlant": 4913,
      "Ġservant": 4914,
      "arity": 4915,
      "ra": 4916,
      "Ñĥ": 4917,
      "Ġ-": 4918,
      "Ġ1803": 4919,
      "olia": 4920,
      "007": 4921,
      "Äĥ": 4922,
      "ĠNath": 4923,
      "Ġunlike": 4924,
      "¿½": 4925,
      "Ġ1826": 4926,
      "Ġplum": 4927,
      "rop": 4928,
      "ĠOperations": 4929,
      "£": 4930,
      "Ġbot": 4931,
      "ient": 4932,
      "ĠPersia": 4933,
      "Ġknown": 4934,
      "Ġsuffered": 4935,
      "term": 4936,
      "ĠBelgian": 4937,
      "can": 4938,
      "ungs": 4939,
      "Ġmandate": 4940,
      "ĠSoph": 4941,
      "ĠPoetry": 4942,
      "Ġnews": 4943,
      "Ġepic": 4944,
      "udd": 4945,
      "ĠPartners": 4946,
      "Com": 4947,
      "Ê¿": 4948,
      "Ġredu": 4949,
      "Rev": 4950,
      "Ġum": 4951,
      "his": 4952,
      "Ġwidow": 4953,
      "Ġtopics": 4954,
      "enty": 4955,
      "Ġbeing": 4956,
      "Ġapplication": 4957,
      "aver": 4958,
      "ĠFil": 4959,
      "nian": 4960,
      "Ġvis": 4961,
      "Ġsubscrib": 4962,
      "Ġfug": 4963,
      "ĠTraditional": 4964,
      "Ġtrucks": 4965,
      "Ġcrow": 4966,
      "atist": 4967,
      "|": 4968,
      "Ġbiological": 4969,
      "AND": 4970,
      "Ġjournal": 4971,
      "mouth": 4972,
      "Portug": 4973,
      "culosis": 4974,
      "Ġpresidential": 4975,
      "Ġreading": 4976,
      "Ġstands": 4977,
      "ĠOfficial": 4978,
      "ĠHigher": 4979,
      "aphyl": 4980,
      "Ġarchitect": 4981,
      "Ġbegan": 4982,
      "Ġ265": 4983,
      "Ġgarden": 4984,
      "Ġoxide": 4985,
      "Ġpassenger": 4986,
      "roves": 4987,
      "Ġobservers": 4988,
      "ographer": 4989,
      "ichte": 4990,
      "Ġ320": 4991,
      "ĠCH": 4992,
      "Ġbarbar": 4993,
      "press": 4994,
      "ĠCao": 4995,
      "ĠBraun": 4996,
      "ÑĤ": 4997,
      "Ġadvis": 4998,
      "ĠLeb": 4999,
      "Ġpeasants": 5000,
      "ĠPR": 5001,
      "Ġ1951": 5002,
      "Ġinclud": 5003,
      "ĠWest": 5004,
      "ĠHarry": 5005,
      "Ġdrast": 5006,
      "Ġdetection": 5007,
      "asses": 5008,
      "International": 5009,
      "rett": 5010,
      "arth": 5011,
      "ow": 5012,
      "Ġtur": 5013,
      "à®": 5014,
      "ĠAnimals": 5015,
      "ify": 5016,
      "ĠMedia": 5017,
      "Ġministers": 5018,
      "Ġterritory": 5019,
      "Ġsafety": 5020,
      "Ġpotentially": 5021,
      "ĠMaurice": 5022,
      "Century": 5023,
      "ĠNag": 5024,
      "eters": 5025,
      "ructions": 5026,
      "Ġmet": 5027,
      "Ġretained": 5028,
      "Ġcylind": 5029,
      "ĠDres": 5030,
      "Ġarchives": 5031,
      "Ġmeetings": 5032,
      "thirds": 5033,
      "quiry": 5034,
      "Ġneighborhood": 5035,
      "Ġbishop": 5036,
      "ĠRobertson": 5037,
      "Ġloud": 5038,
      "pr": 5039,
      "ÙĬ": 5040,
      "ĠFrank": 5041,
      "Ġcourses": 5042,
      "ellectual": 5043,
      "Ġzero": 5044,
      "Ġeighteenth": 5045,
      "Ġsentences": 5046,
      "Ġconference": 5047,
      "Ġactress": 5048,
      "Ġautom": 5049,
      "Ġresistance": 5050,
      "ĠFebruary": 5051,
      "ĠRailway": 5052,
      "ĠMonument": 5053,
      "ĠGas": 5054,
      "Ġshut": 5055,
      "ordshire": 5056,
      "ising": 5057,
      "Ġprevailing": 5058,
      "Ð¾Ð½": 5059,
      "Ġapproval": 5060,
      "Ġtopic": 5061,
      "Ġdisputes": 5062,
      "Ġspecialized": 5063,
      "Ġbud": 5064,
      "Ġlady": 5065,
      "Ġmedieval": 5066,
      "06": 5067,
      "åı": 5068,
      "Ġoperate": 5069,
      "Ġinvestment": 5070,
      "attan": 5071,
      "Ġimperial": 5072,
      "Ġguidance": 5073,
      "Ġteaching": 5074,
      "Ġmut": 5075,
      "Ġeagle": 5076,
      "age": 5077,
      "105": 5078,
      "iquity": 5079,
      "Ġloyal": 5080,
      "Ġassuming": 5081,
      "Ġcaus": 5082,
      "Ġ170": 5083,
      "some": 5084,
      "erd": 5085,
      "Ġere": 5086,
      "Ġblade": 5087,
      "ct": 5088,
      "Ġaspects": 5089,
      "ĠLoren": 5090,
      "pd": 5091,
      "ĠMembers": 5092,
      "ĠBrah": 5093,
      "Ġth": 5094,
      "Ġmurdered": 5095,
      "Ġimpact": 5096,
      "Ġpossess": 5097,
      "Ġliz": 5098,
      "izable": 5099,
      "ĠExecutive": 5100,
      "ouse": 5101,
      "1944": 5102,
      "ĠDouble": 5103,
      "ĠNavajo": 5104,
      "enstein": 5105,
      "ĠTexas": 5106,
      "ĠMD": 5107,
      "Ġcould": 5108,
      "ĠIst": 5109,
      "154": 5110,
      "Ġstock": 5111,
      "world": 5112,
      "Ġfeatures": 5113,
      "âĢĻ": 5114,
      "Ġsyll": 5115,
      "tank": 5116,
      "olf": 5117,
      "ĠNov": 5118,
      "Ġconsiderable": 5119,
      "Ġastronomy": 5120,
      "ran": 5121,
      "aan": 5122,
      "ĠKor": 5123,
      "Ġdisorder": 5124,
      "ĠPrague": 5125,
      "ĠOur": 5126,
      "anin": 5127,
      "Ġextra": 5128,
      "uki": 5129,
      "ball": 5130,
      "Ġseemingly": 5131,
      "cular": 5132,
      "ĠOt": 5133,
      "Ġconc": 5134,
      "Ġpopulations": 5135,
      "Ġenabled": 5136,
      "osph": 5137,
      "Ġimprovement": 5138,
      "?,": 5139,
      "Ġpupil": 5140,
      "ship": 5141,
      "ĠDisc": 5142,
      "ivers": 5143,
      "Ġgas": 5144,
      "Ġchurch": 5145,
      "ĠConcept": 5146,
      "pre": 5147,
      "Ġmemor": 5148,
      "Ġuniforms": 5149,
      "Ġmining": 5150,
      "Ġmild": 5151,
      "Ġdifficulty": 5152,
      "Go": 5153,
      "ĠRest": 5154,
      "ĠDawn": 5155,
      "Ġdances": 5156,
      "Ġimmedi": 5157,
      "cific": 5158,
      "Ġspoke": 5159,
      "Ġsiege": 5160,
      "Ġmystery": 5161,
      "inery": 5162,
      "Ġacknow": 5163,
      "ald": 5164,
      "Ġtransmission": 5165,
      "nd": 5166,
      "aci": 5167,
      "Ġfront": 5168,
      "ĠQur": 5169,
      "Ġche": 5170,
      "alion": 5171,
      "Ġreceptor": 5172,
      "Ġexpress": 5173,
      "ĠarXiv": 5174,
      "Ġic": 5175,
      "Ġprints": 5176,
      "ĠEnd": 5177,
      "jani": 5178,
      "Ġalongside": 5179,
      "ĠCRC": 5180,
      "Ġ00": 5181,
      "Ġtel": 5182,
      "Ġsulfur": 5183,
      "ĠManchester": 5184,
      "Ġfamil": 5185,
      "iscons": 5186,
      "Ġcommercially": 5187,
      "urg": 5188,
      "Ġot": 5189,
      "Ġarbit": 5190,
      "riger": 5191,
      "Ġresponded": 5192,
      "ĠNancy": 5193,
      "ĠUnits": 5194,
      "eries": 5195,
      "ĠBart": 5196,
      "Ġliv": 5197,
      "ĠMov": 5198,
      "Ġ35": 5199,
      "Ġ1841": 5200,
      "ĠMemoirs": 5201,
      "legraph": 5202,
      "Ġscientific": 5203,
      "Ġarriv": 5204,
      "cking": 5205,
      "Ġsurrender": 5206,
      "Ġpilot": 5207,
      "ailed": 5208,
      "amo": 5209,
      "ceded": 5210,
      "itions": 5211,
      "ĠBoys": 5212,
      "rated": 5213,
      "ĠPublishing": 5214,
      "ĠLangu": 5215,
      "203": 5216,
      "ĠCanterbury": 5217,
      "ways": 5218,
      "Ġtop": 5219,
      "Ġstudio": 5220,
      "Ġship": 5221,
      "inion": 5222,
      "Ġ//": 5223,
      "].": 5224,
      "ond": 5225,
      "Ġcous": 5226,
      "ĠDescription": 5227,
      "Ġdebates": 5228,
      "Ġears": 5229,
      "ĠDuchess": 5230,
      "ĠRaj": 5231,
      "Ġsm": 5232,
      "ĠBCE": 5233,
      "Ġartifacts": 5234,
      "Ã¡nd": 5235,
      "Ġ179": 5236,
      "ĠSoftware": 5237,
      "Ġintermedi": 5238,
      "ired": 5239,
      "Ġera": 5240,
      "pora": 5241,
      "ĠTol": 5242,
      "Ġnewly": 5243,
      "ĠKid": 5244,
      "Ġagainst": 5245,
      "udence": 5246,
      "ĠDiocese": 5247,
      "Ġliber": 5248,
      "Ġdepartment": 5249,
      "ancouver": 5250,
      "Ġchamber": 5251,
      "cept": 5252,
      "ĠSymposium": 5253,
      "Ġ58": 5254,
      "ĠPublished": 5255,
      "riev": 5256,
      "inity": 5257,
      "ĠMiles": 5258,
      "oding": 5259,
      "Ġnotorious": 5260,
      "ĠTrinity": 5261,
      "Ġbatter": 5262,
      "Ġtax": 5263,
      "Ġpraised": 5264,
      "ĠKer": 5265,
      "ĠCommon": 5266,
      "ĠAristot": 5267,
      "Ġvols": 5268,
      "Ġcollect": 5269,
      "Ġdepict": 5270,
      "Ġdiversity": 5271,
      "ĠArabic": 5272,
      "arked": 5273,
      "olis": 5274,
      "~": 5275,
      "hm": 5276,
      "Ġabundance": 5277,
      "ĠVis": 5278,
      "Ġcritique": 5279,
      "Ġom": 5280,
      "Ġastron": 5281,
      "Ġ1910": 5282,
      "ouver": 5283,
      "Ġtransform": 5284,
      "ĠResponse": 5285,
      "ĠHalf": 5286,
      "ĠFerdinand": 5287,
      "Brien": 5288,
      "Ġ1780": 5289,
      "Ġcivilization": 5290,
      "ison": 5291,
      "ĠBec": 5292,
      "na": 5293,
      "Ġinstitutional": 5294,
      "Ġgravel": 5295,
      "board": 5296,
      "ĠBull": 5297,
      "Ġ1892": 5298,
      "ĠClassic": 5299,
      "Ġfuels": 5300,
      "Ġsalvation": 5301,
      "Ġreturns": 5302,
      "Ġbor": 5303,
      "ĠCities": 5304,
      "Ġ19": 5305,
      "ĠLeg": 5306,
      "Ġserver": 5307,
      "Ġmagazine": 5308,
      "ĠCheng": 5309,
      "ĠFour": 5310,
      "ĠComple": 5311,
      "ĠMedicine": 5312,
      "pread": 5313,
      "rid": 5314,
      "Ġreject": 5315,
      "cribe": 5316,
      "Ġsplend": 5317,
      "ĠPont": 5318,
      "Ġpars": 5319,
      "Ġlast": 5320,
      "elligence": 5321,
      "Ġconcealed": 5322,
      "Ġmemory": 5323,
      "ĠHamm": 5324,
      "Ġreduces": 5325,
      "der": 5326,
      "Ġwhales": 5327,
      "Ġpoly": 5328,
      "ĠForeign": 5329,
      "Ġstatement": 5330,
      "ĠShap": 5331,
      "Ġnatural": 5332,
      "ĠArctic": 5333,
      "15": 5334,
      "Ġsket": 5335,
      "Ġbid": 5336,
      "Ġdeposited": 5337,
      "Ġpast": 5338,
      "aware": 5339,
      "rical": 5340,
      "151": 5341,
      "inos": 5342,
      "ĠBegin": 5343,
      "Ġeager": 5344,
      "Ġocean": 5345,
      "gress": 5346,
      "ules": 5347,
      "hythm": 5348,
      "ĠSearch": 5349,
      "ĠGold": 5350,
      "ĠBay": 5351,
      "Ġfruit": 5352,
      "ĠSystematic": 5353,
      "ĠTyp": 5354,
      "Ġ1849": 5355,
      "Ġinflamm": 5356,
      "Ġwool": 5357,
      "ĠPick": 5358,
      "alle": 5359,
      "ĠTig": 5360,
      "Ġreadings": 5361,
      "ĠMountains": 5362,
      "Ġexclus": 5363,
      "ision": 5364,
      "eor": 5365,
      "ĠParis": 5366,
      "an": 5367,
      "ĠInv": 5368,
      "iner": 5369,
      "Ġours": 5370,
      "aki": 5371,
      "ĠCzech": 5372,
      "ĠBahÃ¡": 5373,
      "âŁ©": 5374,
      "ĠIV": 5375,
      "ĠNak": 5376,
      "Ġarrow": 5377,
      "ping": 5378,
      "ĠGenerally": 5379,
      "Ġsilicon": 5380,
      "Ġaut": 5381,
      "Ġdoor": 5382,
      "tr": 5383,
      "isphere": 5384,
      "Ġsettlement": 5385,
      "Ġbasil": 5386,
      "Ġoccas": 5387,
      "ords": 5388,
      "ĠPros": 5389,
      "ii": 5390,
      "Ġcalls": 5391,
      "1941": 5392,
      "ĠFun": 5393,
      "space": 5394,
      "ĠTwo": 5395,
      "Ġessence": 5396,
      "ĠCa": 5397,
      "obiography": 5398,
      "ĠTeles": 5399,
      "pire": 5400,
      "ulative": 5401,
      "uler": 5402,
      "Ġcapac": 5403,
      "Ġmainland": 5404,
      "ĠRise": 5405,
      "ados": 5406,
      "Ġimportance": 5407,
      "solete": 5408,
      "Ġsad": 5409,
      "Ġorganisation": 5410,
      "ĠAfric": 5411,
      "Ġbass": 5412,
      "ĠPeter": 5413,
      "iors": 5414,
      "ardi": 5415,
      "Ġpassion": 5416,
      "imeter": 5417,
      "121": 5418,
      "Ġ1875": 5419,
      "adow": 5420,
      "ards": 5421,
      "char": 5422,
      "ĠCart": 5423,
      "ĠFine": 5424,
      "Ġcalculation": 5425,
      "Ġinvestments": 5426,
      "Ġwill": 5427,
      "Ġproble": 5428,
      "Ġarriving": 5429,
      "Ġstill": 5430,
      "Ġseal": 5431,
      "Ġresc": 5432,
      "ĠSant": 5433,
      "isher": 5434,
      "Ġversions": 5435,
      "ĠDemocratic": 5436,
      "gl": 5437,
      "Ġseems": 5438,
      "11": 5439,
      "omet": 5440,
      "Ġoxid": 5441,
      "DOS": 5442,
      "Ġdissolution": 5443,
      "Ġgre": 5444,
      "clarification": 5445,
      "ospel": 5446,
      "Ġbit": 5447,
      "Ġestablished": 5448,
      "Ġsecretion": 5449,
      "care": 5450,
      "Ġmedian": 5451,
      "oan": 5452,
      "ĠOff": 5453,
      "Ġking": 5454,
      "95": 5455,
      "ĠSwitzerland": 5456,
      "ĠHoughton": 5457,
      "sal": 5458,
      "ĠDie": 5459,
      "ĠMc": 5460,
      "ĠMikh": 5461,
      "Ġoutput": 5462,
      "Ġelectronic": 5463,
      "Ġwho": 5464,
      "ĠVed": 5465,
      "Ġdire": 5466,
      "Ġenlar": 5467,
      "Ġeye": 5468,
      "ĠWhe": 5469,
      "ĠTable": 5470,
      "Ġbelonged": 5471,
      "Ġm": 5472,
      "ĠBrunswick": 5473,
      "Ġa": 5474,
      "Ġtechn": 5475,
      "Ġshapes": 5476,
      "maker": 5477,
      "ets": 5478,
      "Ġpieces": 5479,
      "otus": 5480,
      "Ġdevised": 5481,
      "phas": 5482,
      "Ġtreating": 5483,
      "Ġairborne": 5484,
      "Ġscen": 5485,
      "Ġproud": 5486,
      "Ġmuscle": 5487,
      "400": 5488,
      "Ġ75": 5489,
      "Ġrequ": 5490,
      "Ġcorporation": 5491,
      "let": 5492,
      "owship": 5493,
      "uk": 5494,
      "Ġextensions": 5495,
      "Ġnevertheless": 5496,
      "100": 5497,
      "Ġacqu": 5498,
      "ighter": 5499,
      "Ġcomplex": 5500,
      "bage": 5501,
      "1996": 5502,
      "Ġmilk": 5503,
      "ĠDavidson": 5504,
      "Î¿Î½": 5505,
      "Ġdifficulties": 5506,
      "Ġsn": 5507,
      "Ġgest": 5508,
      "www": 5509,
      "ĠUl": 5510,
      "Ġreaders": 5511,
      "ĠInternet": 5512,
      "Ġoptimal": 5513,
      "sequently": 5514,
      "Ġhepat": 5515,
      "otal": 5516,
      "1093": 5517,
      "ex": 5518,
      "Ġrequirements": 5519,
      "Ġinsign": 5520,
      "Ġauthorized": 5521,
      "Ġmeat": 5522,
      "Ġcoverage": 5523,
      "Ġvict": 5524,
      "Ġtranslated": 5525,
      "BO": 5526,
      "Cat": 5527,
      "Ġeruption": 5528,
      "ĠCanada": 5529,
      "ĠWhat": 5530,
      "Ġwished": 5531,
      "Ġhiding": 5532,
      "Ġaquatic": 5533,
      "Ġpoor": 5534,
      "Ġpoints": 5535,
      "Ġprogression": 5536,
      "Ġassert": 5537,
      "Ġpublishing": 5538,
      "Ġdisappeared": 5539,
      "ĠNew": 5540,
      "Ġ1976": 5541,
      "Ġhost": 5542,
      "ction": 5543,
      "Ġepit": 5544,
      "Ġthrone": 5545,
      "ĠPeer": 5546,
      "ear": 5547,
      "ots": 5548,
      "ĠCabinet": 5549,
      "ayn": 5550,
      "ennial": 5551,
      "Ġimmense": 5552,
      "uber": 5553,
      "Ġthy": 5554,
      "ĠBroadcasting": 5555,
      "Ġ$": 5556,
      "Ġtowers": 5557,
      "ĠGaul": 5558,
      "ĠIsland": 5559,
      "ĠDj": 5560,
      "bus": 5561,
      "Ġcav": 5562,
      "Ġqualified": 5563,
      "ukuo": 5564,
      "Ġforth": 5565,
      "Ġtraveling": 5566,
      "Ġ136": 5567,
      "ĠAdministration": 5568,
      "arms": 5569,
      "Ġsatis": 5570,
      "Ġdes": 5571,
      "ĠSports": 5572,
      "mes": 5573,
      "usalem": 5574,
      "Ġfib": 5575,
      "rin": 5576,
      "Ġconfisc": 5577,
      "Ġrelates": 5578,
      "Ġfled": 5579,
      "Ġ": 5580,
      "ĠSome": 5581,
      "ĠCalvin": 5582,
      "ians": 5583,
      "ird": 5584,
      "Ġ1941": 5585,
      "Ġæ": 5586,
      "TC": 5587,
      "Ġcontrovers": 5588,
      "Ġ104": 5589,
      "hedral": 5590,
      "ĠNR": 5591,
      "Ġanticipated": 5592,
      "Central": 5593,
      "ĠPas": 5594,
      "Ġexcell": 5595,
      "Ġmajor": 5596,
      "ĠUSS": 5597,
      "Ġdogs": 5598,
      "keley": 5599,
      "r": 5600,
      "iss": 5601,
      "outh": 5602,
      "Ġphone": 5603,
      "ĠAlf": 5604,
      "ĠPrincess": 5605,
      "Ġphon": 5606,
      "Ġrites": 5607,
      "Ġsau": 5608,
      "archive": 5609,
      "Ġ184": 5610,
      "Ġcomputed": 5611,
      "Ġreactor": 5612,
      "Ġlingu": 5613,
      "%,": 5614,
      "aily": 5615,
      "Ġanalogous": 5616,
      "ĠEss": 5617,
      "actions": 5618,
      "sters": 5619,
      "ĠMM": 5620,
      "345": 5621,
      "Ġbec": 5622,
      "TP": 5623,
      "ist": 5624,
      "Ġmulti": 5625,
      "ĠPotter": 5626,
      "Ġmayor": 5627,
      "Ġtemplate": 5628,
      "Ġpeer": 5629,
      "Î¿ÏĤ": 5630,
      "Ġpolym": 5631,
      "atar": 5632,
      "ĠPrice": 5633,
      "sex": 5634,
      "Ġsurplus": 5635,
      "ary": 5636,
      "rene": 5637,
      "Ġtombs": 5638,
      "Ġrelevant": 5639,
      "Ġtooth": 5640,
      "Ġass": 5641,
      "ĠCemetery": 5642,
      "ĠCardinal": 5643,
      "83": 5644,
      "Ġrepresenting": 5645,
      "Ġguarant": 5646,
      "ĠSe": 5647,
      "Ð±": 5648,
      "ĠJuan": 5649,
      "Ġsearch": 5650,
      "Ö": 5651,
      "Î±": 5652,
      "Ġburst": 5653,
      "ĠLaura": 5654,
      "Ġsuggested": 5655,
      "Ġsacred": 5656,
      "Ġjack": 5657,
      "Ġmatters": 5658,
      "ourage": 5659,
      "Ġimplementing": 5660,
      "Ġremote": 5661,
      "Ġmorph": 5662,
      "ĠInf": 5663,
      "ĠNeil": 5664,
      "Ġevery": 5665,
      "Ġassault": 5666,
      "Ġsample": 5667,
      "Ġwant": 5668,
      "names": 5669,
      "1988": 5670,
      "Ġanalysis": 5671,
      "ĠSul": 5672,
      "Ġmere": 5673,
      "Ġcalculated": 5674,
      "Ġ25": 5675,
      "Ġmigr": 5676,
      "Ġgran": 5677,
      ",\"": 5678,
      "Ġpost": 5679,
      "Ġmeets": 5680,
      "Ġoffer": 5681,
      "ĠZen": 5682,
      "ambiguation": 5683,
      "child": 5684,
      "riers": 5685,
      "ference": 5686,
      "Gen": 5687,
      "ĠSixth": 5688,
      "sm": 5689,
      "orthern": 5690,
      "ĠWomen": 5691,
      "Ġsignificantly": 5692,
      "ment": 5693,
      "cles": 5694,
      "ĠFormer": 5695,
      "Ġcompiler": 5696,
      "Ġmovement": 5697,
      "ĠIdaho": 5698,
      "Ã²": 5699,
      "TE": 5700,
      "Ġneg": 5701,
      "Ġrhythm": 5702,
      "Ġartistic": 5703,
      "215": 5704,
      "Ġf": 5705,
      "ĠTelevision": 5706,
      "Ġanth": 5707,
      "aris": 5708,
      "ĠNorthwest": 5709,
      "hold": 5710,
      "ĠBrother": 5711,
      "Ġreluct": 5712,
      "ĠQuarter": 5713,
      "ĠHousehold": 5714,
      "Ġhar": 5715,
      "ĠFre": 5716,
      "Ġcarriers": 5717,
      "Ġaggression": 5718,
      "Ġtanks": 5719,
      "Ġempty": 5720,
      "acre": 5721,
      "ĠMIT": 5722,
      "ĠMcD": 5723,
      "Ġexped": 5724,
      "Ġfestival": 5725,
      "Ġscand": 5726,
      "Ġaro": 5727,
      "Ġnutrients": 5728,
      "auses": 5729,
      "ible": 5730,
      "ĠUnit": 5731,
      "Ġentitled": 5732,
      "rac": 5733,
      "Ġheir": 5734,
      "Ġreg": 5735,
      "Ġphysician": 5736,
      "Ġrecent": 5737,
      "Ġtab": 5738,
      "DR": 5739,
      "Ġdistrib": 5740,
      "Ġ30": 5741,
      "Ġfifteen": 5742,
      "Ch": 5743,
      "Ġshort": 5744,
      "Ġsouth": 5745,
      "Learn": 5746,
      "1989": 5747,
      "ĠParad": 5748,
      "Ġappe": 5749,
      "ĠHam": 5750,
      "gest": 5751,
      "Ġenorm": 5752,
      "ĠImprov": 5753,
      "Ġexpand": 5754,
      "Ġvolume": 5755,
      "Ġcitation": 5756,
      "200": 5757,
      "CE": 5758,
      "Ġwarning": 5759,
      "aga": 5760,
      "rupt": 5761,
      "Ġanarch": 5762,
      "Ġproto": 5763,
      "Ġengineering": 5764,
      "uge": 5765,
      "ĠKim": 5766,
      "Ġinvest": 5767,
      "Ġperhaps": 5768,
      "ĠWinter": 5769,
      "ona": 5770,
      "ĠHak": 5771,
      "Ġfluid": 5772,
      "Ġhomosexual": 5773,
      "GB": 5774,
      "Comp": 5775,
      "ĠKnowledge": 5776,
      "ustral": 5777,
      "ĠJud": 5778,
      "ĠCampaign": 5779,
      "Ġsmaller": 5780,
      "Ġphysicians": 5781,
      "ĠLegion": 5782,
      "Ġriver": 5783,
      "ol": 5784,
      "Ġextended": 5785,
      "ĠAtomic": 5786,
      "Ġdeclared": 5787,
      "Ġtall": 5788,
      "ĠWilson": 5789,
      "owned": 5790,
      "ited": 5791,
      "ĠCup": 5792,
      "ĠCD": 5793,
      "Ġcountryside": 5794,
      "Ġproductive": 5795,
      "Ġparliamentary": 5796,
      "Ġ1909": 5797,
      "Ġmistake": 5798,
      "Ġbroadcast": 5799,
      "Ġfar": 5800,
      "Ġamendment": 5801,
      "Ġroof": 5802,
      "ĠDance": 5803,
      "ĠPut": 5804,
      "Ġrescue": 5805,
      "ĠBiological": 5806,
      "el": 5807,
      "alities": 5808,
      "ĠKenya": 5809,
      "Ġdiffer": 5810,
      "tok": 5811,
      "Ġpreservation": 5812,
      "Ġawa": 5813,
      "Ġpun": 5814,
      "Ġshown": 5815,
      "Ġprox": 5816,
      "ordinary": 5817,
      "ĠPL": 5818,
      "Ġdemonstrated": 5819,
      "Ġmim": 5820,
      "Ġasc": 5821,
      "oids": 5822,
      "Ġhex": 5823,
      "bridge": 5824,
      "Ġdelegation": 5825,
      "Ġair": 5826,
      "Ġ160": 5827,
      "bach": 5828,
      "Ġfavoured": 5829,
      "ugg": 5830,
      "Ġ...": 5831,
      "ĠDer": 5832,
      "erman": 5833,
      "Ġmetric": 5834,
      "atural": 5835,
      "ulum": 5836,
      "ĠMcK": 5837,
      "Ġpolynom": 5838,
      "Ġfewer": 5839,
      "Ġcheap": 5840,
      "Ġmarry": 5841,
      "ĠInvestigation": 5842,
      "Ġdiscovery": 5843,
      "Ġ2014": 5844,
      "Ġexagger": 5845,
      "ever": 5846,
      "ĠSa": 5847,
      "Ġattitude": 5848,
      "691": 5849,
      "ĠMarch": 5850,
      "ĠOCLC": 5851,
      "Ġpottery": 5852,
      "Ġmoon": 5853,
      "ĠWork": 5854,
      "Ġroll": 5855,
      "Ġweights": 5856,
      "Ġunn": 5857,
      "Ġcolloqu": 5858,
      "Ġidentifying": 5859,
      "aja": 5860,
      "Wh": 5861,
      "Ġdye": 5862,
      "Ġdefine": 5863,
      "Ġpromoting": 5864,
      "Ġreferendum": 5865,
      "Ġmanual": 5866,
      "22": 5867,
      "Ġsets": 5868,
      "Ġven": 5869,
      "82": 5870,
      "ĠCrist": 5871,
      "Ġdiss": 5872,
      "OT": 5873,
      "Ġmargin": 5874,
      "ness": 5875,
      "Ġbandwidth": 5876,
      "urgical": 5877,
      "State": 5878,
      "ĠCounties": 5879,
      "ochond": 5880,
      "ĠImmigration": 5881,
      "Que": 5882,
      "Ġsciences": 5883,
      "ĠInn": 5884,
      "Ġsystem": 5885,
      "ĠCons": 5886,
      "Ġtelegraph": 5887,
      "Ġ188": 5888,
      "oun": 5889,
      "Ġproportional": 5890,
      "Ġorganisations": 5891,
      "room": 5892,
      "Ġatmospheric": 5893,
      "ĠStudent": 5894,
      "Ġprocesses": 5895,
      "Ġprosec": 5896,
      "about": 5897,
      "Ã±": 5898,
      "ĠTurner": 5899,
      "Ġcriticised": 5900,
      "Ġholes": 5901,
      "ĠAfter": 5902,
      "Ġtells": 5903,
      "ĠPic": 5904,
      "ement": 5905,
      "ĠISSN": 5906,
      "ĠAer": 5907,
      "Ġthreats": 5908,
      "rations": 5909,
      "orn": 5910,
      "ĠOkinawa": 5911,
      "am": 5912,
      "¶": 5913,
      "Ġfro": 5914,
      "ĠTheatre": 5915,
      "clesiast": 5916,
      "ĠOrleans": 5917,
      "Ġsplit": 5918,
      "Ġpestic": 5919,
      "Ġaccordingly": 5920,
      "ĠRoll": 5921,
      "inda": 5922,
      "Ġterminal": 5923,
      "pires": 5924,
      "ĠHell": 5925,
      "astro": 5926,
      "Ġtype": 5927,
      "Ġcount": 5928,
      "Ġlimit": 5929,
      "Ġadjust": 5930,
      "etal": 5931,
      "Ġspe": 5932,
      "ĠJohn": 5933,
      "Ġmud": 5934,
      "Ġmakes": 5935,
      "ule": 5936,
      "ĠPius": 5937,
      "ĠMaps": 5938,
      "Ġ71": 5939,
      "ĠPrivy": 5940,
      "factory": 5941,
      "urricane": 5942,
      "ĠSi": 5943,
      "Ñĭ": 5944,
      "Ġjust": 5945,
      "ĠEup": 5946,
      "Ġbodies": 5947,
      "ĠStarting": 5948,
      "anded": 5949,
      "ĠSoci": 5950,
      "ĠReligious": 5951,
      "gotten": 5952,
      "Ġbeans": 5953,
      "Ġdangerous": 5954,
      "Ġinterval": 5955,
      "specific": 5956,
      "Ġinscriptions": 5957,
      "Ġsee": 5958,
      "Ġabbey": 5959,
      "Ġwebs": 5960,
      "ĠMarx": 5961,
      "Ġloose": 5962,
      "Ġcap": 5963,
      "Ġswe": 5964,
      "omic": 5965,
      "ĠWebsite": 5966,
      "fi": 5967,
      "edding": 5968,
      "ĠAragon": 5969,
      "Ġsense": 5970,
      "Ġendeav": 5971,
      "ĠWool": 5972,
      "bing": 5973,
      "Ġpredecessor": 5974,
      "Ġcouples": 5975,
      "Pres": 5976,
      "Ġdefend": 5977,
      "Ġmapping": 5978,
      "ĠFlor": 5979,
      "Ġdev": 5980,
      "Ġ)": 5981,
      "164": 5982,
      "Ġrecycl": 5983,
      "ish": 5984,
      "Ġvessel": 5985,
      "Ġlunar": 5986,
      "Ġfriend": 5987,
      "Ġore": 5988,
      "enhower": 5989,
      "Mc": 5990,
      "ĠGlen": 5991,
      "Ġcounsel": 5992,
      "Ġpropag": 5993,
      "H": 5994,
      "Ġempirical": 5995,
      "Ġreinforcements": 5996,
      "Ġnobility": 5997,
      "Ġpush": 5998,
      "Ġinteract": 5999,
      "ĠHat": 6000,
      "ĠBorder": 6001,
      "Ġseventeenth": 6002,
      "ador": 6003,
      "ĠBudd": 6004,
      "gedy": 6005,
      "Ġiv": 6006,
      "ĠDue": 6007,
      "Ġpetroleum": 6008,
      "Ġsociety": 6009,
      "Ġawards": 6010,
      "Ġhouseholds": 6011,
      "Ġrifle": 6012,
      "Ã¡s": 6013,
      "Ġber": 6014,
      "Count": 6015,
      "ĠNames": 6016,
      "pite": 6017,
      "ĠAct": 6018,
      "Ġpriesthood": 6019,
      "etry": 6020,
      "ĠDiego": 6021,
      "ĠAustralian": 6022,
      "ively": 6023,
      "Ġgem": 6024,
      "Ġrock": 6025,
      "Ïħ": 6026,
      "Ġ1937": 6027,
      "Ġfastest": 6028,
      "ĠKum": 6029,
      "ĠForces": 6030,
      "':": 6031,
      "ĠDougl": 6032,
      "Ġporn": 6033,
      "Ġvault": 6034,
      "Ġsupport": 6035,
      "ĠView": 6036,
      "ĠWall": 6037,
      "Ġmechanisms": 6038,
      "Ġnav": 6039,
      "Ġsynd": 6040,
      "gets": 6041,
      "ably": 6042,
      "ĠCameron": 6043,
      "ĠRosen": 6044,
      "ĠOntario": 6045,
      "Ġdyn": 6046,
      "Ġrecon": 6047,
      "Ġstop": 6048,
      "ĠLou": 6049,
      "Ġuniform": 6050,
      "é": 6051,
      "App": 6052,
      "ouri": 6053,
      "phase": 6054,
      "ĠOF": 6055,
      "Ġmaps": 6056,
      "Ġwould": 6057,
      "ĠRah": 6058,
      "Ġanaly": 6059,
      "Ġdon": 6060,
      "tes": 6061,
      "Ġabortion": 6062,
      "istence": 6063,
      "Ġenemy": 6064,
      "Ġc": 6065,
      "Ġorient": 6066,
      "Ġbeat": 6067,
      "Ġsovere": 6068,
      "Ġ2021": 6069,
      "Ġ1883": 6070,
      "resses": 6071,
      "Ġfunctions": 6072,
      "Ġdise": 6073,
      "Ġinhabitants": 6074,
      "Ġgeneral": 6075,
      "Ġneutron": 6076,
      "ĠPersians": 6077,
      "ĠArchitect": 6078,
      "nell": 6079,
      "Ġnegotiations": 6080,
      "ĠSicily": 6081,
      "Ġ154": 6082,
      "Ġ21": 6083,
      "Ġcultures": 6084,
      "bro": 6085,
      "Ġrecently": 6086,
      "clam": 6087,
      "Ġencouraged": 6088,
      "cu": 6089,
      "Ġpip": 6090,
      "Ġgraves": 6091,
      "Ġcellular": 6092,
      "raction": 6093,
      "Ġcovers": 6094,
      "Ġdense": 6095,
      "Ġhyd": 6096,
      "content": 6097,
      "Ġdepart": 6098,
      "Ġfilms": 6099,
      "Ġlower": 6100,
      "Ġpatent": 6101,
      "Ġinfinite": 6102,
      "ĠTyr": 6103,
      "yp": 6104,
      "Ġram": 6105,
      "ĠMarcus": 6106,
      "Ġfunded": 6107,
      "aceae": 6108,
      "Ġcopyright": 6109,
      "Ġincre": 6110,
      "ovan": 6111,
      "57": 6112,
      "ignt": 6113,
      "imensional": 6114,
      "Ġcorrid": 6115,
      "Ġimplant": 6116,
      "Ġmoving": 6117,
      "Ġaxis": 6118,
      "letion": 6119,
      "Ġgrains": 6120,
      "EC": 6121,
      "Ġguerr": 6122,
      "Ġwh": 6123,
      "Ġasympt": 6124,
      "Ġdissent": 6125,
      "Ġcol": 6126,
      "lex": 6127,
      "ĠOlympics": 6128,
      "Ġopen": 6129,
      "Ġenthusi": 6130,
      "ithms": 6131,
      "Ġfranchise": 6132,
      "Ġimmediately": 6133,
      "Im": 6134,
      "ĠHenry": 6135,
      "Ġremembered": 6136,
      "ins": 6137,
      "aph": 6138,
      "ĠFran": 6139,
      "ĠBaron": 6140,
      "ĠBesides": 6141,
      "ittees": 6142,
      "Ġ73": 6143,
      "Ġimplied": 6144,
      "Ġsubtle": 6145,
      "Ġread": 6146,
      "ĠWatch": 6147,
      "Ġpoll": 6148,
      "ĠOl": 6149,
      "ĠPatrick": 6150,
      "pi": 6151,
      "Ð»": 6152,
      "ĠHamburg": 6153,
      "ĠHom": 6154,
      "Ġresemb": 6155,
      "l": 6156,
      "boat": 6157,
      "lightenment": 6158,
      "Ġconcerning": 6159,
      "ĠCompan": 6160,
      "Ð²": 6161,
      "OR": 6162,
      "Ġreptiles": 6163,
      "ciÃ³n": 6164,
      "Ġdil": 6165,
      "Ġtreatment": 6166,
      "Ġstimulation": 6167,
      "Ġ2000": 6168,
      "Ġbeer": 6169,
      "Ġvehicles": 6170,
      "ĠOften": 6171,
      "Roy": 6172,
      "ĠItaly": 6173,
      "ĠBenjamin": 6174,
      "Ã©r": 6175,
      "Ġfertil": 6176,
      "andy": 6177,
      "Ġfalls": 6178,
      "Ġreserv": 6179,
      "Ġcoll": 6180,
      "Ġdesignation": 6181,
      "Ġsex": 6182,
      "sea": 6183,
      "Ġple": 6184,
      "ĠDirect": 6185,
      "Ġnegot": 6186,
      "Ġindicate": 6187,
      "Ġdefenders": 6188,
      "rik": 6189,
      "ĠLevel": 6190,
      "artz": 6191,
      "Ġanalogy": 6192,
      "ĠTalk": 6193,
      "Ġcob": 6194,
      "occ": 6195,
      "ĠWallace": 6196,
      "Ġvirtually": 6197,
      "Ġsides": 6198,
      "Ġpale": 6199,
      "aches": 6200,
      "ĠJos": 6201,
      "Ġsensors": 6202,
      "lag": 6203,
      "ides": 6204,
      "onian": 6205,
      "Ġruins": 6206,
      "Ġbrilliant": 6207,
      "ĠStandard": 6208,
      "ĠPenn": 6209,
      "ĠConfeder": 6210,
      "va": 6211,
      "ĠAlleg": 6212,
      "ĠLik": 6213,
      "ĠEucl": 6214,
      "Ġcras": 6215,
      "Ġdeceased": 6216,
      "Ġcortex": 6217,
      "Press": 6218,
      "ĠEst": 6219,
      "Ġeconom": 6220,
      "92": 6221,
      ".)": 6222,
      "Ġlift": 6223,
      "ĠMachine": 6224,
      "ĠIX": 6225,
      "rehens": 6226,
      "unicip": 6227,
      "ba": 6228,
      "ĠVar": 6229,
      "ethoven": 6230,
      "17": 6231,
      "ĠAud": 6232,
      "Ġsix": 6233,
      "Ġoblig": 6234,
      "ĠIrish": 6235,
      "ĠOrb": 6236,
      "Ġpiston": 6237,
      "urk": 6238,
      "ĠBrad": 6239,
      "Ġdel": 6240,
      "lets": 6241,
      "Ġrejection": 6242,
      "scar": 6243,
      "ready": 6244,
      "Ġbesie": 6245,
      "enues": 6246,
      "arciss": 6247,
      "Ġcollectively": 6248,
      "led": 6249,
      "Ġadaptation": 6250,
      "DP": 6251,
      "Ġlessons": 6252,
      "230": 6253,
      "ĠISO": 6254,
      "Õ": 6255,
      "ĠUSSR": 6256,
      "ua": 6257,
      "idential": 6258,
      "ĠScrib": 6259,
      "ocal": 6260,
      "ps": 6261,
      "æĸ": 6262,
      "lete": 6263,
      "ĠMC": 6264,
      ".âĢĿ": 6265,
      "Ġwor": 6266,
      "ĠFive": 6267,
      "erb": 6268,
      "assment": 6269,
      "Ġnorthern": 6270,
      "phony": 6271,
      "een": 6272,
      "DC": 6273,
      "ĠIt": 6274,
      "Ġattributes": 6275,
      "Ġmaxim": 6276,
      "nst": 6277,
      "ĠSarm": 6278,
      "Ġsecondary": 6279,
      "Ġnose": 6280,
      "uet": 6281,
      "ograms": 6282,
      "Ġweeks": 6283,
      "1954": 6284,
      "Ġions": 6285,
      "Ġweek": 6286,
      "ĠSilver": 6287,
      "inski": 6288,
      "Ġprefix": 6289,
      "Ġexecutive": 6290,
      "All": 6291,
      "ĠNegro": 6292,
      "Ġ100": 6293,
      "face": 6294,
      "Ġ92": 6295,
      "Ġ1980": 6296,
      "Ġangry": 6297,
      "Ġmixing": 6298,
      "Ġuncon": 6299,
      "ĠEmperor": 6300,
      "osophical": 6301,
      "iti": 6302,
      "Ġrefriger": 6303,
      "Ġtran": 6304,
      "Ġstruck": 6305,
      "plom": 6306,
      "assing": 6307,
      "ĠEstab": 6308,
      "av": 6309,
      "Ġmod": 6310,
      "ĠBanks": 6311,
      "hor": 6312,
      "ĠWorks": 6313,
      "ĠAsh": 6314,
      "Ġ88": 6315,
      "charge": 6316,
      "Ġpool": 6317,
      "acock": 6318,
      "Ġsoon": 6319,
      "Ġfluor": 6320,
      "ĠBes": 6321,
      "ĠSteven": 6322,
      "clus": 6323,
      "ĠIUCN": 6324,
      "ĠIsle": 6325,
      "ĠUP": 6326,
      "Ġregarding": 6327,
      "Ġoriginally": 6328,
      "Ġ1968": 6329,
      "z": 6330,
      "Ġ1899": 6331,
      "activity": 6332,
      "ulation": 6333,
      "Ġrailways": 6334,
      "osity": 6335,
      "Dem": 6336,
      "Ġexha": 6337,
      "ylogen": 6338,
      "Ġvoltage": 6339,
      "Ġnull": 6340,
      "ĠGermany": 6341,
      "ĠSever": 6342,
      "Ġresponse": 6343,
      "ĠLife": 6344,
      "speed": 6345,
      "Ġgl": 6346,
      "Ġasymmet": 6347,
      "ront": 6348,
      "Ġleave": 6349,
      "ĠBald": 6350,
      "kh": 6351,
      "Ġplot": 6352,
      "iffs": 6353,
      "ĠGovern": 6354,
      "tb": 6355,
      "ĠWoll": 6356,
      "Ġmax": 6357,
      "Ġtyp": 6358,
      "Cor": 6359,
      "Ġcommentary": 6360,
      "Ġgar": 6361,
      "ĠPatriarch": 6362,
      "Ġmammal": 6363,
      "ĠStrategic": 6364,
      "rev": 6365,
      "aa": 6366,
      "ĠKarl": 6367,
      "ĠSeneca": 6368,
      "Æ": 6369,
      "Ġinstinct": 6370,
      "Ġcreate": 6371,
      "istics": 6372,
      "Ġelementary": 6373,
      "Ġpublished": 6374,
      "Ġpatch": 6375,
      "186": 6376,
      "Ġbankrupt": 6377,
      "ustrated": 6378,
      "ĠEuropeans": 6379,
      "ĠPsychological": 6380,
      "ĠEagle": 6381,
      "Ġlacks": 6382,
      "ĠAv": 6383,
      "Ġprimitive": 6384,
      "cohol": 6385,
      "ĠVict": 6386,
      "ĠDemocracy": 6387,
      "eds": 6388,
      "Ġadmir": 6389,
      "Ġle": 6390,
      "Ġattempt": 6391,
      "ĠNelson": 6392,
      "Ġtick": 6393,
      "Ġoperates": 6394,
      "Ġrum": 6395,
      "ĠOR": 6396,
      "och": 6397,
      "ĠMake": 6398,
      "ult": 6399,
      "ĠMelbourne": 6400,
      "Ġintrin": 6401,
      "Ġaccomplish": 6402,
      "Ġassume": 6403,
      "Ġquot": 6404,
      "ĠDE": 6405,
      "ĠBack": 6406,
      "Ġfire": 6407,
      "Ġproced": 6408,
      "English": 6409,
      "zi": 6410,
      "Ġbridges": 6411,
      "ellation": 6412,
      "ĠPolicy": 6413,
      "Ġinterf": 6414,
      "163": 6415,
      "rup": 6416,
      "Ġtheoretical": 6417,
      "Ġhills": 6418,
      "Ġsports": 6419,
      "ĠSoutheast": 6420,
      "Ġmas": 6421,
      "ĠBook": 6422,
      "Ġalphabet": 6423,
      "Ġbehavior": 6424,
      "Ġ1832": 6425,
      "Ö¸": 6426,
      "abil": 6427,
      "asia": 6428,
      "ittee": 6429,
      "Ġwing": 6430,
      "oin": 6431,
      "offs": 6432,
      "Ġcopper": 6433,
      "ane": 6434,
      "amine": 6435,
      "Ġborders": 6436,
      "ĠFootball": 6437,
      "ĠLuxemb": 6438,
      "Ġneur": 6439,
      "ĠScand": 6440,
      "Ġga": 6441,
      "ĠAthens": 6442,
      "Ġ112": 6443,
      "Ġgear": 6444,
      "Ġdi": 6445,
      "eties": 6446,
      "ĠNether": 6447,
      "ĠDemocrats": 6448,
      "ĠLama": 6449,
      "Ġdenomin": 6450,
      "iasm": 6451,
      "Ġvalve": 6452,
      "ĠThird": 6453,
      "Ġrequirement": 6454,
      "ĠLocal": 6455,
      "ĠDon": 6456,
      "ilingual": 6457,
      "Ġreturned": 6458,
      "ĠCha": 6459,
      "Xiv": 6460,
      "ĠIT": 6461,
      "Ġchrom": 6462,
      "Ġexplained": 6463,
      "ĠTen": 6464,
      "ĠTrue": 6465,
      "Ġaccelerated": 6466,
      "amilton": 6467,
      "ĠExperimental": 6468,
      "Ġnoise": 6469,
      "Ġtriangle": 6470,
      "Ġkid": 6471,
      "Ġinterchange": 6472,
      "Ġmatch": 6473,
      "cing": 6474,
      "Ġred": 6475,
      "eps": 6476,
      "aching": 6477,
      "levation": 6478,
      "ook": 6479,
      "ix": 6480,
      "Ġnorth": 6481,
      "Ġsubstant": 6482,
      "Ġpoint": 6483,
      "Ġmicro": 6484,
      "ĠCommer": 6485,
      "ĠLos": 6486,
      "Ġ189": 6487,
      "ĠCath": 6488,
      "Ġquantitative": 6489,
      "Ġpictures": 6490,
      "eping": 6491,
      "ĠAdvanced": 6492,
      "Ġcoming": 6493,
      "emetery": 6494,
      "ousing": 6495,
      "thalm": 6496,
      "ĠHerodotus": 6497,
      "Ġadmit": 6498,
      "ĠSanta": 6499,
      "Ġexclusively": 6500,
      "\").": 6501,
      "Ġserved": 6502,
      "ircraft": 6503,
      "ĠWerner": 6504,
      "Ġdemanded": 6505,
      "ĠBarnes": 6506,
      "ĠPower": 6507,
      "aska": 6508,
      "Ġwriting": 6509,
      "rews": 6510,
      "osion": 6511,
      "Ġdesert": 6512,
      "br": 6513,
      "Ġlocated": 6514,
      "Ġexcavations": 6515,
      "Ġknot": 6516,
      "ificial": 6517,
      "Ġharmon": 6518,
      "ĠRome": 6519,
      "269": 6520,
      "rey": 6521,
      "Ġcreat": 6522,
      "riel": 6523,
      "Ġcapabilities": 6524,
      "aster": 6525,
      "web": 6526,
      "Ġstudy": 6527,
      "log": 6528,
      "tically": 6529,
      "cyclop": 6530,
      "Ġdata": 6531,
      "ĠStatistical": 6532,
      "Ġur": 6533,
      "ĠInteg": 6534,
      "ritz": 6535,
      "Ġmunicipal": 6536,
      "Ġliberation": 6537,
      "rib": 6538,
      "ĠVal": 6539,
      "Ġlymph": 6540,
      "ĠLeonard": 6541,
      "Ġburied": 6542,
      "asa": 6543,
      "ĠHellen": 6544,
      "Ġi": 6545,
      "yon": 6546,
      "ĠManu": 6547,
      "Ġtable": 6548,
      "Ġintern": 6549,
      "Ġ1801": 6550,
      "Ġproviders": 6551,
      "Ġdecrease": 6552,
      "olog": 6553,
      "lective": 6554,
      "Total": 6555,
      "Ġcolleagues": 6556,
      "aternal": 6557,
      "ĠSom": 6558,
      "Ġwonderful": 6559,
      "ĠEs": 6560,
      "ĠMathemat": 6561,
      "ĠCroatia": 6562,
      "atching": 6563,
      "Ġinterface": 6564,
      "Ġro": 6565,
      "Ġchallenging": 6566,
      "bial": 6567,
      "Ġrestrictions": 6568,
      "Ġexec": 6569,
      "ĠTree": 6570,
      "flow": 6571,
      "ĠTotal": 6572,
      "ĠGray": 6573,
      "ĠShar": 6574,
      "Ġconve": 6575,
      "Ġb": 6576,
      "ĠWnt": 6577,
      "Ġoffice": 6578,
      "circ": 6579,
      "Ġ101": 6580,
      "Ġincom": 6581,
      "Ġmeteor": 6582,
      "Ġ131": 6583,
      "ragon": 6584,
      "Ġcrisis": 6585,
      "Ġcrude": 6586,
      "Ġthrew": 6587,
      "Ġcoup": 6588,
      "Ġ152": 6589,
      "Ġburial": 6590,
      "come": 6591,
      "Ġrecall": 6592,
      "Ġkilling": 6593,
      "rone": 6594,
      "Ġwheels": 6595,
      "Ġmachines": 6596,
      "rent": 6597,
      "ungen": 6598,
      "ognitive": 6599,
      "Ġinstant": 6600,
      "ĠRobin": 6601,
      "Ġcompletely": 6602,
      "ucky": 6603,
      "ĠSpringer": 6604,
      "es": 6605,
      "ricts": 6606,
      "ĠI": 6607,
      "GA": 6608,
      "ess": 6609,
      "atever": 6610,
      "feld": 6611,
      "Ġinvention": 6612,
      "1912": 6613,
      "atra": 6614,
      "Ġparticip": 6615,
      "om": 6616,
      "ĠMilitary": 6617,
      "ĠRem": 6618,
      "Ġtea": 6619,
      "Ġturns": 6620,
      "etwork": 6621,
      "Ġattorney": 6622,
      "ĠSection": 6623,
      "Ġpick": 6624,
      "ĠAf": 6625,
      "add": 6626,
      "ĠJohannes": 6627,
      "iv": 6628,
      "ĠON": 6629,
      "ades": 6630,
      "yn": 6631,
      "Ġgo": 6632,
      "Ġexplosive": 6633,
      "ĠâĢł": 6634,
      "gether": 6635,
      "rency": 6636,
      "ĠLiverpool": 6637,
      "anol": 6638,
      "ĠTurkish": 6639,
      "ifer": 6640,
      "ĠNet": 6641,
      "vention": 6642,
      "Ġartif": 6643,
      "ĠMagnus": 6644,
      "ĠSynod": 6645,
      "utes": 6646,
      "Ġvig": 6647,
      "Ġlegislative": 6648,
      "Ġmodification": 6649,
      "Ġprepared": 6650,
      "Ġmarkets": 6651,
      "ĠForm": 6652,
      "Ġec": 6653,
      "Ġenvironment": 6654,
      "through": 6655,
      "ĠLudwig": 6656,
      "index": 6657,
      "ĠSt": 6658,
      "osa": 6659,
      "cm": 6660,
      "opus": 6661,
      "ĠRAF": 6662,
      "Ġconcern": 6663,
      "ĠXV": 6664,
      "Ġaccommodation": 6665,
      "ĠPope": 6666,
      "Ġrings": 6667,
      "Ġevolved": 6668,
      "Ġ52": 6669,
      "Ġoutstanding": 6670,
      "rition": 6671,
      "iago": 6672,
      "Ġ1919": 6673,
      "Ġsay": 6674,
      "sic": 6675,
      "Ġpound": 6676,
      "Ġgrammar": 6677,
      "body": 6678,
      "ught": 6679,
      "Ġbrig": 6680,
      "Ġneutral": 6681,
      "ĠCult": 6682,
      "ĠAdams": 6683,
      "Ġtransformed": 6684,
      "riages": 6685,
      "ĠTob": 6686,
      "Ġbriefly": 6687,
      "Ġspeech": 6688,
      "Ġlisted": 6689,
      "ION": 6690,
      "ĠPapers": 6691,
      "Ġphe": 6692,
      "oka": 6693,
      "VI": 6694,
      "Ġletters": 6695,
      "izes": 6696,
      "ĠBapt": 6697,
      "155": 6698,
      "Ġcalled": 6699,
      "Ġmodifications": 6700,
      "Ġmemb": 6701,
      "idal": 6702,
      "Ġgreater": 6703,
      "Ġwages": 6704,
      "Ġfeeding": 6705,
      "oba": 6706,
      "Ġfeast": 6707,
      "Ġimmun": 6708,
      "Ġaw": 6709,
      "Ĥ": 6710,
      "Ġsampling": 6711,
      "ĠCor": 6712,
      "ha": 6713,
      "Ġlabour": 6714,
      "Ġdescribe": 6715,
      "Ġreleasing": 6716,
      "ĠGroup": 6717,
      "ro": 6718,
      "Ġgathered": 6719,
      "Ġflat": 6720,
      "Ġvalues": 6721,
      "ĠCay": 6722,
      "wh": 6723,
      "Ġeru": 6724,
      "ĠQuestions": 6725,
      "cribed": 6726,
      "Ġpath": 6727,
      "ĠLind": 6728,
      "foundland": 6729,
      "ovsky": 6730,
      "Ġvowel": 6731,
      "What": 6732,
      "Ġodd": 6733,
      "asy": 6734,
      "amilies": 6735,
      "FT": 6736,
      "Ġowing": 6737,
      "Ġhundred": 6738,
      "Ġaim": 6739,
      "atile": 6740,
      "Ġpainters": 6741,
      "Ġrule": 6742,
      "Ã¡": 6743,
      "ĠDJ": 6744,
      "nthesis": 6745,
      "burn": 6746,
      "ĠChisholm": 6747,
      "ĠPC": 6748,
      "ĠMcL": 6749,
      "Ġinsisted": 6750,
      "ĠByzantine": 6751,
      "ĠNoble": 6752,
      "ĠSustain": 6753,
      "iance": 6754,
      "ĠMeaning": 6755,
      "ĠOkin": 6756,
      "ropic": 6757,
      "Ġvac": 6758,
      "unch": 6759,
      "ange": 6760,
      "epend": 6761,
      "ĠPhon": 6762,
      "ĠPakistan": 6763,
      "Ġwon": 6764,
      "ycl": 6765,
      "1949": 6766,
      "ĠMaxim": 6767,
      "itive": 6768,
      "ĠCosm": 6769,
      "ĠXIII": 6770,
      "Ġreservoir": 6771,
      "Ġdesigners": 6772,
      "scrib": 6773,
      "Ġlandmark": 6774,
      "Ġmovies": 6775,
      "Ġimprison": 6776,
      "ĠDiam": 6777,
      "Ġutilize": 6778,
      "Ġbare": 6779,
      "ygen": 6780,
      "Ġpermanent": 6781,
      "Ġdedu": 6782,
      "Ġtal": 6783,
      "Ġfeet": 6784,
      "Ġhigher": 6785,
      "code": 6786,
      "Ġexistence": 6787,
      "ĠId": 6788,
      "Ġsculpture": 6789,
      "righ": 6790,
      "romb": 6791,
      "ĠSullivan": 6792,
      "ĠâĢ¢": 6793,
      "Ġboard": 6794,
      "ĠShir": 6795,
      "ĠBeat": 6796,
      "Ġexpensive": 6797,
      "Ġinterpretations": 6798,
      "Ġvide": 6799,
      "anc": 6800,
      "ĠFrom": 6801,
      "Ġbusinesses": 6802,
      "Ġdeterior": 6803,
      "ÃŃa": 6804,
      "ographics": 6805,
      "Ġdiscipline": 6806,
      "Ġsaint": 6807,
      "Ġdispersed": 6808,
      "ĠBrussels": 6809,
      "agus": 6810,
      "Ġsensor": 6811,
      "1998": 6812,
      "Man": 6813,
      "io": 6814,
      "ĠHawai": 6815,
      "ĠCopy": 6816,
      "amel": 6817,
      "asted": 6818,
      "fa": 6819,
      "Ġsolid": 6820,
      "Ġrestriction": 6821,
      "Ġequal": 6822,
      "alysis": 6823,
      "ĠLowell": 6824,
      "Ġbod": 6825,
      "lam": 6826,
      "ĠOlymp": 6827,
      "Ġten": 6828,
      "Ġpeculiar": 6829,
      "Ġinsects": 6830,
      "Ġmission": 6831,
      "Ġtrail": 6832,
      "ĠCF": 6833,
      "oz": 6834,
      "Ġflooding": 6835,
      "ĠMer": 6836,
      "ract": 6837,
      "ĠSyn": 6838,
      "ternet": 6839,
      "oscop": 6840,
      "ĠCuban": 6841,
      "I": 6842,
      "arch": 6843,
      "Ġrodeo": 6844,
      "eves": 6845,
      "Ġv": 6846,
      "ĠDrive": 6847,
      "oise": 6848,
      "ĠHis": 6849,
      "uts": 6850,
      "use": 6851,
      "ĠCarter": 6852,
      "Ġ122": 6853,
      "aple": 6854,
      "Ī": 6855,
      "Ġreducing": 6856,
      "orses": 6857,
      "appropriate": 6858,
      "ĠPage": 6859,
      "Ġterrestrial": 6860,
      "ĠDes": 6861,
      "Ġended": 6862,
      "coh": 6863,
      "Ġpix": 6864,
      "ĠMe": 6865,
      "atial": 6866,
      "Ġflex": 6867,
      "yle": 6868,
      "Ġverses": 6869,
      "Ġdelegates": 6870,
      "Ġparish": 6871,
      "Ġwarriors": 6872,
      "Ġbio": 6873,
      "Ġsusp": 6874,
      "ĠPat": 6875,
      "anding": 6876,
      "Ġrestored": 6877,
      "Ġindepend": 6878,
      "ĠCompar": 6879,
      "ibly": 6880,
      "red": 6881,
      "ĠDeutsch": 6882,
      "chi": 6883,
      "odynamic": 6884,
      "heric": 6885,
      "ĠCountry": 6886,
      "ĠTrin": 6887,
      "Ġdependent": 6888,
      "ĠLaw": 6889,
      "Ġ_": 6890,
      "ĠPresidential": 6891,
      "Ġadverse": 6892,
      "ĠPublications": 6893,
      "ĠBas": 6894,
      "Ġsew": 6895,
      "ĠPerson": 6896,
      "pher": 6897,
      "ements": 6898,
      "387": 6899,
      "ĠPub": 6900,
      "Ġhappen": 6901,
      "Ġworkers": 6902,
      "antly": 6903,
      "Second": 6904,
      "ĠYah": 6905,
      "Ġprecipitation": 6906,
      "ulate": 6907,
      "Ġprime": 6908,
      "ĠEncyclopedia": 6909,
      "Ġclot": 6910,
      "ĠComment": 6911,
      "Ã°": 6912,
      "ives": 6913,
      "Ġrevision": 6914,
      "ĠWikipedia": 6915,
      "Ġserm": 6916,
      "ĠPract": 6917,
      "scill": 6918,
      "ĠHorn": 6919,
      "Ġse": 6920,
      "ellor": 6921,
      "Ġinspired": 6922,
      "ĠAnimal": 6923,
      "Ġsuccessive": 6924,
      "asc": 6925,
      "clerosis": 6926,
      "ĠBur": 6927,
      "ĠKr": 6928,
      "clusive": 6929,
      "Ġincome": 6930,
      "Ġdrafted": 6931,
      "Ġportrait": 6932,
      "Ġworked": 6933,
      "Ġsilk": 6934,
      "GP": 6935,
      "Ġpossessed": 6936,
      "United": 6937,
      "Ġcomposer": 6938,
      "ĠGl": 6939,
      "ects": 6940,
      "urs": 6941,
      "ĠCopenhagen": 6942,
      "Ġ1864": 6943,
      "ĠMcM": 6944,
      "Ġsignific": 6945,
      "uzz": 6946,
      "1890": 6947,
      "ĠCognitive": 6948,
      "rum": 6949,
      "Ġdawn": 6950,
      "Ġcontrolling": 6951,
      "Ġadvocates": 6952,
      "gged": 6953,
      "ĠComb": 6954,
      "Ġobserving": 6955,
      "79": 6956,
      "ĠAccount": 6957,
      "General": 6958,
      "Ġincorporate": 6959,
      "ĠGlas": 6960,
      "Ġarc": 6961,
      "ĠAction": 6962,
      "Ġscheduled": 6963,
      "Ġmanagement": 6964,
      "hett": 6965,
      "Ġindef": 6966,
      "ĠSimon": 6967,
      "Ġpredominantly": 6968,
      "oked": 6969,
      "Ġhomeless": 6970,
      "Died": 6971,
      "Ġload": 6972,
      "othermal": 6973,
      "story": 6974,
      "Ġexecution": 6975,
      "ĠAbkhaz": 6976,
      "Ġ116": 6977,
      "hest": 6978,
      "Ġent": 6979,
      "Ġmovements": 6980,
      "igm": 6981,
      "Ġdos": 6982,
      "ĠLin": 6983,
      "ĩ": 6984,
      "Ġ]": 6985,
      "Ġresources": 6986,
      "comp": 6987,
      "eline": 6988,
      "ictionaries": 6989,
      "Ġsector": 6990,
      "dec": 6991,
      "Ġdescript": 6992,
      "ments": 6993,
      "Ġsuppose": 6994,
      "RT": 6995,
      "Ġdent": 6996,
      "ĠGraph": 6997,
      "unal": 6998,
      "til": 6999,
      "Ġbanned": 7000,
      "Ġboards": 7001,
      "189": 7002,
      "Ġdoctor": 7003,
      "oughton": 7004,
      "ĠCatalog": 7005,
      "Ġdeliberately": 7006,
      "Ġcabin": 7007,
      "77": 7008,
      "Ġ1947": 7009,
      "ĠImple": 7010,
      "osome": 7011,
      "Ø§ÙĦ": 7012,
      "Ġphysic": 7013,
      "ĠTir": 7014,
      "ĠList": 7015,
      "Ġearlier": 7016,
      "Ġopenly": 7017,
      "oviÄĩ": 7018,
      "Ġ2010": 7019,
      "Ġ1787": 7020,
      "Me": 7021,
      "Ġsurve": 7022,
      "onial": 7023,
      "Ġcontrols": 7024,
      "Ġtransistor": 7025,
      "ĠYouTube": 7026,
      "ĠTitan": 7027,
      "Ġcorn": 7028,
      "utely": 7029,
      "ĠBuffalo": 7030,
      "ĠMoore": 7031,
      "Ġequival": 7032,
      "Ġpear": 7033,
      "ĠAR": 7034,
      "ĠLithuania": 7035,
      "Ġcycle": 7036,
      "ves": 7037,
      "Car": 7038,
      "ĠSter": 7039,
      "Ġmakeup": 7040,
      "ĠDet": 7041,
      "Ġpractically": 7042,
      "ada": 7043,
      "Ġexperien": 7044,
      "ared": 7045,
      "Ġorange": 7046,
      "Ġhealthcare": 7047,
      "ĠDis": 7048,
      "Ġspread": 7049,
      "ĠStra": 7050,
      "Ġ190": 7051,
      "Ġnamely": 7052,
      "ĠIranian": 7053,
      "Ġtones": 7054,
      "ĠPhase": 7055,
      "ĠCarlos": 7056,
      "Ġang": 7057,
      "147": 7058,
      "ĠFacts": 7059,
      "Ġintent": 7060,
      "Ġpractitioners": 7061,
      "Ü": 7062,
      "ĠMormon": 7063,
      "ĠCentre": 7064,
      "118": 7065,
      "Ġiii": 7066,
      "ĠVir": 7067,
      "Ġobserved": 7068,
      "ĠYorkshire": 7069,
      "viron": 7070,
      "iest": 7071,
      "Ġextracted": 7072,
      "Mod": 7073,
      "Ġbars": 7074,
      "ternal": 7075,
      "ĠBeginning": 7076,
      "Ġhighway": 7077,
      "orm": 7078,
      "ĠHindu": 7079,
      "Ġmorality": 7080,
      "ĠTale": 7081,
      "ĠNorway": 7082,
      "Ġclasses": 7083,
      "ross": 7084,
      "ĠRÃ¼": 7085,
      "287": 7086,
      "ue": 7087,
      "rotein": 7088,
      "section": 7089,
      "Ġanniversary": 7090,
      "ficial": 7091,
      "comb": 7092,
      "Ġdwelling": 7093,
      "116": 7094,
      "ĠDur": 7095,
      "UN": 7096,
      "Ġusing": 7097,
      "Ġhope": 7098,
      "ĠRever": 7099,
      "ĠAn": 7100,
      "Ġped": 7101,
      "artime": 7102,
      "Ġmit": 7103,
      "ĠIssue": 7104,
      "Ġaffil": 7105,
      "pnas": 7106,
      "ĠBod": 7107,
      "Ġpurp": 7108,
      "erior": 7109,
      ");": 7110,
      "ending": 7111,
      "cend": 7112,
      "47": 7113,
      "eltic": 7114,
      "Ġmarks": 7115,
      "olars": 7116,
      "Ġislands": 7117,
      "Ġviolent": 7118,
      "ĠTibet": 7119,
      "roleum": 7120,
      "Ġwest": 7121,
      "Ġfindings": 7122,
      "Ġtour": 7123,
      "ĠNear": 7124,
      "grad": 7125,
      "klahoma": 7126,
      "klah": 7127,
      "ĠZealand": 7128,
      "ĠPeople": 7129,
      "ĠRic": 7130,
      "Net": 7131,
      "opoly": 7132,
      "Ġthrowing": 7133,
      "Ġcritical": 7134,
      "eg": 7135,
      "lies": 7136,
      "Ġchain": 7137,
      "ochemistry": 7138,
      "Ġinterfaces": 7139,
      "ĠExpl": 7140,
      "Ġcalculate": 7141,
      "ĠAssociation": 7142,
      "Ġdoors": 7143,
      "Ġpayload": 7144,
      "arium": 7145,
      "arden": 7146,
      "Ġ1908": 7147,
      "clusions": 7148,
      "ĠWeimar": 7149,
      "Ġneighbor": 7150,
      "oster": 7151,
      "Ġsongs": 7152,
      "hev": 7153,
      "Ġdisposition": 7154,
      "iments": 7155,
      "ĠCharles": 7156,
      "ayer": 7157,
      "ĠCommerce": 7158,
      "Ġ1827": 7159,
      "ign": 7160,
      "221": 7161,
      "Ġeveryday": 7162,
      "iversary": 7163,
      "Ġdrawings": 7164,
      "Ġtruly": 7165,
      "Ġcurious": 7166,
      "ren": 7167,
      "stud": 7168,
      "ĠAlb": 7169,
      "ĠFreed": 7170,
      "Ġapplicable": 7171,
      "ĠCru": 7172,
      "ĠHarold": 7173,
      "Area": 7174,
      "ĠJosÃ©": 7175,
      "Ġminimum": 7176,
      "out": 7177,
      "Ġkilomet": 7178,
      "hematic": 7179,
      "Ġtell": 7180,
      "esty": 7181,
      "Ġhand": 7182,
      "Ġgenerals": 7183,
      "Ġparadox": 7184,
      "raining": 7185,
      "ĠConstitutional": 7186,
      "Catholic": 7187,
      "Ġsometimes": 7188,
      "Ġowner": 7189,
      "SR": 7190,
      "Ġapplications": 7191,
      "Ġbath": 7192,
      "ĠYun": 7193,
      "Ġlarvae": 7194,
      "Ġintellect": 7195,
      "ĠSomers": 7196,
      "Ġbin": 7197,
      "rie": 7198,
      "bot": 7199,
      "Ġalternating": 7200,
      "ĠStat": 7201,
      "ĠCamp": 7202,
      "Ġconservation": 7203,
      "Ġeverything": 7204,
      "icia": 7205,
      "Ġforest": 7206,
      "ctica": 7207,
      "iev": 7208,
      "Ġconsumption": 7209,
      "government": 7210,
      "ober": 7211,
      "ĠPul": 7212,
      "kar": 7213,
      "Ġuseful": 7214,
      "×Ķ": 7215,
      "Ġir": 7216,
      "Ġbehavioral": 7217,
      "por": 7218,
      "Ġweak": 7219,
      "ĠRifle": 7220,
      "acked": 7221,
      "ere": 7222,
      "Ġengines": 7223,
      "leb": 7224,
      "Ġfurn": 7225,
      "ĠLiv": 7226,
      "ĠMain": 7227,
      "i": 7228,
      "Ġtube": 7229,
      "Ġfrontier": 7230,
      "Ġdevoted": 7231,
      "ĠL": 7232,
      "enti": 7233,
      "ĠAfghan": 7234,
      "ĠHawaiian": 7235,
      "ĠHen": 7236,
      "Ġperformers": 7237,
      "Ġspoken": 7238,
      "rison": 7239,
      "Ġnasal": 7240,
      "ĠBulgarian": 7241,
      "ĠEd": 7242,
      "Ġdoi": 7243,
      "ĠNigeria": 7244,
      "ogue": 7245,
      "ĠMontana": 7246,
      "Ġvoc": 7247,
      "Ġenzym": 7248,
      "ieuten": 7249,
      "Ġnortheastern": 7250,
      "ĠRecords": 7251,
      "Ġmountains": 7252,
      "Ġauthority": 7253,
      "Ġ1839": 7254,
      "Ġdividing": 7255,
      "Ġunder": 7256,
      "Ġcasual": 7257,
      "ĠCham": 7258,
      "Austral": 7259,
      "Ġ1913": 7260,
      "Ġpersonal": 7261,
      "ĠIceland": 7262,
      "Ġ120": 7263,
      "9": 7264,
      "elves": 7265,
      "Ġabnorm": 7266,
      "Ġforb": 7267,
      "icians": 7268,
      "Ġrepublican": 7269,
      "stem": 7270,
      "Ġprop": 7271,
      "chlor": 7272,
      "Ġincl": 7273,
      "ku": 7274,
      "ĠNeuroscience": 7275,
      "Ġservice": 7276,
      "Ġmean": 7277,
      "Ġeverywhere": 7278,
      "ĠLegal": 7279,
      "uments": 7280,
      "ĠUSB": 7281,
      "Ġapplied": 7282,
      "Ġstamp": 7283,
      "iche": 7284,
      "ĠScientific": 7285,
      "vals": 7286,
      "ĠDam": 7287,
      "Ã": 7288,
      "eck": 7289,
      "clesiastical": 7290,
      "itual": 7291,
      "Ġcounting": 7292,
      "Ġplasma": 7293,
      "ĠKemp": 7294,
      "ĠImpact": 7295,
      "Ġscholar": 7296,
      "Ġestimates": 7297,
      "cut": 7298,
      "ificant": 7299,
      "ĠSyl": 7300,
      "Ġmin": 7301,
      "Ġgift": 7302,
      "Ġcrops": 7303,
      "ĠProble": 7304,
      "ĠDutch": 7305,
      "Ġedge": 7306,
      "ĠGeorge": 7307,
      "Ġpassages": 7308,
      "dule": 7309,
      "Ġdef": 7310,
      "16": 7311,
      "ilers": 7312,
      "ĠWell": 7313,
      "Ġpack": 7314,
      "ĠBeaut": 7315,
      "Ġneighbors": 7316,
      "Ġanterior": 7317,
      "ĠVan": 7318,
      "ĠLav": 7319,
      "Ġconvert": 7320,
      "Ġemergence": 7321,
      "osed": 7322,
      "mates": 7323,
      "etti": 7324,
      "Ġhorizon": 7325,
      "ĠSyriac": 7326,
      "ĠDid": 7327,
      "ĠPa": 7328,
      "Ġrect": 7329,
      "ĠHav": 7330,
      "ĠChar": 7331,
      "Ġunderground": 7332,
      "da": 7333,
      "Õ¡": 7334,
      "Ġindirectly": 7335,
      "keeper": 7336,
      "iol": 7337,
      "illus": 7338,
      "ĠRhodes": 7339,
      "ĠTrad": 7340,
      "Ġframework": 7341,
      "ĠLiberal": 7342,
      "Ġ240": 7343,
      "ĠBrill": 7344,
      "Ġby": 7345,
      "Ġthinking": 7346,
      "inea": 7347,
      "Ġfru": 7348,
      "Ġboiler": 7349,
      "upp": 7350,
      "Ġbirds": 7351,
      "Ġstopped": 7352,
      "addle": 7353,
      "Ġstaff": 7354,
      "Ġtwentieth": 7355,
      "Ġadministrative": 7356,
      "Ġaest": 7357,
      "Ġinterp": 7358,
      "ĠIan": 7359,
      "Ġproceeds": 7360,
      "Ġcontain": 7361,
      "TH": 7362,
      "dad": 7363,
      "ieval": 7364,
      "lection": 7365,
      "Ġmanif": 7366,
      "Ġsite": 7367,
      "ultural": 7368,
      "Ð¿": 7369,
      "ĠDong": 7370,
      "Ġel": 7371,
      "Ġcompositions": 7372,
      "idity": 7373,
      "evo": 7374,
      "Ġspiral": 7375,
      "]|": 7376,
      "Ġregarded": 7377,
      "Ġselling": 7378,
      "Ġpartic": 7379,
      "ĠRepresentative": 7380,
      "sim": 7381,
      "Ġlot": 7382,
      "ĠMarie": 7383,
      "Ġdescribes": 7384,
      "ral": 7385,
      "ĠStudy": 7386,
      "ĠCit": 7387,
      "ĠBeng": 7388,
      "ĠAlbany": 7389,
      "Ġdifferent": 7390,
      "ĠCourts": 7391,
      "Ġwounds": 7392,
      "leen": 7393,
      "ĠTransport": 7394,
      "Ġwitness": 7395,
      "ĠTrail": 7396,
      "Ġmotif": 7397,
      "Ġway": 7398,
      "rim": 7399,
      "ME": 7400,
      "Ġdisadvant": 7401,
      "204": 7402,
      "90": 7403,
      "nder": 7404,
      "Ġg": 7405,
      "Ġconquered": 7406,
      "ĠBir": 7407,
      "Ġheterosexual": 7408,
      "Ġharmonic": 7409,
      "Ġstages": 7410,
      "onents": 7411,
      "Ġdistributed": 7412,
      "Time": 7413,
      "iers": 7414,
      "Ġpresentation": 7415,
      "Ġarchbishop": 7416,
      "ieve": 7417,
      "Ġpractice": 7418,
      "ĠMesopotamia": 7419,
      "Ġqualifications": 7420,
      "ys": 7421,
      "Ġexception": 7422,
      "Ġru": 7423,
      "Ġdeficiency": 7424,
      "erving": 7425,
      "ashington": 7426,
      "Ġelsewhere": 7427,
      "ĠWhether": 7428,
      "Ġ1981": 7429,
      "ke": 7430,
      "Ġconn": 7431,
      "Ġfifth": 7432,
      "Ġvisual": 7433,
      "ĠFDA": 7434,
      "Ġnerv": 7435,
      "Ġhorses": 7436,
      "ĠSud": 7437,
      "ĠProb": 7438,
      "Ġcave": 7439,
      "Ġmanufactured": 7440,
      "ĠAndrÃ©": 7441,
      "NE": 7442,
      "ĠStrong": 7443,
      "ocracy": 7444,
      "Ġwire": 7445,
      "BT": 7446,
      "ĠBell": 7447,
      "ydro": 7448,
      "Ġbypass": 7449,
      "Ġboundaries": 7450,
      "Ġ1918": 7451,
      "Ġincorporated": 7452,
      "urrection": 7453,
      "Ġexceed": 7454,
      "Ġamphib": 7455,
      "ĠIII": 7456,
      "rict": 7457,
      "ilateral": 7458,
      "Ġbene": 7459,
      "rol": 7460,
      "irst": 7461,
      "Rel": 7462,
      "isi": 7463,
      "Ġenl": 7464,
      "Ġá": 7465,
      "ston": 7466,
      "Ġvia": 7467,
      "ĠPrize": 7468,
      "ĠUr": 7469,
      "Ġdenominations": 7470,
      "Ġaver": 7471,
      "ocrates": 7472,
      "ĠCollege": 7473,
      "ĠMoz": 7474,
      "adier": 7475,
      "Ġconj": 7476,
      "rius": 7477,
      "ĠNguy": 7478,
      "ciety": 7479,
      "Ġimmune": 7480,
      "Ġestablish": 7481,
      "ĠTitle": 7482,
      "ĠZh": 7483,
      "ift": 7484,
      "Ġhur": 7485,
      "Ġhepatitis": 7486,
      "Ġcompass": 7487,
      "Ġbroke": 7488,
      "oa": 7489,
      "Ġdesignated": 7490,
      "ĠCairo": 7491,
      "Ġrev": 7492,
      "ĠBristol": 7493,
      ".),": 7494,
      "Ġsomeone": 7495,
      "Ġdrama": 7496,
      "ĠStyle": 7497,
      "521": 7498,
      "ĠProphet": 7499,
      "Ġautomated": 7500,
      "Ġtrigger": 7501,
      "Ġdie": 7502,
      "Ġinteractive": 7503,
      "post": 7504,
      "de": 7505,
      "OM": 7506,
      "Ġtank": 7507,
      "Ġpromised": 7508,
      "Ġchoice": 7509,
      "ĠNobel": 7510,
      "Ġreinforce": 7511,
      "ought": 7512,
      "apl": 7513,
      "so": 7514,
      "ĠStock": 7515,
      "Ġclan": 7516,
      "Ġmaneuver": 7517,
      "Ġnoticed": 7518,
      "Ġdepos": 7519,
      "Ġinv": 7520,
      "Ġoffspring": 7521,
      "di": 7522,
      "Ġrot": 7523,
      "Ġcontrary": 7524,
      "ennium": 7525,
      "Ġentit": 7526,
      "ĠSpect": 7527,
      "Ġthermal": 7528,
      "Ext": 7529,
      "ðĲİ": 7530,
      "Ġinn": 7531,
      "Ġspeculation": 7532,
      "inary": 7533,
      "stal": 7534,
      "duction": 7535,
      "Ġdivide": 7536,
      "Ġtill": 7537,
      "ĠOlympic": 7538,
      "ĠMarc": 7539,
      "ĠNow": 7540,
      "Ġpark": 7541,
      "unes": 7542,
      "iber": 7543,
      "Ġevidence": 7544,
      "Ġheritage": 7545,
      "ĠExposition": 7546,
      "Ġrelease": 7547,
      "Ġlens": 7548,
      "Ġblame": 7549,
      "Ġ41": 7550,
      "ĠEden": 7551,
      "Ġachieve": 7552,
      "ĠConsequently": 7553,
      "Ġreligions": 7554,
      "Ġ[": 7555,
      "ĠLore": 7556,
      "Ġreconstruction": 7557,
      "ites": 7558,
      "04": 7559,
      "Ġleaves": 7560,
      "ĠBak": 7561,
      "ĠH": 7562,
      "ĠThought": 7563,
      "Ġviolence": 7564,
      "Ġfamiliar": 7565,
      "Ġprogressive": 7566,
      "à": 7567,
      "There": 7568,
      "yal": 7569,
      "Ġupper": 7570,
      "ĠEmploy": 7571,
      "Ġsupposed": 7572,
      "Ġautonomous": 7573,
      "ĠAssociated": 7574,
      "ĠGerman": 7575,
      "clud": 7576,
      "Ġregulatory": 7577,
      "Ġsmoke": 7578,
      "Ġimag": 7579,
      "mans": 7580,
      "ĠWelfare": 7581,
      "Ġactiv": 7582,
      "Ġvariants": 7583,
      "Ġattached": 7584,
      "Ġsubordinate": 7585,
      "Ġdisl": 7586,
      "Ġput": 7587,
      "207": 7588,
      "ĠNothing": 7589,
      "Ġexceptional": 7590,
      "ĠHig": 7591,
      "ĠHub": 7592,
      "Ġk": 7593,
      "Ġboot": 7594,
      "Ġfortune": 7595,
      "rieved": 7596,
      "ĠEducation": 7597,
      "GE": 7598,
      "Ġsecure": 7599,
      "Ġdeport": 7600,
      "Ġ400": 7601,
      "ĠPain": 7602,
      "Ġtrap": 7603,
      "ical": 7604,
      "ĠWonder": 7605,
      "nia": 7606,
      "Îº": 7607,
      "overeign": 7608,
      "ĠShow": 7609,
      "CID": 7610,
      "#": 7611,
      "ĠCorn": 7612,
      "Ġprim": 7613,
      "Ç": 7614,
      "etts": 7615,
      "ille": 7616,
      "ĠBoy": 7617,
      "Ġemissions": 7618,
      "end": 7619,
      "foot": 7620,
      "nh": 7621,
      "Ġhabit": 7622,
      "156": 7623,
      "ĠPom": 7624,
      "ĠDublin": 7625,
      "astics": 7626,
      "card": 7627,
      "ĠStruct": 7628,
      "Ġsurge": 7629,
      "illery": 7630,
      "umber": 7631,
      "ĠDuchy": 7632,
      "Ġ#": 7633,
      "Ġsteering": 7634,
      "Ġsignificant": 7635,
      "Ġwinds": 7636,
      "ĠWeekly": 7637,
      "abilities": 7638,
      "Ġindex": 7639,
      "den": 7640,
      "Ġlegit": 7641,
      "Ġmodules": 7642,
      "ĠHook": 7643,
      "Ġrespective": 7644,
      "ked": 7645,
      "Ġtests": 7646,
      "ĠHouston": 7647,
      "1905": 7648,
      "224": 7649,
      "otted": 7650,
      "olism": 7651,
      "obs": 7652,
      "omatic": 7653,
      "Ġaccompany": 7654,
      "ok": 7655,
      "ark": 7656,
      "Ġaccessed": 7657,
      "Ġvess": 7658,
      "ĠRand": 7659,
      "Black": 7660,
      "ĠChang": 7661,
      "Ġsigns": 7662,
      "ĠAstroph": 7663,
      "osystem": 7664,
      "ĠMex": 7665,
      "illy": 7666,
      "Ġthemes": 7667,
      "Ġbecoming": 7668,
      "Ġbranch": 7669,
      "ĠCurtis": 7670,
      "istor": 7671,
      "Ġbands": 7672,
      "eneration": 7673,
      "Ġfinancial": 7674,
      "wer": 7675,
      "Ġroyal": 7676,
      "ĠMeyer": 7677,
      "ferences": 7678,
      "Ġhigh": 7679,
      "Ġinstructed": 7680,
      "ĠKelly": 7681,
      "Ġdominant": 7682,
      "Ġshe": 7683,
      "202": 7684,
      "LE": 7685,
      "ĠMathematics": 7686,
      "Ġdaughters": 7687,
      "Ġfarm": 7688,
      "Ġtrue": 7689,
      "ĠAlpha": 7690,
      "Ġsquadrons": 7691,
      "Ġclans": 7692,
      "Saxon": 7693,
      "allic": 7694,
      "94": 7695,
      "Ġseized": 7696,
      "ulous": 7697,
      "chant": 7698,
      "he": 7699,
      "Ġfounding": 7700,
      "ĠPhilippines": 7701,
      "Histor": 7702,
      "iability": 7703,
      "Ġnormally": 7704,
      "Ġ[...]": 7705,
      "1037": 7706,
      "c": 7707,
      "ĠRyuk": 7708,
      "ĠAncient": 7709,
      "osite": 7710,
      "ĠMartyr": 7711,
      "Ġcourts": 7712,
      "ĠIg": 7713,
      "Ġtight": 7714,
      "ĠDig": 7715,
      "ĠHunting": 7716,
      "alid": 7717,
      "Ġport": 7718,
      "lections": 7719,
      "Ġ18": 7720,
      "Ġarea": 7721,
      "Ġpredict": 7722,
      "una": 7723,
      "Ġlimb": 7724,
      "ĠOrganic": 7725,
      "Ġcommanded": 7726,
      "Ġchromosomes": 7727,
      "ĠCaribbean": 7728,
      "ĠMcGraw": 7729,
      "Ġ1879": 7730,
      "Ã§": 7731,
      "Ġsomew": 7732,
      "Ġgetting": 7733,
      "olm": 7734,
      "Ġgr": 7735,
      "Ġaccompanying": 7736,
      "43": 7737,
      "ĠCard": 7738,
      "vol": 7739,
      "ĠHope": 7740,
      "Ġrespir": 7741,
      "ophys": 7742,
      "Ġbil": 7743,
      "ĠWalk": 7744,
      "ude": 7745,
      "Ġcinema": 7746,
      "Ġrebel": 7747,
      "Ġtrips": 7748,
      "Ġprofess": 7749,
      "ĠMany": 7750,
      "ĠMonthly": 7751,
      "Ġpaintings": 7752,
      "Ġphotos": 7753,
      "ostic": 7754,
      "ĠVirgin": 7755,
      "enced": 7756,
      "Ġrevenue": 7757,
      "Ġvictories": 7758,
      "Ġgirl": 7759,
      "herical": 7760,
      "iders": 7761,
      "Ġadjacent": 7762,
      "ulations": 7763,
      "Ġoccurring": 7764,
      "ĠMinnesota": 7765,
      "ĠSab": 7766,
      "Ġdismissed": 7767,
      "Ġtribe": 7768,
      "orph": 7769,
      "Ġtide": 7770,
      "rance": 7771,
      "Ġvirtues": 7772,
      "OG": 7773,
      "ĠHopkins": 7774,
      "Ġintensity": 7775,
      "ES": 7776,
      "Ġscient": 7777,
      "ux": 7778,
      "blast": 7779,
      "elihood": 7780,
      "Ġneeds": 7781,
      "Ġslow": 7782,
      "ĠRed": 7783,
      "nam": 7784,
      "126": 7785,
      "ail": 7786,
      "roat": 7787,
      "Ġmuseums": 7788,
      "ology": 7789,
      "ĠFame": 7790,
      "ĠCarib": 7791,
      "Ġissues": 7792,
      "Ġenforced": 7793,
      "ĠChancellor": 7794,
      "Ġstrengthen": 7795,
      "Ġspeakers": 7796,
      "ĠHorse": 7797,
      "etary": 7798,
      "Ġissue": 7799,
      "Ġvegetation": 7800,
      "Ġgrain": 7801,
      "ĠPrincip": 7802,
      "inth": 7803,
      "Ġlabor": 7804,
      "Ġproject": 7805,
      "Ġtrial": 7806,
      "isure": 7807,
      "Ġorchestra": 7808,
      "Ġbills": 7809,
      "Ġcriminal": 7810,
      "Ġhandled": 7811,
      "Ġtheatre": 7812,
      "sor": 7813,
      "Ġpercentage": 7814,
      "ĠFol": 7815,
      "xious": 7816,
      "oper": 7817,
      "ĠEnc": 7818,
      "Ġperfect": 7819,
      "evin": 7820,
      "Ġminute": 7821,
      "rob": 7822,
      "1940": 7823,
      "Ġoften": 7824,
      "ĠBush": 7825,
      "azi": 7826,
      "Ġeliminate": 7827,
      "ĠMonte": 7828,
      "ouncil": 7829,
      "ĠPiet": 7830,
      "ĠPA": 7831,
      "Oper": 7832,
      "Ġchall": 7833,
      "ĠArt": 7834,
      "ĠFin": 7835,
      "Ġnumbered": 7836,
      "assium": 7837,
      "Ġregardless": 7838,
      "ĠTalm": 7839,
      "allel": 7840,
      "cription": 7841,
      "went": 7842,
      "Ġbaseball": 7843,
      "Ġrating": 7844,
      "ĠPrinceton": 7845,
      "Ġarm": 7846,
      "Ġobsolete": 7847,
      "pects": 7848,
      "Ġresponsibility": 7849,
      "Ġlung": 7850,
      "Ġeffectiveness": 7851,
      "Ġspot": 7852,
      "Ġethical": 7853,
      "Ġhub": 7854,
      "Ġtropical": 7855,
      "Ġanyone": 7856,
      "ĠLic": 7857,
      "antes": 7858,
      "Ġcoined": 7859,
      "Ġbarrels": 7860,
      "ĠCock": 7861,
      "eto": 7862,
      "ĠPhilip": 7863,
      "ovo": 7864,
      "ĠGlobal": 7865,
      "ĠIndonesia": 7866,
      "Ġcolonists": 7867,
      "ĠSacred": 7868,
      "176": 7869,
      "Ġurged": 7870,
      "ĠCouncil": 7871,
      "ceans": 7872,
      "elest": 7873,
      "ĠJust": 7874,
      "ĠLow": 7875,
      "Ġsyllables": 7876,
      "ĠKun": 7877,
      "itt": 7878,
      "1922": 7879,
      "12": 7880,
      "ĠEconom": 7881,
      "Ġposthum": 7882,
      "Ġmodels": 7883,
      "Ġprize": 7884,
      "ĠTak": 7885,
      "Ġinitially": 7886,
      "Ġuncle": 7887,
      "Ġgrand": 7888,
      "edience": 7889,
      "Ġrecordings": 7890,
      "Ġinver": 7891,
      "Ġpatriarch": 7892,
      "Ġbenefit": 7893,
      "ĠColor": 7894,
      "v": 7895,
      "Ġtariff": 7896,
      "reg": 7897,
      "Ġgrowth": 7898,
      "road": 7899,
      "Ġprince": 7900,
      "Ġdecre": 7901,
      "ĠNepal": 7902,
      "Ġconstitution": 7903,
      "ering": 7904,
      "LL": 7905,
      "Ġmonitor": 7906,
      "Ġenvelop": 7907,
      "ĠHyper": 7908,
      "Ġnas": 7909,
      "º": 7910,
      "ips": 7911,
      "Ġwhat": 7912,
      "ĠHome": 7913,
      "annels": 7914,
      "Ġfungi": 7915,
      "rift": 7916,
      "Ġhousing": 7917,
      "Ġtong": 7918,
      "ĠCommunist": 7919,
      "q": 7920,
      "ansk": 7921,
      "Ġcrosses": 7922,
      "Ġdecisions": 7923,
      "Ġwaist": 7924,
      "Ġconnects": 7925,
      "Ġlawyer": 7926,
      "inus": 7927,
      "ĠCharlotte": 7928,
      "ĠPe": 7929,
      "Ñı": 7930,
      "Ġdespite": 7931,
      "FA": 7932,
      "Ġthereof": 7933,
      "Ġsentence": 7934,
      "N": 7935,
      "Ġchose": 7936,
      "Ġsteam": 7937,
      "Ġannounced": 7938,
      "Ġdose": 7939,
      "unk": 7940,
      "FL": 7941,
      "Ġdealing": 7942,
      "izers": 7943,
      "ĠDale": 7944,
      "Ġgrav": 7945,
      "Ġreaches": 7946,
      "ina": 7947,
      "piration": 7948,
      "ges": 7949,
      "ĠAllah": 7950,
      "Ġtermed": 7951,
      "pole": 7952,
      "Ġchron": 7953,
      "Ġgluc": 7954,
      "Ġkingdom": 7955,
      "ĠSometimes": 7956,
      "Ġ1996": 7957,
      "ĠFar": 7958,
      "ĠVeter": 7959,
      "ĠIs": 7960,
      "Ġaccount": 7961,
      "ĠDia": 7962,
      "ĠRub": 7963,
      "ĠRober": 7964,
      "Ġ\"'": 7965,
      "Ġacc": 7966,
      "Ġconting": 7967,
      "ting": 7968,
      "ooting": 7969,
      "ĠSchl": 7970,
      "rich": 7971,
      "ju": 7972,
      "Ġreve": 7973,
      "nation": 7974,
      "ido": 7975,
      "ĠOfficer": 7976,
      "Ġ1880": 7977,
      "Ð¼": 7978,
      "ini": 7979,
      "rolet": 7980,
      "Ġcontroversy": 7981,
      "Ġproposition": 7982,
      "Ã©e": 7983,
      "obe": 7984,
      "opathy": 7985,
      "Ġcylinder": 7986,
      "asts": 7987,
      "iao": 7988,
      "TA": 7989,
      "Ġcost": 7990,
      "Ġrape": 7991,
      "Ġget": 7992,
      "ĠMul": 7993,
      "ffici": 7994,
      "Ġepis": 7995,
      "tical": 7996,
      "ĠSah": 7997,
      "Ġ1936": 7998,
      "ai": 7999,
      "ective": 8000,
      "ĠPeak": 8001,
      "É": 8002,
      "Ġcharged": 8003,
      "Ġcoal": 8004,
      "Ġdecl": 8005,
      "ĠRA": 8006,
      "itory": 8007,
      "ĠBon": 8008,
      "Ġdetermine": 8009,
      "Ġdispute": 8010,
      "Bl": 8011,
      "ĠPersonality": 8012,
      "ĠAgric": 8013,
      "Ġresearc": 8014,
      "Ġ158": 8015,
      "aug": 8016,
      "they": 8017,
      "Ġmess": 8018,
      "ĠMills": 8019,
      "ĠMing": 8020,
      "Ġpress": 8021,
      "ibus": 8022,
      "ĠFrederick": 8023,
      "Ġfaction": 8024,
      "ĠCoun": 8025,
      "ĠDÃ¡": 8026,
      "ĠLithuan": 8027,
      "li": 8028,
      "Ġattain": 8029,
      "ĠOxford": 8030,
      "Ġ97": 8031,
      "ĠIl": 8032,
      "Ġimplemented": 8033,
      "ĠTestament": 8034,
      "Ġlose": 8035,
      "ĠVin": 8036,
      "Ġoxygen": 8037,
      "Ġgeographical": 8038,
      "Ġfunctionality": 8039,
      "Ġmedicine": 8040,
      "Ġlegislature": 8041,
      "Ġpreval": 8042,
      "Ġcubic": 8043,
      "roit": 8044,
      "Ġimply": 8045,
      "Ġalpha": 8046,
      "ĠGhost": 8047,
      "Ġ1923": 8048,
      "Ġonline": 8049,
      "54": 8050,
      "Ġtogether": 8051,
      "Ġsevere": 8052,
      "est": 8053,
      "con": 8054,
      "Ġbe": 8055,
      "Ġsalt": 8056,
      "Max": 8057,
      "Ġmale": 8058,
      "228": 8059,
      "ĠJohann": 8060,
      "zan": 8061,
      "n": 8062,
      "Ġeastern": 8063,
      "zerbai": 8064,
      "Ġag": 8065,
      "Ġmercury": 8066,
      "Ġcoast": 8067,
      "Look": 8068,
      "Ġcand": 8069,
      "Ġconf": 8070,
      "Ġstatue": 8071,
      "Ġremainder": 8072,
      "Ġdone": 8073,
      "Ġthey": 8074,
      "ethod": 8075,
      "Ġrecovered": 8076,
      "alan": 8077,
      "ĠDar": 8078,
      "ĠNicar": 8079,
      "Ġret": 8080,
      "Ġaccommodate": 8081,
      "Ġstability": 8082,
      "igen": 8083,
      "ĠCompany": 8084,
      "icate": 8085,
      "Ġplant": 8086,
      "airs": 8087,
      "Ġmeters": 8088,
      "avy": 8089,
      "ĠBabylon": 8090,
      "ĠResolution": 8091,
      "ific": 8092,
      "Ġevac": 8093,
      "ĠWein": 8094,
      "ĠComm": 8095,
      "Ġhearing": 8096,
      "atin": 8097,
      "sevier": 8098,
      "Ġpiano": 8099,
      "acker": 8100,
      "Ġdistinguish": 8101,
      "Ġblood": 8102,
      "Ġtasks": 8103,
      "Ġhelpful": 8104,
      "ĠNon": 8105,
      "icked": 8106,
      "Ġdoctrine": 8107,
      "ema": 8108,
      "Ġfailing": 8109,
      "aim": 8110,
      "Ġassociated": 8111,
      "ĠUtah": 8112,
      "ecess": 8113,
      "ĠKab": 8114,
      "quet": 8115,
      "ĠKorean": 8116,
      "Ġassociation": 8117,
      "Online": 8118,
      "Ġunc": 8119,
      "ATION": 8120,
      "Ġderived": 8121,
      "Ġsaw": 8122,
      "Ġmagic": 8123,
      "ĠFull": 8124,
      "Ġlight": 8125,
      "Ġreach": 8126,
      "Ġreside": 8127,
      "Ġphysiological": 8128,
      "ĠFreud": 8129,
      "Ġtap": 8130,
      "Ġcharges": 8131,
      "ouses": 8132,
      "Ġmain": 8133,
      "Ġprep": 8134,
      "ococc": 8135,
      "Ġpos": 8136,
      "Ġsecured": 8137,
      "rea": 8138,
      "Ġphot": 8139,
      "Ġmanaging": 8140,
      "ĠConsider": 8141,
      "ĠHayes": 8142,
      "athan": 8143,
      "Ġexpulsion": 8144,
      "Ġdepths": 8145,
      "Ġfame": 8146,
      "ind": 8147,
      "ĠMach": 8148,
      "ĠApplied": 8149,
      "ĠSk": 8150,
      "ĠSocialist": 8151,
      "Ġcircumcision": 8152,
      "Ġ1831": 8153,
      "Ġswing": 8154,
      "ĠMarsh": 8155,
      "Ġprotect": 8156,
      "Ġenormous": 8157,
      "down": 8158,
      "Ġidentification": 8159,
      "Ġinventor": 8160,
      "PD": 8161,
      "heim": 8162,
      "Ġvehicle": 8163,
      "pool": 8164,
      "Ġstudied": 8165,
      "ĠReal": 8166,
      "Ġdifferentiation": 8167,
      "ogn": 8168,
      "Ġpers": 8169,
      "Ġdub": 8170,
      "ĠReagan": 8171,
      "ĠIss": 8172,
      "Ġsec": 8173,
      "Ġpure": 8174,
      "ĠBase": 8175,
      "Ġstable": 8176,
      "Ġpeaceful": 8177,
      "aria": 8178,
      "Ph": 8179,
      "Ġmos": 8180,
      "Ġadministration": 8181,
      "393": 8182,
      "Ġfloating": 8183,
      "un": 8184,
      "raltar": 8185,
      "Ġknew": 8186,
      "Ġdancing": 8187,
      "ocer": 8188,
      "Ġvarieties": 8189,
      "Ġenclosed": 8190,
      "igrate": 8191,
      "IS": 8192,
      "ned": 8193,
      "ĠMotor": 8194,
      "ĠDick": 8195,
      "ĠChemical": 8196,
      "ranch": 8197,
      "ĠSupreme": 8198,
      "1939": 8199,
      "Ġmanufacturing": 8200,
      "urance": 8201,
      "Ġaccommod": 8202,
      "ĠConnecticut": 8203,
      "Ġact": 8204,
      "ĠStone": 8205,
      "Ġspeak": 8206,
      "Ġdefe": 8207,
      "Ġquant": 8208,
      "Ġcover": 8209,
      "fted": 8210,
      "ĠAs": 8211,
      "ĠYouth": 8212,
      "ĠMarines": 8213,
      "this": 8214,
      "stract": 8215,
      "Ġenc": 8216,
      "Ġshelter": 8217,
      "Ġexplicit": 8218,
      "Ã±a": 8219,
      "Ġindication": 8220,
      "Ġarguments": 8221,
      "ĠCommander": 8222,
      "Ġdamp": 8223,
      "Ġ2003": 8224,
      "culture": 8225,
      "ivation": 8226,
      "1126": 8227,
      "Ġyouth": 8228,
      "Ġ1915": 8229,
      "ĠGabriel": 8230,
      "win": 8231,
      "Ġreb": 8232,
      "Ġhered": 8233,
      "ĠEll": 8234,
      "ĠTheater": 8235,
      "ĠKu": 8236,
      "ĠLouisiana": 8237,
      "isible": 8238,
      "bank": 8239,
      "Ġhollow": 8240,
      "lined": 8241,
      "Ġcontinued": 8242,
      "sch": 8243,
      "à¤¾": 8244,
      "Ġwide": 8245,
      "Ġmarried": 8246,
      "lich": 8247,
      "Ġcolors": 8248,
      "ĠSut": 8249,
      "ĠGibraltar": 8250,
      "Ġric": 8251,
      "ĠHollywood": 8252,
      "inction": 8253,
      "def": 8254,
      "ĠImages": 8255,
      "ĠRadical": 8256,
      "Ġcontin": 8257,
      "Ġ29": 8258,
      "Ġalliance": 8259,
      "Ġwise": 8260,
      "ĠPalae": 8261,
      "ĠStrugg": 8262,
      "C": 8263,
      "ĠNeb": 8264,
      "Ġteachings": 8265,
      "Ġprolong": 8266,
      "url": 8267,
      "Ġdream": 8268,
      "Rad": 8269,
      "Ġtransfer": 8270,
      "Ġdrainage": 8271,
      "Ġpropri": 8272,
      "Ġpressure": 8273,
      "Ġmachine": 8274,
      "Ġdid": 8275,
      "ateur": 8276,
      "ĠCrisis": 8277,
      "Ġtroubl": 8278,
      "ĠHor": 8279,
      "then": 8280,
      "Ġinterpreted": 8281,
      "Micro": 8282,
      "ĠReligions": 8283,
      "Ġety": 8284,
      "1021": 8285,
      "115": 8286,
      "Ġexcav": 8287,
      "Ġbelow": 8288,
      "ĠEuras": 8289,
      "Ġjudged": 8290,
      "RE": 8291,
      "Ġwent": 8292,
      "odge": 8293,
      "ĠEis": 8294,
      "Ġthousand": 8295,
      "Ġauth": 8296,
      "arm": 8297,
      "Ġ201": 8298,
      "Ġ143": 8299,
      "ĠConfu": 8300,
      "Ġreserve": 8301,
      "Ġflight": 8302,
      "Ġwarri": 8303,
      "Ġprofit": 8304,
      "ĠJacques": 8305,
      "inate": 8306,
      "ive": 8307,
      "rench": 8308,
      "ogens": 8309,
      "itage": 8310,
      "celand": 8311,
      "Ev": 8312,
      "ĠDS": 8313,
      "Ġpreserving": 8314,
      "Ġexam": 8315,
      "ĠQ": 8316,
      "Ġinteg": 8317,
      "inions": 8318,
      "U": 8319,
      "apt": 8320,
      "Ġquoted": 8321,
      "ĠCB": 8322,
      "Ġscarc": 8323,
      "yes": 8324,
      "Ġsubst": 8325,
      "aking": 8326,
      "AF": 8327,
      "Ġnormal": 8328,
      "ĠTurkey": 8329,
      "iano": 8330,
      "Ġcontrol": 8331,
      "Ġcontested": 8332,
      "mb": 8333,
      "Ġcle": 8334,
      "Ġbeings": 8335,
      "ocked": 8336,
      "Ġparticipants": 8337,
      "ĠLor": 8338,
      "ĠRif": 8339,
      "Ġtitled": 8340,
      "ĠWoods": 8341,
      "Ġfear": 8342,
      "ĠTest": 8343,
      "ª": 8344,
      "Ġsurprising": 8345,
      "ishn": 8346,
      "Ġthroughout": 8347,
      "ï": 8348,
      "Ġcollapsed": 8349,
      "cart": 8350,
      "plete": 8351,
      "Ġsteady": 8352,
      "Ġcomplement": 8353,
      "Ġsurvey": 8354,
      "Ġwet": 8355,
      "ĠSelected": 8356,
      "Ġpulse": 8357,
      "hire": 8358,
      "ĠReform": 8359,
      "Ġfee": 8360,
      "ĠBun": 8361,
      "Ġcandid": 8362,
      "cf": 8363,
      "192": 8364,
      "sec": 8365,
      "elta": 8366,
      "Ġsequence": 8367,
      "forcement": 8368,
      "Ġallegedly": 8369,
      "Åį": 8370,
      "ĠFrequ": 8371,
      "erse": 8372,
      "Ń": 8373,
      "Ġaccompanied": 8374,
      "ĠKingdom": 8375,
      "Ġtunnels": 8376,
      "ĠHarris": 8377,
      "Ġcub": 8378,
      "Ġfaults": 8379,
      "low": 8380,
      "ĠTranslated": 8381,
      "zing": 8382,
      "ĠPark": 8383,
      "ĠSit": 8384,
      "ĠFeb": 8385,
      "Ġprotein": 8386,
      "ĠMut": 8387,
      "Ġabb": 8388,
      "ĠNikol": 8389,
      "ĠDyn": 8390,
      "ĠVerm": 8391,
      "resent": 8392,
      "ĠMÃ©": 8393,
      "Edit": 8394,
      "ĠArchae": 8395,
      "lights": 8396,
      "Ġengagement": 8397,
      "1985": 8398,
      "iddle": 8399,
      "Ġcontempl": 8400,
      "Ġdist": 8401,
      "Ġgoal": 8402,
      "Ġdeb": 8403,
      "Ġorigins": 8404,
      "Ġ174": 8405,
      "ĠClarendon": 8406,
      "omm": 8407,
      "Ġrates": 8408,
      "ĠNATO": 8409,
      "Ġenjoy": 8410,
      "January": 8411,
      "1951": 8412,
      "Ġrailroad": 8413,
      "Ġ253": 8414,
      "Ġinstances": 8415,
      "ĠMorocco": 8416,
      "going": 8417,
      "Ġbeauty": 8418,
      "keeping": 8419,
      "ariat": 8420,
      "ĠAcad": 8421,
      "Ġtheaters": 8422,
      "ĠBirth": 8423,
      "ocation": 8424,
      "Ġcycles": 8425,
      "cies": 8426,
      "Bu": 8427,
      "mer": 8428,
      "Ġinitiative": 8429,
      "ĠMedieval": 8430,
      "Ġgauge": 8431,
      "ĠCosta": 8432,
      "ĠBud": 8433,
      "teen": 8434,
      "achers": 8435,
      "aged": 8436,
      "orth": 8437,
      "ĠTreaty": 8438,
      "ĠAtlas": 8439,
      "ĠIcelandic": 8440,
      "Ġfourth": 8441,
      "rah": 8442,
      "ĠNick": 8443,
      "Ġet": 8444,
      "Ġgener": 8445,
      "Ġ69": 8446,
      "Ġhoney": 8447,
      "Ġsubs": 8448,
      "Ġinspect": 8449,
      "icts": 8450,
      "Ġinteractions": 8451,
      "ĠPi": 8452,
      "Ġpicture": 8453,
      "ãģ": 8454,
      "lers": 8455,
      "En": 8456,
      "ĠGender": 8457,
      "Ġvitamin": 8458,
      "Yes": 8459,
      "ĠJazz": 8460,
      "lain": 8461,
      "change": 8462,
      "Ġlocally": 8463,
      "rise": 8464,
      "science": 8465,
      "Ġvolcan": 8466,
      "Ġaftermath": 8467,
      "Ġkg": 8468,
      "Ġbreaking": 8469,
      "zig": 8470,
      "affe": 8471,
      "Ġclusters": 8472,
      "Ġwetlands": 8473,
      "ĠWelsh": 8474,
      "ĠDiss": 8475,
      "uetooth": 8476,
      "Ġpurchased": 8477,
      "ĠBiography": 8478,
      "redit": 8479,
      "erting": 8480,
      "Ġmeet": 8481,
      "Ġproviding": 8482,
      "Ó": 8483,
      "ĠIslands": 8484,
      "ads": 8485,
      "omy": 8486,
      "Ġsummoned": 8487,
      "Ġgradually": 8488,
      "stable": 8489,
      "ĠGriff": 8490,
      "ĠFind": 8491,
      "ĠFed": 8492,
      "080": 8493,
      "Ġwors": 8494,
      "Ġstud": 8495,
      "ĠArchbishop": 8496,
      "ĠÐ²": 8497,
      "chool": 8498,
      "ĠInstead": 8499,
      "Ġissuing": 8500,
      "Ġrepairs": 8501,
      "Ġcapturing": 8502,
      "nex": 8503,
      "ĠDivision": 8504,
      "makers": 8505,
      "anni": 8506,
      "Ġinjuries": 8507,
      "ji": 8508,
      "Ġcas": 8509,
      "je": 8510,
      "ĠSor": 8511,
      "Ġprotection": 8512,
      "Ġparty": 8513,
      "ogo": 8514,
      "1900": 8515,
      "Ġnominal": 8516,
      "Ġav": 8517,
      "ĠReconstruction": 8518,
      "ĠTunnel": 8519,
      "Ġcharacters": 8520,
      "Ġincorporates": 8521,
      "source": 8522,
      "Ġgoing": 8523,
      "ĠBu": 8524,
      "Ġsq": 8525,
      "ified": 8526,
      "Ġrockets": 8527,
      "Ġsubstrate": 8528,
      "ĠMus": 8529,
      "ĠUNESCO": 8530,
      "ĠAnglo": 8531,
      "place": 8532,
      "ids": 8533,
      "oga": 8534,
      "Ġpornography": 8535,
      "emen": 8536,
      "ĠHug": 8537,
      "Ġinstallation": 8538,
      "ĠBishop": 8539,
      "ĠSaturn": 8540,
      "ĠCob": 8541,
      "Ġdubbed": 8542,
      "Ġillustrated": 8543,
      "Ġemerge": 8544,
      "ĠCas": 8545,
      "Ġoper": 8546,
      "Ġexperienced": 8547,
      "ĠSaturday": 8548,
      "Ġinterrupt": 8549,
      "ity": 8550,
      "ĠBened": 8551,
      "Ġ1": 8552,
      "gypt": 8553,
      "Ġfilters": 8554,
      "iser": 8555,
      "agic": 8556,
      "Ġtransparent": 8557,
      "made": 8558,
      "Ġblog": 8559,
      "Ġsurpass": 8560,
      "ĠHydro": 8561,
      "nce": 8562,
      "Ġex": 8563,
      "ĠGeology": 8564,
      "ailable": 8565,
      "Ġpsychology": 8566,
      "1986": 8567,
      "neath": 8568,
      "ĠFBI": 8569,
      "ructive": 8570,
      "Pre": 8571,
      "Ġparad": 8572,
      "resp": 8573,
      "Ġsilence": 8574,
      "Ġsession": 8575,
      "bone": 8576,
      ",âĢĻ": 8577,
      "ĠÃĨthel": 8578,
      "Ġadult": 8579,
      "Ġwat": 8580,
      "ectors": 8581,
      "ĠClassical": 8582,
      "aped": 8583,
      "nith": 8584,
      "but": 8585,
      "Ġtract": 8586,
      "Ġgranting": 8587,
      "Ġgenuine": 8588,
      "Ġmelting": 8589,
      "del": 8590,
      "ĠHerod": 8591,
      "ĠDefinition": 8592,
      "ĠLeague": 8593,
      "ĠDionys": 8594,
      "Mar": 8595,
      "ĠOh": 8596,
      "ĠArist": 8597,
      "ĠDistrict": 8598,
      "picuous": 8599,
      "ĠHaven": 8600,
      "Ġreferences": 8601,
      "Ġsubstitution": 8602,
      "Ġbegins": 8603,
      "ĠFraser": 8604,
      "ĠMathematical": 8605,
      "ĠCatherine": 8606,
      "cycle": 8607,
      "ĠDM": 8608,
      "ĠInternational": 8609,
      "Ġconclusion": 8610,
      "Ġarrival": 8611,
      "Ġ1927": 8612,
      "ĠAx": 8613,
      "onge": 8614,
      "Ġshell": 8615,
      "Ġ..": 8616,
      "Ġredes": 8617,
      "ĠOwn": 8618,
      "Gu": 8619,
      "Ġassociations": 8620,
      "Ġcop": 8621,
      "ĠCM": 8622,
      "ĠAndre": 8623,
      "orms": 8624,
      "Ġturn": 8625,
      "Ġrulers": 8626,
      "ĠHotel": 8627,
      "1950": 8628,
      "etes": 8629,
      "Ġgeographic": 8630,
      "Ġdenied": 8631,
      "sen": 8632,
      "ink": 8633,
      "Ġvegetable": 8634,
      "Ġac": 8635,
      "ria": 8636,
      "Ġhighways": 8637,
      "Ġbreat": 8638,
      "265": 8639,
      "igon": 8640,
      "edge": 8641,
      "Ġprom": 8642,
      "ĠEnterprise": 8643,
      "Ġsing": 8644,
      "Ġabolition": 8645,
      "ĠPost": 8646,
      "ems": 8647,
      "ĠBrothers": 8648,
      "Ġexceeded": 8649,
      "ĠConvention": 8650,
      "Ġstudents": 8651,
      "hend": 8652,
      "ussion": 8653,
      "Disc": 8654,
      "Ġimpressed": 8655,
      "ĠDas": 8656,
      "ĠMagdal": 8657,
      "Ġbeliefs": 8658,
      "Ġgenera": 8659,
      "Ġconcepts": 8660,
      "Ġprovisions": 8661,
      "ctor": 8662,
      "Ġformation": 8663,
      "ĠSquadron": 8664,
      "ced": 8665,
      "ĠLett": 8666,
      "ÄĽ": 8667,
      "Vol": 8668,
      "ĠPinochet": 8669,
      "ĠGar": 8670,
      "Ġspecific": 8671,
      "Ġought": 8672,
      "Ġwildlife": 8673,
      "Ġcuis": 8674,
      "Ġconvicted": 8675,
      "Ġtele": 8676,
      "Ġsuburbs": 8677,
      "ourg": 8678,
      "Ġdrug": 8679,
      "Ġ91": 8680,
      "Ġcontinue": 8681,
      "Ġaccepted": 8682,
      "andon": 8683,
      "ĠFrances": 8684,
      "ĠKle": 8685,
      "Ġrealism": 8686,
      "Ġsolution": 8687,
      "ĠJordan": 8688,
      "Ġlett": 8689,
      "Ġoath": 8690,
      "info": 8691,
      "Ġlying": 8692,
      "div": 8693,
      "ĠRoad": 8694,
      "incinn": 8695,
      "tis": 8696,
      "Ġcapacity": 8697,
      "Ġclothes": 8698,
      "ronic": 8699,
      "reshold": 8700,
      "Ġastronaut": 8701,
      "Ġcolumn": 8702,
      "Ġ270": 8703,
      "ĠProduction": 8704,
      "ĠRussell": 8705,
      "ĠAss": 8706,
      "1097": 8707,
      "Ġcausing": 8708,
      "most": 8709,
      "Pro": 8710,
      "Ġmunicip": 8711,
      "Ġtut": 8712,
      "Ġ:": 8713,
      "141": 8714,
      "Ġ24": 8715,
      "Ġimped": 8716,
      "ĠHistor": 8717,
      "ĠRen": 8718,
      "Î¿Ïħ": 8719,
      "Ġwhereas": 8720,
      "Ġnovelist": 8721,
      "Ġwholly": 8722,
      "lect": 8723,
      "tz": 8724,
      "Ġhanded": 8725,
      "acious": 8726,
      "ĠSug": 8727,
      "Ġnurs": 8728,
      "ĠGo": 8729,
      "abited": 8730,
      "Ġfinds": 8731,
      "Ġenzymes": 8732,
      "Ġsun": 8733,
      "Ġinquiry": 8734,
      "ĠHomer": 8735,
      "Ġproport": 8736,
      "ently": 8737,
      "alin": 8738,
      "Ġvaluable": 8739,
      "Ġoxidation": 8740,
      "Ġacting": 8741,
      "ĠÂ·": 8742,
      "ĠAviation": 8743,
      "Ġsleep": 8744,
      "Ġabsol": 8745,
      "ĠNorthern": 8746,
      "rator": 8747,
      "ĠBuild": 8748,
      "Ġprovided": 8749,
      "ĠHall": 8750,
      "Ġsurviv": 8751,
      "106": 8752,
      "Ġmasses": 8753,
      "Ġcomputing": 8754,
      "Ġhardware": 8755,
      "Ġlong": 8756,
      "Ġwestern": 8757,
      "intage": 8758,
      "ĠOC": 8759,
      "Ġclinical": 8760,
      "ĠPap": 8761,
      "Ġindeed": 8762,
      "online": 8763,
      "ĠProfessor": 8764,
      "ager": 8765,
      "ensen": 8766,
      "ĠGran": 8767,
      "Ġdigital": 8768,
      "Ġdefault": 8769,
      "ð": 8770,
      "alties": 8771,
      "ĠHa": 8772,
      "Ġspan": 8773,
      "Ġsponsored": 8774,
      "ĠLac": 8775,
      "Ġmind": 8776,
      "ounce": 8777,
      "Ġparticles": 8778,
      "ifornia": 8779,
      "aired": 8780,
      "Ġ1949": 8781,
      "Ġfemale": 8782,
      "Ġreign": 8783,
      "ĠHier": 8784,
      "Ġtestimony": 8785,
      "isy": 8786,
      "ĠNeuro": 8787,
      "ĠEvans": 8788,
      "Ġsou": 8789,
      "Ġselected": 8790,
      "obia": 8791,
      "ĠEast": 8792,
      "Ġbook": 8793,
      "atics": 8794,
      "dis": 8795,
      "icy": 8796,
      "ĠOver": 8797,
      "Ġfram": 8798,
      "On": 8799,
      "van": 8800,
      "ĠSyria": 8801,
      "Ġsons": 8802,
      "ath": 8803,
      "ĠMethodist": 8804,
      "Ġclosing": 8805,
      "ĠArchives": 8806,
      "Ġpattern": 8807,
      "Ġpace": 8808,
      "Ġterritories": 8809,
      "Ġartery": 8810,
      "Ġtypical": 8811,
      "Ġmob": 8812,
      "Ġ102": 8813,
      "ken": 8814,
      "Ġcompar": 8815,
      "Ġts": 8816,
      "Ġad": 8817,
      "Ġdiver": 8818,
      "238": 8819,
      "avier": 8820,
      "Ġsuburb": 8821,
      "ĠPoe": 8822,
      "ĠMarine": 8823,
      "Ġunm": 8824,
      "HC": 8825,
      "represent": 8826,
      "Ġfacts": 8827,
      "Ã¤t": 8828,
      "Ġdance": 8829,
      "ĠÃĸ": 8830,
      "ice": 8831,
      "Ġwithd": 8832,
      "Ġprobability": 8833,
      "ĠWright": 8834,
      "Ġpup": 8835,
      "Ġgreat": 8836,
      "ĠMarshal": 8837,
      "Ġlights": 8838,
      "76": 8839,
      "ĠConc": 8840,
      "ĠMP": 8841,
      "Ġrod": 8842,
      "Ġtrack": 8843,
      "Ġ145": 8844,
      "Ġdiscontinued": 8845,
      "iu": 8846,
      "Ġ33": 8847,
      "wheel": 8848,
      "ĠHit": 8849,
      "ĠDan": 8850,
      "Ġcelebrated": 8851,
      "Ġyears": 8852,
      "Ġviewing": 8853,
      "ĠNapoleon": 8854,
      "ĠBrigade": 8855,
      "ĠLamb": 8856,
      "ĠDenmark": 8857,
      "amics": 8858,
      "aha": 8859,
      "ĠCommissioner": 8860,
      "reprene": 8861,
      "ĠAlthough": 8862,
      "169": 8863,
      "ĠHan": 8864,
      "perors": 8865,
      "ĠYug": 8866,
      "Ġremarkable": 8867,
      "ĠMalcolm": 8868,
      "Canada": 8869,
      "known": 8870,
      "iver": 8871,
      "inates": 8872,
      "pent": 8873,
      "ensed": 8874,
      "ĠCamer": 8875,
      "Ġuranium": 8876,
      "sky": 8877,
      "nals": 8878,
      "Ox": 8879,
      "ĠFranÃ§ois": 8880,
      "Ġgi": 8881,
      "urring": 8882,
      "f": 8883,
      "Ġconcerned": 8884,
      "ally": 8885,
      "ĠCambodia": 8886,
      "Ġpreparation": 8887,
      "Ġaircraft": 8888,
      "ederation": 8889,
      "Ġwinner": 8890,
      "odox": 8891,
      "Ġinputs": 8892,
      "Ġarmoured": 8893,
      "ĠKan": 8894,
      "Ġdup": 8895,
      "Ġsab": 8896,
      "Ġcontributed": 8897,
      "Sm": 8898,
      "entially": 8899,
      "Ġsticks": 8900,
      "Ġsupern": 8901,
      "Ġpoles": 8902,
      "ĠTime": 8903,
      "ĠWa": 8904,
      "Ġce": 8905,
      "gi": 8906,
      "ĠDiana": 8907,
      "Ġglands": 8908,
      "Ġhalf": 8909,
      "Ġgalaxy": 8910,
      "Ġfly": 8911,
      "ĠEm": 8912,
      "1038": 8913,
      "Ġarist": 8914,
      "icus": 8915,
      "Ġtumor": 8916,
      "Ġpagan": 8917,
      "ĠAnaly": 8918,
      "ĠOrthodox": 8919,
      "cent": 8920,
      "Ġsmallest": 8921,
      "ĠTribes": 8922,
      "ev": 8923,
      "ince": 8924,
      "ĠBattles": 8925,
      "sect": 8926,
      "Ġtranscription": 8927,
      "Ġslave": 8928,
      "ĠEarl": 8929,
      "Ġcomposed": 8930,
      "Ġrepresentation": 8931,
      "Ġeffic": 8932,
      "Ġplanetary": 8933,
      "aste": 8934,
      "Ġgly": 8935,
      "auss": 8936,
      "Ġnuc": 8937,
      "ĠBand": 8938,
      "Ġsurgery": 8939,
      "oured": 8940,
      "stadt": 8941,
      "hen": 8942,
      "Ġinstrum": 8943,
      "Ġmedical": 8944,
      "Ġhowever": 8945,
      "alth": 8946,
      "Ġreligion": 8947,
      "1904": 8948,
      "Ġcaptain": 8949,
      "Ġopera": 8950,
      "Ġdinner": 8951,
      "actic": 8952,
      "ĠRegist": 8953,
      "ood": 8954,
      "V": 8955,
      "Ġgasoline": 8956,
      "cest": 8957,
      "Ġcitations": 8958,
      "ĠEdwin": 8959,
      "Ġna": 8960,
      "Ġattention": 8961,
      "Ġplaying": 8962,
      "ĠExperience": 8963,
      "Ġoverth": 8964,
      "ĠDepression": 8965,
      "Ġtakes": 8966,
      "ample": 8967,
      "ĠPresident": 8968,
      "ward": 8969,
      "Ġupris": 8970,
      "Ġopinion": 8971,
      "ĠTai": 8972,
      "Ġfin": 8973,
      "ĠEconomics": 8974,
      "ĠKauf": 8975,
      "keys": 8976,
      "Ġunderstanding": 8977,
      "Ġeaten": 8978,
      "fordshire": 8979,
      "Ġmyths": 8980,
      "hi": 8981,
      "public": 8982,
      "Ġheat": 8983,
      "ĠLegend": 8984,
      "ĠBridge": 8985,
      "Ġpractices": 8986,
      "gio": 8987,
      "Ġanim": 8988,
      "Ġpict": 8989,
      "ĠConfederate": 8990,
      "urred": 8991,
      "uing": 8992,
      "Ġtag": 8993,
      "Ġexempl": 8994,
      "Ġally": 8995,
      "ĠWriting": 8996,
      "acies": 8997,
      "Ġpersonally": 8998,
      "Ġorchest": 8999,
      "cs": 9000,
      "ĠDud": 9001,
      "Ġproportion": 9002,
      "1959": 9003,
      "Ġarrived": 9004,
      "ĠCommunity": 9005,
      "Ġvisible": 9006,
      "Ġinternal": 9007,
      "ief": 9008,
      "iciently": 9009,
      "ucleot": 9010,
      "Ġprotocol": 9011,
      "Ġapplic": 9012,
      "Ġward": 9013,
      "ĠJuly": 9014,
      "ovenant": 9015,
      "Ġpreliminary": 9016,
      "Ñ": 9017,
      "iforn": 9018,
      "Ġì": 9019,
      "Ġcook": 9020,
      "Ġthere": 9021,
      "Ġcompanies": 9022,
      "ĠNatural": 9023,
      "Ġ1992": 9024,
      "ĠThe": 9025,
      "Ġfun": 9026,
      "phia": 9027,
      "ustion": 9028,
      "ject": 9029,
      "Ġworking": 9030,
      "Ġloan": 9031,
      "ilst": 9032,
      "heast": 9033,
      "itary": 9034,
      "ĠJung": 9035,
      "light": 9036,
      "Ġcounts": 9037,
      "ctions": 9038,
      "ĠCho": 9039,
      "ĠâĢľ": 9040,
      "ĠMargaret": 9041,
      "Ġidentifies": 9042,
      "ank": 9043,
      "Ġcomprise": 9044,
      "Ġisolation": 9045,
      "Ġerect": 9046,
      "ĠMitchell": 9047,
      "Ġcontributions": 9048,
      "âģ": 9049,
      "Ġbest": 9050,
      "ayana": 9051,
      "Ġhill": 9052,
      "ĠApple": 9053,
      "re": 9054,
      "Ġtolerance": 9055,
      "icking": 9056,
      "Ed": 9057,
      "Ġneighbouring": 9058,
      "ĠInt": 9059,
      "Ġalcoh": 9060,
      "human": 9061,
      "Ġsugar": 9062,
      "Ġpatients": 9063,
      "Ġarticles": 9064,
      "rill": 9065,
      "Ġantiquity": 9066,
      "ĠMor": 9067,
      "ĠVietnamese": 9068,
      "Ġcongress": 9069,
      "Ġproceedings": 9070,
      "irc": 9071,
      "ĠNev": 9072,
      "âĢĺ": 9073,
      "Ġstressed": 9074,
      "Ġpen": 9075,
      "ĠSchne": 9076,
      "Ġasteroid": 9077,
      "ĠBeth": 9078,
      "Ġrecipient": 9079,
      "ĠMalta": 9080,
      "ogram": 9081,
      "500": 9082,
      "Ġcarrier": 9083,
      "Ġstre": 9084,
      "ĠHeat": 9085,
      "aro": 9086,
      "Ġexisting": 9087,
      "ĠAra": 9088,
      "Ġsolve": 9089,
      "ĠLeopold": 9090,
      "ĠKol": 9091,
      "ĠGuide": 9092,
      "ĠGiven": 9093,
      "ĠHond": 9094,
      "aldo": 9095,
      "Ġcircuits": 9096,
      "Ġment": 9097,
      "ĠLeban": 9098,
      "ĠOhio": 9099,
      "Soviet": 9100,
      "ĠHud": 9101,
      "Ġexclud": 9102,
      "gain": 9103,
      "prising": 9104,
      "Ġtre": 9105,
[...]
