{
  "version": "1.0",
  "truncation": null,
  "padding": null,
  "added_tokens": [],
  "normalizer": null,
  "pre_tokenizer": {
    "type": "ByteLevel",
    "add_prefix_space": true,
    "trim_offsets": true,
    "use_regex": true
  },
  "post_processor": null,
  "decoder": {
    "type": "ByteLevel",
    "add_prefix_space": true,
    "trim_offsets": true,
    "use_regex": true
  },
  "model": {
    "type": "BPE",
    "dropout": null,
    "unk_token": "<unk>",
    "continuing_subword_prefix": null,
    "end_of_word_suffix": null,
    "fuse_unk": false,
    "byte_fallback": false,
    "ignore_merges": false,
    "vocab": {
      "<unk>": 0,
      "<s>": 1,
      "</s>": 2,
      "<pad>": 3,
      "alo": 4,
      "acing": 5,
      "Ġcollabor": 6,
      "Ġintegrated": 7,
      "46": 8,
      "2001": 9,
      "ulty": 10,
      "34": 11,
      "Ġdiff": 12,
      "Ġprefer": 13,
      "Ġdoctor": 14,
      "Ġproduction": 15,
      "ł": 16,
      "Ġobject": 17,
      "Ġplot": 18,
      "Ġfile": 19,
      "ansk": 20,
      "Ġdecline": 21,
      "Å¡": 22,
      "Ġchem": 23,
      "Ġspeak": 24,
      "ĠMich": 25,
      "Ġagency": 26,
      "Ġrank": 27,
      "Ġdoct": 28,
      "Ġled": 29,
      "gent": 30,
      "soft": 31,
      "Ġreferences": 32,
      "Ġterror": 33,
      "Ġfund": 34,
      "Ġpat": 35,
      "ĠGallery": 36,
      "rix": 37,
      "Ġmeet": 38,
      "ĠPlace": 39,
      "ano": 40,
      "ĠColonel": 41,
      "Ġsafe": 42,
      "Ġjob": 43,
      "istory": 44,
      "Ġles": 45,
      "Ġenact": 46,
      "Ġneighborhood": 47,
      "Ġgrand": 48,
      "Ġsav": 49,
      "ĠCru": 50,
      "Ġsuppl": 51,
      "Ġrestrict": 52,
      "eved": 53,
      "ĠCensus": 54,
      "uv": 55,
      "Ġsettlement": 56,
      "Ġbl": 57,
      "ĠLeon": 58,
      "chen": 59,
      "Ġconson": 60,
      "American": 61,
      "9": 62,
      "upper": 63,
      "trans": 64,
      "ographs": 65,
      "ĠIndonesia": 66,
      "Ġcamps": 67,
      "ĠHoward": 68,
      "ĠComb": 69,
      "Ġatmosp": 70,
      "ĠKent": 71,
      "Ġstandards": 72,
      "Ġpoor": 73,
      "Ġbiological": 74,
      "Ġwanted": 75,
      "Ġsteam": 76,
      "by": 77,
      "ale": 78,
      ".\".": 79,
      "ira": 80,
      "Ġanim": 81,
      "Ġcharacter": 82,
      "ĠSummer": 83,
      "roduction": 84,
      "Ġkg": 85,
      "Ġprov": 86,
      "Ġmoder": 87,
      "ĠEr": 88,
      "cious": 89,
      "ographical": 90,
      "Ġtime": 91,
      "Ġfired": 92,
      "ĠEx": 93,
      "hold": 94,
      "ĠLa": 95,
      "Ġforty": 96,
      "Ġreligion": 97,
      "Ġviolent": 98,
      "Ġpair": 99,
      "AF": 100,
      "Ġnorm": 101,
      "Ġbul": 102,
      "quir": 103,
      "ĠApril": 104,
      "ĠFrench": 105,
      "ston": 106,
      "Ġlaws": 107,
      "Ġquickly": 108,
      "Ġpromote": 109,
      "ĠÐ": 110,
      "ack": 111,
      "uly": 112,
      "ite": 113,
      "Ġsp": 114,
      "Ġindividual": 115,
      "Ġfab": 116,
      "Ġgrid": 117,
      "bra": 118,
      "Ġkings": 119,
      "Ġleader": 120,
      "ible": 121,
      "utch": 122,
      "isl": 123,
      "Ġnut": 124,
      "ĠCon": 125,
      "Ġsexual": 126,
      "Ö": 127,
      "ura": 128,
      "Ġthough": 129,
      "ĠImp": 130,
      "Ġbecoming": 131,
      "tenance": 132,
      "Ġ195": 133,
      "erver": 134,
      ",âĢĿ": 135,
      "Ġvariation": 136,
      "ighth": 137,
      "cope": 138,
      "ĠAf": 139,
      "DF": 140,
      "aul": 141,
      "Ġlack": 142,
      "Ġuses": 143,
      "endment": 144,
      "Ġcollege": 145,
      "Ġec": 146,
      "Ġtogether": 147,
      "Ġglobal": 148,
      "urban": 149,
      ".)": 150,
      "uct": 151,
      "Ġbuildings": 152,
      "Ġincluded": 153,
      "Ġsupporting": 154,
      "ual": 155,
      "Ġcoin": 156,
      "ogram": 157,
      "Ġhusband": 158,
      "198": 159,
      "Ġless": 160,
      "Ġcur": 161,
      "ĠEncyclop": 162,
      "Ġvillage": 163,
      "ĠUs": 164,
      "Ġstruck": 165,
      "Ġrain": 166,
      "ka": 167,
      "Ġcompounds": 168,
      "Ġmas": 169,
      "Ġserve": 170,
      "Ġspecifically": 171,
      "Ġperiod": 172,
      "pat": 173,
      "ĠIde": 174,
      "ĠIbn": 175,
      "Ġartist": 176,
      "usted": 177,
      "Ġadminist": 178,
      "Ġtitles": 179,
      "Ġengines": 180,
      "Ġnormal": 181,
      "Ġfederal": 182,
      "Ġdistinct": 183,
      "Ġded": 184,
      "Ġdestruction": 185,
      "which": 186,
      "Ġrelig": 187,
      "Ġ11": 188,
      "ĠUV": 189,
      "Ġmob": 190,
      "ĠHawai": 191,
      "...": 192,
      "Ġsignal": 193,
      "press": 194,
      "angu": 195,
      "ĠTable": 196,
      "ĠEgypt": 197,
      "Ad": 198,
      "ĠMort": 199,
      "75": 200,
      "Ġlinked": 201,
      "ont": 202,
      "Ġret": 203,
      "Ġutility": 204,
      "Ġy": 205,
      "Ġtherefore": 206,
      "Ġneither": 207,
      "ĠTop": 208,
      "ista": 209,
      "Ġwars": 210,
      "Ġliber": 211,
      "ĠMic": 212,
      "anna": 213,
      "STOR": 214,
      "ĠSociety": 215,
      "oney": 216,
      "ĠCamp": 217,
      "Ġfell": 218,
      "isions": 219,
      "Ġbad": 220,
      "ĠJackson": 221,
      "Ġflex": 222,
      "Ġdress": 223,
      "Ġdiet": 224,
      "ĠBiology": 225,
      "atabase": 226,
      "rative": 227,
      "Ġprotein": 228,
      "ĠMit": 229,
      "mo": 230,
      "Ġlayers": 231,
      "Ġschem": 232,
      "achine": 233,
      "Ġafter": 234,
      "arliam": 235,
      "ĠFox": 236,
      "reat": 237,
      "ĠCentral": 238,
      "ulpt": 239,
      "ĠAnd": 240,
      "uris": 241,
      "legraph": 242,
      "Ġsit": 243,
      "oud": 244,
      "Ġclean": 245,
      "anton": 246,
      "Ġcover": 247,
      "Ġvast": 248,
      "ĠAk": 249,
      "Ġfavour": 250,
      "Ġofficial": 251,
      "la": 252,
      "Ġreplaced": 253,
      "ions": 254,
      "ro": 255,
      "ĠFranc": 256,
      "ĠGovernment": 257,
      "ĠSwiss": 258,
      "ques": 259,
      "Ġones": 260,
      ".âĢĶ": 261,
      "ĠTaylor": 262,
      "ars": 263,
      "Ġnucle": 264,
      "Ġwhite": 265,
      "Ġoptim": 266,
      "ĠDam": 267,
      "ropolitan": 268,
      "olf": 269,
      "ix": 270,
      "Ġpieces": 271,
      "Ġphr": 272,
      "Ġtot": 273,
      "vert": 274,
      "wig": 275,
      "ĠChe": 276,
      "acle": 277,
      "ĠPope": 278,
      "Ġprince": 279,
      "Ġburn": 280,
      "Ġobserv": 281,
      "Ġright": 282,
      "Ġtarget": 283,
      "/": 284,
      "Ġord": 285,
      "Ġsovereign": 286,
      "Ġwhereas": 287,
      "Ġconventional": 288,
      "Ġsupplies": 289,
      "ĠSamuel": 290,
      "Ġstructural": 291,
      "ĠInformation": 292,
      "ĠSydney": 293,
      "Ġ<": 294,
      "Ġstood": 295,
      "annel": 296,
      "Ġfolk": 297,
      "Ġnick": 298,
      "ĠOf": 299,
      "ased": 300,
      "Ġpersons": 301,
      "ĠWin": 302,
      "Ġtem": 303,
      "Ġexamination": 304,
      "acher": 305,
      "ĠTod": 306,
      "36": 307,
      "lo": 308,
      "ĠBes": 309,
      "Ġcontained": 310,
      "thern": 311,
      "Ġreduce": 312,
      "Ġpref": 313,
      "ence": 314,
      "Ġpray": 315,
      "any": 316,
      "Ġever": 317,
      "Ġkingdom": 318,
      "Ġcra": 319,
      "Ġ68": 320,
      "Ġflag": 321,
      "ipping": 322,
      "ĠProceedings": 323,
      "Ġca": 324,
      "agn": 325,
      "ass": 326,
      "ĠOper": 327,
      "ince": 328,
      "Ġav": 329,
      "ĠDecl": 330,
      "ela": 331,
      "ta": 332,
      "ĠAR": 333,
      "ax": 334,
      "oint": 335,
      "Ġarchitectural": 336,
      "Ġproperty": 337,
      "nam": 338,
      "oyd": 339,
      "xual": 340,
      "inister": 341,
      "Ģ": 342,
      "itarian": 343,
      "ĠOreg": 344,
      "Ġmachines": 345,
      "ĠCourt": 346,
      "its": 347,
      "Ľ": 348,
      "Ġtoday": 349,
      "ĠFor": 350,
      "place": 351,
      "ĠOffic": 352,
      "Ġbenef": 353,
      "rove": 354,
      "Ġdrew": 355,
      "Ġunit": 356,
      "Ġbird": 357,
      "ĠIslamic": 358,
      "iy": 359,
      "Ġparish": 360,
      "ĠMicrosoft": 361,
      "Ġwhen": 362,
      "Ġ100": 363,
      "Ġexperienced": 364,
      "ĠInst": 365,
      "ĠChemistry": 366,
      "ĠCampaign": 367,
      "acy": 368,
      "opher": 369,
      "Ġtherapy": 370,
      "Ġraised": 371,
      "ĠFederal": 372,
      "Ġ109": 373,
      "ĠWhat": 374,
      "iance": 375,
      "ĠCrom": 376,
      "Ġrough": 377,
      "Ġslight": 378,
      "ĠAcc": 379,
      "|": 380,
      "Ġfrag": 381,
      "ĠSam": 382,
      "Ġmountain": 383,
      "eton": 384,
      "apes": 385,
      "ĠFrank": 386,
      "Ġconsisted": 387,
      "ĠTrib": 388,
      "ĠByzantine": 389,
      "Ġcoord": 390,
      "ederal": 391,
      "Ġdrugs": 392,
      "ĠDom": 393,
      "Ġtub": 394,
      "ris": 395,
      "ĠKat": 396,
      "phal": 397,
      "ĠNich": 398,
      "arc": 399,
      "Ġneeded": 400,
      "Ġfinal": 401,
      "ectic": 402,
      "ĠAustralian": 403,
      "54": 404,
      "ision": 405,
      "Ġremov": 406,
      "ĠTexas": 407,
      "ĠKong": 408,
      "ouri": 409,
      "ĠâĢĵ": 410,
      "Ġsent": 411,
      "Ġfrequent": 412,
      "Ġdecade": 413,
      "ĠToronto": 414,
      "under": 415,
      "earn": 416,
      "ĠBomb": 417,
      "greg": 418,
      "Ġmanufact": 419,
      "Ġaud": 420,
      "hor": 421,
      "Ġdatabase": 422,
      "ort": 423,
      "ĠBob": 424,
      "ĠDel": 425,
      "ĠFle": 426,
      "Ġfinds": 427,
      "irit": 428,
      "mod": 429,
      "Ġheter": 430,
      "ĠInc": 431,
      "asing": 432,
      "Ġmal": 433,
      "ĠScot": 434,
      "Ġappoint": 435,
      "Ġago": 436,
      "ĠYear": 437,
      "Ġallowed": 438,
      "UC": 439,
      "Pre": 440,
      "Ġwriter": 441,
      "imes": 442,
      "ĠMission": 443,
      "Ġplayers": 444,
      "ĠControl": 445,
      "Ġhunting": 446,
      "Ġpassenger": 447,
      "Ġcomputer": 448,
      "Ġeast": 449,
      "Ġelectric": 450,
      "ronze": 451,
      "Ġcontinuous": 452,
      "ĠScotland": 453,
      "ieutenant": 454,
      "ĠHan": 455,
      "ote": 456,
      "Ġ17": 457,
      "ĠWalk": 458,
      "ĠBrazil": 459,
      "Ġ1": 460,
      "Ġsince": 461,
      "tle": 462,
      "empt": 463,
      "ra": 464,
      "ists": 465,
      "Ġsem": 466,
      "IT": 467,
      "Ġrepresent": 468,
      "Ġimag": 469,
      "Ġ2017": 470,
      "Ġw": 471,
      "ĠYet": 472,
      "à": 473,
      "ĠCal": 474,
      "Ġmoment": 475,
      "Ġavailable": 476,
      "ame": 477,
      "inist": 478,
      "Ġsuffering": 479,
      "ĠGuardian": 480,
      "ĠSerb": 481,
      "ception": 482,
      "Ġtable": 483,
      "Ã¦": 484,
      "Ġpriv": 485,
      "Ġpsychological": 486,
      "Ġnov": 487,
      "Part": 488,
      "ortun": 489,
      "owder": 490,
      "ĠWhe": 491,
      "oking": 492,
      "eria": 493,
      "Ġcircuit": 494,
      "English": 495,
      "Ġ1935": 496,
      "ĠIm": 497,
      "eces": 498,
      "olly": 499,
      "Ġhouses": 500,
      "Ġcamer": 501,
      "uss": 502,
      "Ġapproximately": 503,
      "ĠHuman": 504,
      "ĠBBC": 505,
      "amental": 506,
      "Ġwaters": 507,
      "Ġviewed": 508,
      "ĠDigital": 509,
      "ishers": 510,
      "ĠJon": 511,
      "Ġfigures": 512,
      "Ġpick": 513,
      "rehens": 514,
      "ĠHungary": 515,
      "Ġdeclared": 516,
      "Ġwritten": 517,
      "ĠTerritory": 518,
      "Ġreally": 519,
      "Ġannual": 520,
      "ĠExternal": 521,
      "Ġdaily": 522,
      "ault": 523,
      "ĠGoogle": 524,
      "urus": 525,
      "ables": 526,
      "stitution": 527,
      "Ġconcerns": 528,
      "0000": 529,
      "Ġpolicies": 530,
      "Ġtrying": 531,
      "entially": 532,
      "ĠChile": 533,
      "Ġsources": 534,
      "ĠDis": 535,
      "Ġmanag": 536,
      "Ġclass": 537,
      "Ġduties": 538,
      "ĠDoc": 539,
      "ĠRepublic": 540,
      "Ġmi": 541,
      "Ġbishops": 542,
      "igned": 543,
      "Ã¸": 544,
      "Ġsnow": 545,
      "usalem": 546,
      "ons": 547,
      "ĠAsian": 548,
      "ĠMuslims": 549,
      "ah": 550,
      "Ġversus": 551,
      "Ġbattle": 552,
      "ĠMoscow": 553,
      "oot": 554,
      "ĠNa": 555,
      "aded": 556,
      "cific": 557,
      "Ġfunction": 558,
      "Ġconscious": 559,
      "ĠInvest": 560,
      "els": 561,
      "Ġassociation": 562,
      "104": 563,
      "ial": 564,
      "ĠFil": 565,
      "Ġ1981": 566,
      "Ġstay": 567,
      "ĠHop": 568,
      "Ġdepos": 569,
      "olving": 570,
      "otype": 571,
      "á¹": 572,
      "ithuan": 573,
      "Ġexplained": 574,
      "Ġrelative": 575,
      "oirs": 576,
      "ĠBritann": 577,
      "Ġshortly": 578,
      "Ġgen": 579,
      "Ġkey": 580,
      "Ġsize": 581,
      "Ġincludes": 582,
      "Ġent": 583,
      "Ġrivers": 584,
      "Ġmot": 585,
      "le": 586,
      "Ġrace": 587,
      "m": 588,
      "Ġ49": 589,
      "Ġcircumstances": 590,
      "Ġperiods": 591,
      "Ġslowly": 592,
      "ĠEven": 593,
      "Ġalleged": 594,
      "ĠLewis": 595,
      "uf": 596,
      "ĠAristotle": 597,
      "ĠCrown": 598,
      "ĠHindu": 599,
      "ĠMas": 600,
      "Ġtoler": 601,
      "Ġfew": 602,
      "Ġfac": 603,
      "Ġgoing": 604,
      "lished": 605,
      "Ġbas": 606,
      "ĠNot": 607,
      "08": 608,
      "Ġinitial": 609,
      "bel": 610,
      "ES": 611,
      "Ġhydrogen": 612,
      "Ġsen": 613,
      "Ġrecently": 614,
      "Ġmeat": 615,
      "vi": 616,
      ".\"": 617,
      "Ġnewspaper": 618,
      "ĠBl": 619,
      "iated": 620,
      "Ġ>": 621,
      "ĠCer": 622,
      "ä": 623,
      "Ġeight": 624,
      "zech": 625,
      "Ġwh": 626,
      "Ġcast": 627,
      "Ġphenomenon": 628,
      "ĠBooks": 629,
      "our": 630,
      "Ġpersonnel": 631,
      "Ġnation": 632,
      "ĠThese": 633,
      "Ġtransm": 634,
      "·": 635,
      "Ġmigration": 636,
      "Ġconcept": 637,
      "ĠBul": 638,
      "ĠFoundation": 639,
      "ĠGreg": 640,
      "ĠProm": 641,
      "Ġcharacterized": 642,
      "Ġrid": 643,
      "i": 644,
      "ĠIndian": 645,
      "apt": 646,
      "ĠStar": 647,
      "ates": 648,
      "arily": 649,
      "®": 650,
      "vers": 651,
      "inf": 652,
      "ils": 653,
      "Ġmixture": 654,
      "Ġunits": 655,
      "elsh": 656,
      "Ġadvoc": 657,
      "Ġth": 658,
      "ij": 659,
      "Ġcondition": 660,
      "Ġconstit": 661,
      "ĠElectric": 662,
      "ĠLin": 663,
      "We": 664,
      "Ġassociated": 665,
      "ĠWal": 666,
      "ervative": 667,
      "ited": 668,
      "onse": 669,
      "ĠReich": 670,
      "ul": 671,
      "Ġ22": 672,
      "Ġusing": 673,
      "hing": 674,
      "ugh": 675,
      "overty": 676,
      "idae": 677,
      "urer": 678,
      "Ī": 679,
      "76": 680,
      "icip": 681,
      "ĠAfric": 682,
      "ĠGerman": 683,
      "Ä": 684,
      "orthern": 685,
      "Ġauthorities": 686,
      "Ġbooks": 687,
      "Ġsuperv": 688,
      "icit": 689,
      "ĠBi": 690,
      "ĠAbraham": 691,
      "Ġmanif": 692,
      "ĠMen": 693,
      "Ġhon": 694,
      "Ġshare": 695,
      "osexual": 696,
      "h": 697,
      "Ġrather": 698,
      "rient": 699,
      "Ã«": 700,
      "Ġobtain": 701,
      "Ġfin": 702,
      "Ġhome": 703,
      "Ġx": 704,
      "ĠPrinceton": 705,
      "Ġvulner": 706,
      "Ġminor": 707,
      "Ġsomething": 708,
      "Ġcorner": 709,
      "Ġindustrial": 710,
      "Ġdepending": 711,
      "Ġtaking": 712,
      "Ġpublished": 713,
      "Ġanalog": 714,
      "ĠEuro": 715,
      "ĠQur": 716,
      "way": 717,
      "oli": 718,
      "Nov": 719,
      "iat": 720,
      "ĠDefense": 721,
      "Ġfemale": 722,
      "1995": 723,
      "Ġwin": 724,
      "icts": 725,
      "ĠLar": 726,
      "Ġpup": 727,
      "clus": 728,
      "Ġcannot": 729,
      "ĠMay": 730,
      "iability": 731,
      "Ġmost": 732,
      "abs": 733,
      "unk": 734,
      "claimed": 735,
      "ĠRout": 736,
      "Ġaccommod": 737,
      "Ġwear": 738,
      "ĠCent": 739,
      "ĠTer": 740,
      "Ġachiev": 741,
      "ĠWikipedia": 742,
      "Ġmedical": 743,
      "%)": 744,
      "Ġoffers": 745,
      "Ġconst": 746,
      "Ġcost": 747,
      "Ġpartic": 748,
      "Ġimportant": 749,
      "Ġpass": 750,
      "Ġfree": 751,
      "ĠH": 752,
      "Ġliqu": 753,
      "it": 754,
      "ĠE": 755,
      "Ġpairs": 756,
      "iece": 757,
      "ĠOb": 758,
      "Ġshel": 759,
      "Ġdo": 760,
      "Ġimprison": 761,
      "Ġlett": 762,
      "Ġuns": 763,
      "Ġplat": 764,
      "Ġvariable": 765,
      "Ġoxygen": 766,
      "Ġdifficulties": 767,
      "Ġinstitutions": 768,
      "ĠMagazine": 769,
      "ament": 770,
      "Ġunions": 771,
      "ĠMars": 772,
      "Ġdual": 773,
      "Ġtrue": 774,
      "Ġvit": 775,
      "ĠTurk": 776,
      "iop": 777,
      "cent": 778,
      "Ġpro": 779,
      "aper": 780,
      "Ġattend": 781,
      "ĠLit": 782,
      "ents": 783,
      "ĠMil": 784,
      "Ġ21": 785,
      "ĠAP": 786,
      "aker": 787,
      "idden": 788,
      "ĠEng": 789,
      "ĠFolk": 790,
      "Ð¸": 791,
      "Ġconcent": 792,
      "Ġlo": 793,
      "On": 794,
      "Ġleaf": 795,
      "Ġmixed": 796,
      "ces": 797,
      "Ġvector": 798,
      "ĠDick": 799,
      "Ġweb": 800,
      "Ġenough": 801,
      "ĠPre": 802,
      "ĠKorea": 803,
      "Ġdoi": 804,
      "ĠChron": 805,
      "ĠDeath": 806,
      "Ġphysics": 807,
      "'t": 808,
      "ector": 809,
      "unction": 810,
      "obe": 811,
      "ements": 812,
      "Î¿": 813,
      "Ãº": 814,
      "room": 815,
      "ĠSwitzerland": 816,
      "onial": 817,
      "Ġsaying": 818,
      "Ã¡n": 819,
      "Ġsim": 820,
      "ist": 821,
      "Ġfun": 822,
      "ĠCaes": 823,
      "Ġfeed": 824,
      "Ġbusinesses": 825,
      "cher": 826,
      "Ġown": 827,
      "ĠSwedish": 828,
      "Ġacknowled": 829,
      "zen": 830,
      "Ġtob": 831,
      "Ġmod": 832,
      "Ġcolors": 833,
      "rand": 834,
      "Ġvari": 835,
      "dam": 836,
      "Ġ61": 837,
      "ĠAre": 838,
      "ĠIs": 839,
      "ien": 840,
      "imensional": 841,
      "Ġabsolute": 842,
      "Ġdefinition": 843,
      "arl": 844,
      "Ġ200": 845,
      "less": 846,
      "uation": 847,
      "Ġalb": 848,
      "forced": 849,
      "Ġcities": 850,
      "ĠWy": 851,
      "unicip": 852,
      "Ġsens": 853,
      "Ġleadership": 854,
      "ennessee": 855,
      "Ġheav": 856,
      "cow": 857,
      "ĠAfter": 858,
      "Ġang": 859,
      "ĠÃ": 860,
      "duction": 861,
      "related": 862,
      "Ġlived": 863,
      "Ġextremely": 864,
      "Ġunp": 865,
      "Ġign": 866,
      "Ġrefers": 867,
      "Ġaltern": 868,
      "Ġlost": 869,
      "iri": 870,
      "imal": 871,
      "Ġsteps": 872,
      "ures": 873,
      "Ġheld": 874,
      "ample": 875,
      "ĠBulgar": 876,
      "oman": 877,
      "Ġinsect": 878,
      "Ġins": 879,
      "ĠVill": 880,
      "uer": 881,
      "Ġwaves": 882,
      "ĠHad": 883,
      "ĠAN": 884,
      "ĠCyprus": 885,
      "Ġseat": 886,
      "ĠPhilip": 887,
      "Ġappe": 888,
      "ording": 889,
      "Ġrich": 890,
      "Ġbearing": 891,
      "gian": 892,
      "Ġinhabitants": 893,
      "ĠSan": 894,
      "well": 895,
      "Ġregarding": 896,
      "aya": 897,
      "Ġdoub": 898,
      "ĠArgentina": 899,
      "anding": 900,
      "ĠGilbert": 901,
      "ĠLetters": 902,
      "Un": 903,
      "Ġsee": 904,
      "ogle": 905,
      "1997": 906,
      "known": 907,
      "ou": 908,
      "a": 909,
      "Ġadvice": 910,
      "ĠFurthermore": 911,
      "Ġmoon": 912,
      "ª": 913,
      "Ġround": 914,
      "ĠPC": 915,
      "Ġflowers": 916,
      "ĠSuch": 917,
      "Ġfoot": 918,
      "General": 919,
      "eller": 920,
      "ĠSin": 921,
      "aret": 922,
      "amb": 923,
      "Ġranks": 924,
      "Ġoperations": 925,
      "ral": 926,
      "com": 927,
      "¦": 928,
      "Ġnames": 929,
      "Ġplayed": 930,
      "Ġbattery": 931,
      "Ġfa": 932,
      "adron": 933,
      "uc": 934,
      "Ġnormally": 935,
      "Ġveloc": 936,
      "Ġcontrovers": 937,
      "Ġdynasty": 938,
      "ak": 939,
      "ĠSy": 940,
      "Ġsolution": 941,
      "uted": 942,
      "ĠMi": 943,
      "Ġ9": 944,
      "Ã§": 945,
      "phia": 946,
      "ĠFinally": 947,
      "Ġcycle": 948,
      "Ġma": 949,
      "ĠRel": 950,
      "\").": 951,
      "Ġdefence": 952,
      "ne": 953,
      "ĠAct": 954,
      "Ġcompletely": 955,
      "ften": 956,
      "Ġthousand": 957,
      "Ġdel": 958,
      "ĠDep": 959,
      "eneration": 960,
      "ok": 961,
      "Ġcol": 962,
      "ifier": 963,
      "Ġsurrounding": 964,
      "ĠFish": 965,
      "ĠIreland": 966,
      "0": 967,
      "ĠCase": 968,
      "Ġdoubt": 969,
      "eness": 970,
      "Ġinstruments": 971,
      "du": 972,
      "Ġdut": 973,
      "hes": 974,
      "Ġcommer": 975,
      "ĠGaz": 976,
      "sen": 977,
      "otal": 978,
      "Ġon": 979,
      "Ġpath": 980,
      "ett": 981,
      "Ġvowel": 982,
      "Ġwrit": 983,
      "Ġagents": 984,
      "Ġmajor": 985,
      "ĠQuest": 986,
      "ment": 987,
      "roke": 988,
      "Ġstrate": 989,
      "contin": 990,
      "Ġspectrum": 991,
      "2012": 992,
      "Ġreflect": 993,
      "Ġdepart": 994,
      "opes": 995,
      "ocratic": 996,
      "ends": 997,
      "ĠLight": 998,
      "ĠManu": 999,
      "ĠMad": 1000,
      "ĠThey": 1001,
      "Ed": 1002,
      "hen": 1003,
      "Ġ300": 1004,
      "omin": 1005,
      "Ġadvantage": 1006,
      "orth": 1007,
      "Ġanyone": 1008,
      "Ġmarriage": 1009,
      "Ġenem": 1010,
      "Ġsoldiers": 1011,
      "Ġstory": 1012,
      "Â": 1013,
      "ĠRose": 1014,
      "Ġpartly": 1015,
      "ense": 1016,
      "une": 1017,
      "$": 1018,
      "United": 1019,
      "ĠUp": 1020,
      "ĠDNA": 1021,
      "ossible": 1022,
      "?\"": 1023,
      "Ġvol": 1024,
      "atory": 1025,
      "ĠWorks": 1026,
      "li": 1027,
      "ĠOn": 1028,
      "ĠRadio": 1029,
      "pite": 1030,
      "||": 1031,
      "ĠBern": 1032,
      "Ġgone": 1033,
      "ĠLu": 1034,
      "Ġhy": 1035,
      "Ġbound": 1036,
      "21": 1037,
      "Ġwheel": 1038,
      "Edit": 1039,
      "Ġtheology": 1040,
      "osa": 1041,
      "Ġoperational": 1042,
      "rael": 1043,
      "Ġamounts": 1044,
      "water": 1045,
      "chers": 1046,
      "Ġfact": 1047,
      "Ġconcern": 1048,
      "ĠTime": 1049,
      "ĠRed": 1050,
      "Ġmere": 1051,
      "antic": 1052,
      "rigade": 1053,
      "Ġregular": 1054,
      "Ġpossibly": 1055,
      "bridge": 1056,
      "Ġwindow": 1057,
      "ething": 1058,
      "Ġchurches": 1059,
      "Ġusers": 1060,
      "b": 1061,
      "Ġwhose": 1062,
      "ene": 1063,
      "Ġspeech": 1064,
      "ĠTo": 1065,
      "Ġinn": 1066,
      "Ġconquest": 1067,
      "sec": 1068,
      "Ġprompt": 1069,
      "Ġcolonies": 1070,
      "Ġansw": 1071,
      "ĠDarwin": 1072,
      "ĠEnter": 1073,
      "ises": 1074,
      "ed": 1075,
      "Ġunderstood": 1076,
      "fare": 1077,
      "ĠSoci": 1078,
      "ĠJack": 1079,
      "Ġconstruction": 1080,
      "Ġant": 1081,
      "ĠInstitute": 1082,
      "ĠâĢľ": 1083,
      "Ġvir": 1084,
      "Ġrights": 1085,
      "Ġtiss": 1086,
      "ĠPrince": 1087,
      "Ġultimately": 1088,
      "avery": 1089,
      "Ġdistance": 1090,
      "Ġto": 1091,
      "ĠCommon": 1092,
      "Ġequation": 1093,
      "Ġ=": 1094,
      "Ġdegrees": 1095,
      "Ġrequires": 1096,
      "ĠHoly": 1097,
      "Ġ&": 1098,
      "Ġexper": 1099,
      "800": 1100,
      "isp": 1101,
      "ĠHo": 1102,
      "Ġsystems": 1103,
      "ĠArts": 1104,
      "ĠHein": 1105,
      "ĠDur": 1106,
      "sy": 1107,
      "ole": 1108,
      "Ġtrees": 1109,
      "Ġmaking": 1110,
      "orum": 1111,
      "Ġunivers": 1112,
      "ĠTib": 1113,
      "ught": 1114,
      "Ġ1967": 1115,
      "ateg": 1116,
      "ĠNicholas": 1117,
      "AM": 1118,
      "ĠCommunist": 1119,
      "Ġflower": 1120,
      "Ġmovement": 1121,
      "Ġemploy": 1122,
      "stein": 1123,
      "Ġassign": 1124,
      "ĠAS": 1125,
      "rome": 1126,
      "ĠMack": 1127,
      "Ġnaturally": 1128,
      "ĠAnne": 1129,
      "her": 1130,
      "1998": 1131,
      "ex": 1132,
      "app": 1133,
      "riction": 1134,
      "abeth": 1135,
      "let": 1136,
      "Ġsuccession": 1137,
      "Ġreact": 1138,
      "Ġdepression": 1139,
      "Ġcommunications": 1140,
      "pdf": 1141,
      "Ġzone": 1142,
      "gam": 1143,
      "ĠMicro": 1144,
      "Ġexclus": 1145,
      ":||": 1146,
      "Ġstaff": 1147,
      "Ġsecret": 1148,
      "imore": 1149,
      "lev": 1150,
      "Ġ5": 1151,
      "Ġknow": 1152,
      "Ġlear": 1153,
      "chool": 1154,
      "Ġeds": 1155,
      "agu": 1156,
      "Ġsecond": 1157,
      "idence": 1158,
      "agne": 1159,
      "abor": 1160,
      "Ġassass": 1161,
      "edia": 1162,
      "tery": 1163,
      "Ġresearchers": 1164,
      "rapy": 1165,
      "Ġ92": 1166,
      "Ġcareer": 1167,
      "ised": 1168,
      "ocks": 1169,
      "ĠAmeric": 1170,
      "ype": 1171,
      "15": 1172,
      "De": 1173,
      "Ġhyp": 1174,
      "Ġunc": 1175,
      "Ġtact": 1176,
      "html": 1177,
      "ĠPri": 1178,
      "Ġshore": 1179,
      "ĠMarie": 1180,
      "sm": 1181,
      "Ġmany": 1182,
      "Ġwalls": 1183,
      "Ġnerv": 1184,
      "inating": 1185,
      "Ġeducation": 1186,
      "Ġhelps": 1187,
      "Ġtwo": 1188,
      "Ġinteresting": 1189,
      "¹": 1190,
      "ĠJun": 1191,
      "Ġdeep": 1192,
      "Ġproof": 1193,
      "Ġeffectively": 1194,
      "ĠTimes": 1195,
      "Ġtrans": 1196,
      "ĠMu": 1197,
      "Ġlargely": 1198,
      "iac": 1199,
      "Ġsurre": 1200,
      "Ġincrease": 1201,
      "Russ": 1202,
      "Ġformat": 1203,
      "Ġprey": 1204,
      "@": 1205,
      "Ġinher": 1206,
      "ĠCommun": 1207,
      "ĠSpecies": 1208,
      "ersh": 1209,
      "ĠÄ": 1210,
      "Ġtrend": 1211,
      "Ġser": 1212,
      "ĠEconomic": 1213,
      "iber": 1214,
      "inion": 1215,
      "Ġobvious": 1216,
      "Ġprocessing": 1217,
      "ĠOnly": 1218,
      "Ġcontrast": 1219,
      "Ñĥ": 1220,
      "ĠSpring": 1221,
      "]": 1222,
      "ĠIn": 1223,
      "Ġcapable": 1224,
      "Ġfilled": 1225,
      "ĠSum": 1226,
      "ages": 1227,
      "Ġbal": 1228,
      "itter": 1229,
      "ĠâĢ¢": 1230,
      "am": 1231,
      "ĠIss": 1232,
      "Ġspeakers": 1233,
      "met": 1234,
      "Ġsettle": 1235,
      "Ġstub": 1236,
      "Ġvoice": 1237,
      "Ġu": 1238,
      "Ġbenefits": 1239,
      "ĠBangladesh": 1240,
      "Ġaverage": 1241,
      "ĠYang": 1242,
      "Ġparticip": 1243,
      "bes": 1244,
      "Ġlike": 1245,
      "Ġworks": 1246,
      "Ġrecommend": 1247,
      "ĠMountains": 1248,
      "ĠGo": 1249,
      "Ġrear": 1250,
      "Ġwor": 1251,
      "iding": 1252,
      "aus": 1253,
      "he": 1254,
      "verse": 1255,
      "Ġconf": 1256,
      "Ġplanet": 1257,
      "urrent": 1258,
      "03": 1259,
      ".âĢĿ": 1260,
      "lik": 1261,
      "Ġstructure": 1262,
      "Ġvisible": 1263,
      "Ġselection": 1264,
      "DA": 1265,
      "Ġexam": 1266,
      "overy": 1267,
      "ctor": 1268,
      "ĠAlan": 1269,
      "Ġtests": 1270,
      "ĠFamily": 1271,
      "ĠKen": 1272,
      "ĠCanad": 1273,
      "ĠScience": 1274,
      "Ġsetting": 1275,
      "rest": 1276,
      "ader": 1277,
      "ĠPeter": 1278,
      "ĠPolish": 1279,
      "ĠArchive": 1280,
      "rie": 1281,
      "Ġrising": 1282,
      "Ġ0": 1283,
      "ĠDer": 1284,
      "ĠBibcode": 1285,
      "rog": 1286,
      "ession": 1287,
      "Ġch": 1288,
      "Ġoverall": 1289,
      "oter": 1290,
      "Ġmurder": 1291,
      "ĠAll": 1292,
      "Ġredu": 1293,
      "Ġbeing": 1294,
      "Ġ52": 1295,
      "iques": 1296,
      "L": 1297,
      "05": 1298,
      "Ġbehavi": 1299,
      "Ġareas": 1300,
      "Ġsomewhat": 1301,
      "Ġhabit": 1302,
      "Ġentit": 1303,
      "ĠTennessee": 1304,
      "Ġcharacteristic": 1305,
      "ĠVer": 1306,
      "amed": 1307,
      "01": 1308,
      "rime": 1309,
      "Ġbeginning": 1310,
      "Ġintent": 1311,
      "Ġparty": 1312,
      "Ġturning": 1313,
      "Ġkn": 1314,
      "fort": 1315,
      "commun": 1316,
      "ered": 1317,
      "mary": 1318,
      "Ġsociety": 1319,
      "while": 1320,
      "iture": 1321,
      "Ġbeyond": 1322,
      "Ġwhy": 1323,
      "izing": 1324,
      "Ġstated": 1325,
      "ĠBabyl": 1326,
      "urn": 1327,
      "Ġclinical": 1328,
      "ipment": 1329,
      "Ġfl": 1330,
      "Ġaspect": 1331,
      "Ġe": 1332,
      "in": 1333,
      "ciences": 1334,
      "Ġobserved": 1335,
      "Ġearl": 1336,
      "Ġburied": 1337,
      "Ġbel": 1338,
      "ĠTim": 1339,
      "Ġextensive": 1340,
      "ĠJava": 1341,
      "Ġthemselves": 1342,
      "Ġaddition": 1343,
      "Ġ/": 1344,
      "Ġcrossing": 1345,
      "ork": 1346,
      "Ġfollowed": 1347,
      "Ġa": 1348,
      "Ġamount": 1349,
      "Ġassess": 1350,
      "iron": 1351,
      "imately": 1352,
      "aft": 1353,
      "Ġnotably": 1354,
      "Ġfairly": 1355,
      "Ġchannel": 1356,
      "ĠWest": 1357,
      "Ġrece": 1358,
      "Ġfamily": 1359,
      "ĠBehav": 1360,
      "Ġwebs": 1361,
      "ten": 1362,
      "umber": 1363,
      "ĠHeritage": 1364,
      "Ń": 1365,
      "ĠEs": 1366,
      "hire": 1367,
      "Ġoptical": 1368,
      "ĠRev": 1369,
      "Ġsymbols": 1370,
      "Ġ72": 1371,
      "Ġfounder": 1372,
      "ĠOr": 1373,
      "ror": 1374,
      "Ġdecre": 1375,
      "ĠHug": 1376,
      "ook": 1377,
      "Ġsequence": 1378,
      "mon": 1379,
      "Ġphrase": 1380,
      "rency": 1381,
      "ricts": 1382,
      "den": 1383,
      "CLC": 1384,
      "Or": 1385,
      "Ġsym": 1386,
      "Ġrespect": 1387,
      "oviet": 1388,
      "Ġswitch": 1389,
      "ĠStep": 1390,
      "ĠRob": 1391,
      "ĠAssoci": 1392,
      "ĠMarx": 1393,
      "Ġstep": 1394,
      "ĠBruce": 1395,
      "abet": 1396,
      "erm": 1397,
      "ufact": 1398,
      "Ġdesire": 1399,
      "ĠStatistics": 1400,
      "ĠSeries": 1401,
      "ĠPhil": 1402,
      "ompl": 1403,
      "otion": 1404,
      "Ġexcept": 1405,
      "thing": 1406,
      "Ġsolid": 1407,
      "Ġbirth": 1408,
      "ĠLong": 1409,
      "Ġscient": 1410,
      "24": 1411,
      "Ġinvolves": 1412,
      "_": 1413,
      "hips": 1414,
      "ĠXV": 1415,
      "Ġseparate": 1416,
      "Ġmoral": 1417,
      "ĠBec": 1418,
      "Ġvalid": 1419,
      "ĠBon": 1420,
      "ĠHebrew": 1421,
      "ĠBed": 1422,
      ".'": 1423,
      "iveness": 1424,
      "Ġminim": 1425,
      "wn": 1426,
      "ĠTal": 1427,
      "ĠForest": 1428,
      "cial": 1429,
      "actic": 1430,
      "Ġadministrative": 1431,
      "Ġabs": 1432,
      "lect": 1433,
      "ially": 1434,
      "Ġcalcul": 1435,
      "ĠJos": 1436,
      "ĠLim": 1437,
      "ļ": 1438,
      "Ġbuilt": 1439,
      "ĠGenesis": 1440,
      "Ġorbit": 1441,
      "ext": 1442,
      "Ġbook": 1443,
      "ĠMagn": 1444,
      "ha": 1445,
      "Ġexchange": 1446,
      "Ġregistered": 1447,
      "SS": 1448,
      "ĠPhys": 1449,
      "ient": 1450,
      "Ġb": 1451,
      "ĠAdams": 1452,
      "eks": 1453,
      "ĠProp": 1454,
      "ud": 1455,
      "IV": 1456,
      "emen": 1457,
      "Ġconclud": 1458,
      "ĠNev": 1459,
      "Ġofficials": 1460,
      "Į": 1461,
      "ready": 1462,
      "Ġsh": 1463,
      "ĠItalian": 1464,
      "uated": 1465,
      "Ġmission": 1466,
      "Ø§": 1467,
      "ĠMissouri": 1468,
      "Ġlocomot": 1469,
      "Ġvideo": 1470,
      "outh": 1471,
      "ferences": 1472,
      "Ġprayer": 1473,
      "rection": 1474,
      "Ġwe": 1475,
      "Ġgold": 1476,
      "ĠInstead": 1477,
      "Ġmerchant": 1478,
      "Ġgreat": 1479,
      "ĠByz": 1480,
      "Ġapart": 1481,
      "umb": 1482,
      "Ġskills": 1483,
      "Cl": 1484,
      "Ġsoil": 1485,
      "Ġcompound": 1486,
      "ĠPr": 1487,
      "Ġservices": 1488,
      "Ġgiving": 1489,
      "Ġhop": 1490,
      "Ġcondem": 1491,
      "ĠMediterranean": 1492,
      "ĠMag": 1493,
      "Ġcontroversial": 1494,
      "Ġdetails": 1495,
      "ĠMann": 1496,
      "rigin": 1497,
      "47": 1498,
      "q": 1499,
      "urd": 1500,
      "ĠForces": 1501,
      "Ġlegal": 1502,
      "medi": 1503,
      "Ġ(": 1504,
      "Ġpreviously": 1505,
      "ear": 1506,
      "ued": 1507,
      "2009": 1508,
      "the": 1509,
      "1985": 1510,
      "change": 1511,
      "ĠCarl": 1512,
      "velop": 1513,
      "Ġothers": 1514,
      "Ġopportunity": 1515,
      "ause": 1516,
      "Ġrend": 1517,
      "Ex": 1518,
      "Ġagreement": 1519,
      "ĠMarine": 1520,
      "ĠKy": 1521,
      "ä¸": 1522,
      "eding": 1523,
      "ĠMinister": 1524,
      "yr": 1525,
      "itary": 1526,
      "Ġremain": 1527,
      "ĠTurkish": 1528,
      "ness": 1529,
      "Ġincorpor": 1530,
      "Ġ24": 1531,
      "Ġburning": 1532,
      "Ġbi": 1533,
      "lades": 1534,
      "ĠCub": 1535,
      "atch": 1536,
      "uro": 1537,
      "Ġcame": 1538,
      "31": 1539,
      "ĠFive": 1540,
      "ress": 1541,
      "ari": 1542,
      "ĠMurray": 1543,
      "les": 1544,
      "ĠGeorge": 1545,
      "ortion": 1546,
      "Ġtreatment": 1547,
      "57": 1548,
      "vironment": 1549,
      "ĠNo": 1550,
      "ĠSw": 1551,
      "right": 1552,
      "Ġmodified": 1553,
      "iest": 1554,
      "ĠRoberts": 1555,
      "uations": 1556,
      "Ġclar": 1557,
      "Ġorders": 1558,
      "Ġpowerful": 1559,
      "Ġcouncil": 1560,
      "Ġhistor": 1561,
      "Ġpictures": 1562,
      "istor": 1563,
      "uts": 1564,
      "Ġr": 1565,
      "idespread": 1566,
      "ĠPenn": 1567,
      "Ġopposition": 1568,
      "zh": 1569,
      "B": 1570,
      "ĠFederation": 1571,
      "ĠDi": 1572,
      "Ġap": 1573,
      "Ġresponsible": 1574,
      "Ġ1908": 1575,
      "iquity": 1576,
      "Ġkilomet": 1577,
      "ĠEncyclopedia": 1578,
      "Ġarrested": 1579,
      "Ġgenus": 1580,
      "s": 1581,
      "Ġdeveloped": 1582,
      "Ġstudied": 1583,
      "ĠRussian": 1584,
      "ĠBritish": 1585,
      "ĠNews": 1586,
      "PS": 1587,
      "iege": 1588,
      "Ġdollars": 1589,
      "Ġsight": 1590,
      "ĠHy": 1591,
      "ĠCass": 1592,
      "iffer": 1593,
      "aki": 1594,
      "ution": 1595,
      "avy": 1596,
      "Ġ1977": 1597,
      "Ġprobably": 1598,
      "Ġordered": 1599,
      "Ġcapture": 1600,
      "Þ": 1601,
      "ĠThomas": 1602,
      "ĠCast": 1603,
      "ads": 1604,
      "×": 1605,
      "ĠO": 1606,
      "Ġtheory": 1607,
      "Ġmathematics": 1608,
      "Ġnetworks": 1609,
      "ĠRoy": 1610,
      "7": 1611,
      "Q": 1612,
      "Ġmer": 1613,
      "Ġoffered": 1614,
      "Ġcards": 1615,
      "Ġtour": 1616,
      "enced": 1617,
      "irst": 1618,
      "Ġax": 1619,
      "Ġhousehold": 1620,
      "Ġopera": 1621,
      "Ġbor": 1622,
      "Ġprove": 1623,
      "ess": 1624,
      "Ġefficiency": 1625,
      "ouses": 1626,
      "world": 1627,
      "ropol": 1628,
      "ĠAnt": 1629,
      "Ġprojects": 1630,
      "Ġ2012": 1631,
      "Ġwest": 1632,
      "ĠInfantry": 1633,
      "Ġhistorians": 1634,
      "oon": 1635,
      "Ġattract": 1636,
      "Ġmanaged": 1637,
      "ops": 1638,
      "Ġbeneath": 1639,
      "ule": 1640,
      "Ġpersonality": 1641,
      "iam": 1642,
      "Ġvictory": 1643,
      "ael": 1644,
      "onym": 1645,
      "ĠRoger": 1646,
      "Ġstarts": 1647,
      "ĠCenter": 1648,
      "ories": 1649,
      "ĠClarke": 1650,
      "Ġhonor": 1651,
      "Ã©": 1652,
      "ĠTru": 1653,
      "millan": 1654,
      "Ġimprov": 1655,
      "Ġnaval": 1656,
      "Ġcomponents": 1657,
      "light": 1658,
      "Ġpit": 1659,
      "Ġexport": 1660,
      "ĠJustice": 1661,
      "Ġste": 1662,
      "ensus": 1663,
      "Ġdesert": 1664,
      "Ġmarket": 1665,
      "Ġclosed": 1666,
      "Ġdiffer": 1667,
      "ĠWales": 1668,
      "Ġblock": 1669,
      "Ġlowest": 1670,
      "Ġtechnique": 1671,
      "eland": 1672,
      "ĠBaron": 1673,
      "ĠMinist": 1674,
      "ĠHob": 1675,
      "oura": 1676,
      "ĠWater": 1677,
      "ĠOther": 1678,
      "with": 1679,
      "}": 1680,
      "ĠBrun": 1681,
      "ĠHarrison": 1682,
      "ĠSun": 1683,
      "rea": 1684,
      "Ġreactions": 1685,
      "ĠDo": 1686,
      "Ġpossess": 1687,
      "Ġprob": 1688,
      "ĠStephen": 1689,
      "ucas": 1690,
      "Ġpoll": 1691,
      "Ġeffort": 1692,
      "Ġ1965": 1693,
      "ĠRepresentatives": 1694,
      "theless": 1695,
      "aser": 1696,
      "Ġoffer": 1697,
      "ĠRand": 1698,
      "ondon": 1699,
      "ublin": 1700,
      "ĠÃĹ": 1701,
      "Ġ1926": 1702,
      "ĠPear": 1703,
      "ST": 1704,
      "Ġextreme": 1705,
      "ĠSurvey": 1706,
      "ĠBiography": 1707,
      "Ġchange": 1708,
      "Ġ1898": 1709,
      "ĠPeople": 1710,
      "ĠCa": 1711,
      "ois": 1712,
      "ĠArchives": 1713,
      "Ġspecific": 1714,
      "odes": 1715,
      "Ġfem": 1716,
      "uit": 1717,
      "ĠMass": 1718,
      "Ġplayer": 1719,
      "İ": 1720,
      "then": 1721,
      "Ġmusic": 1722,
      "Ġï¿½": 1723,
      "Ġcore": 1724,
      "ĠBoston": 1725,
      "Ġorganic": 1726,
      "be": 1727,
      "ĠUnited": 1728,
      "ĠExper": 1729,
      "Ġhair": 1730,
      "ye": 1731,
      "Ġwife": 1732,
      "Ġfactor": 1733,
      "estern": 1734,
      "ĠJournal": 1735,
      "Ġintensity": 1736,
      "ĠBlack": 1737,
      "Ġplace": 1738,
      "Ġrespond": 1739,
      "ĠJuda": 1740,
      "Ġn": 1741,
      "Ġflow": 1742,
      "Ġpatent": 1743,
      "Ġmac": 1744,
      "lear": 1745,
      "uel": 1746,
      "ĠDe": 1747,
      "ĠHamilton": 1748,
      "Ġthrone": 1749,
      "Ġfather": 1750,
      "aur": 1751,
      "ĠOCLC": 1752,
      "risis": 1753,
      "1984": 1754,
      "ĠRest": 1755,
      "Ġ'": 1756,
      "Ġtext": 1757,
      "Ġisot": 1758,
      "Ġsev": 1759,
      "amm": 1760,
      "Ġcou": 1761,
      "Ġcrime": 1762,
      "ita": 1763,
      "'\".": 1764,
      "Ġphilosopher": 1765,
      "acent": 1766,
      "Ġshif": 1767,
      "Ġheat": 1768,
      "bury": 1769,
      "Ġpositive": 1770,
      "Ġaudience": 1771,
      "crib": 1772,
      "ĠSi": 1773,
      "mar": 1774,
      ".;": 1775,
      "Ġreligions": 1776,
      "onn": 1777,
      "Ġmid": 1778,
      "ĠW": 1779,
      "ĠSelf": 1780,
      "Ġpy": 1781,
      "Ġoften": 1782,
      "igenous": 1783,
      "ati": 1784,
      "Ġfor": 1785,
      "Ġwalk": 1786,
      "Ġcool": 1787,
      "Ġout": 1788,
      "apel": 1789,
      "rant": 1790,
      "UR": 1791,
      "Ġhit": 1792,
      "Ġaqu": 1793,
      "Ġencyclop": 1794,
      "bu": 1795,
      "Ġtheories": 1796,
      "itar": 1797,
      "Ġpoetry": 1798,
      "ceeded": 1799,
      "g": 1800,
      "Ġhalf": 1801,
      "apore": 1802,
      "Ġworship": 1803,
      "ĠEss": 1804,
      "Ġtell": 1805,
      "yo": 1806,
      "Ġcollection": 1807,
      "ĠTemple": 1808,
      "porary": 1809,
      "Ġorgan": 1810,
      "Ġpap": 1811,
      "ĠGordon": 1812,
      "ĠWhen": 1813,
      "Ġpatron": 1814,
      "Ð´": 1815,
      "Ġmatrix": 1816,
      "Ġsudden": 1817,
      "Ġbrought": 1818,
      "enty": 1819,
      "ĠEug": 1820,
      "Ġmagn": 1821,
      "Ġoutput": 1822,
      "Ġtw": 1823,
      "Ġdivid": 1824,
      "ĠBure": 1825,
      "ĠMon": 1826,
      "ĠLate": 1827,
      "ĠSaint": 1828,
      "Ġsimpl": 1829,
      "Ġnature": 1830,
      "ashion": 1831,
      "Ġallows": 1832,
      "Ġenorm": 1833,
      "respond": 1834,
      "Ġconservative": 1835,
      "ĠMA": 1836,
      "ĠJohnson": 1837,
      "Ġ188": 1838,
      "pected": 1839,
      "Ġshared": 1840,
      "2010": 1841,
      "Ġsigns": 1842,
      "Ġfore": 1843,
      "ĠParis": 1844,
      "Ġlisted": 1845,
      "Y": 1846,
      "ĠCaptain": 1847,
      "Ġlives": 1848,
      "ĠIntroduction": 1849,
      "resent": 1850,
      "ocking": 1851,
      "ĠChina": 1852,
      "anted": 1853,
      "Ġships": 1854,
      "ione": 1855,
      "ĠCoast": 1856,
      "ling": 1857,
      "!": 1858,
      "Ġlevels": 1859,
      "ĠCultural": 1860,
      "Ġprices": 1861,
      "ĠMoreover": 1862,
      "Ġhave": 1863,
      "Ġconcepts": 1864,
      "amic": 1865,
      "ĠUpper": 1866,
      "omic": 1867,
      "Ġ85": 1868,
      "Ġcl": 1869,
      "bro": 1870,
      "Ġreputation": 1871,
      "Ġcauses": 1872,
      "ĠWayback": 1873,
      "ĠMassachusetts": 1874,
      "ĠQueen": 1875,
      "ĠLow": 1876,
      "ĠJes": 1877,
      "val": 1878,
      "etics": 1879,
      "ĠSolar": 1880,
      "ĠAh": 1881,
      "nia": 1882,
      "',": 1883,
      "ĠRegiment": 1884,
      "Ġplain": 1885,
      "ĠCE": 1886,
      "Ġjournal": 1887,
      "ĠUk": 1888,
      "Ġamongst": 1889,
      "ĠKnow": 1890,
      "Ġ88": 1891,
      "ĠNorm": 1892,
      "Ġsoftware": 1893,
      "ĠMount": 1894,
      "October": 1895,
      "Ġengine": 1896,
      "Ġchanged": 1897,
      "ĠApoll": 1898,
      "Ġmodels": 1899,
      "ĠCzech": 1900,
      "uge": 1901,
      "99": 1902,
      "k": 1903,
      "Ġse": 1904,
      "iation": 1905,
      "ks": 1906,
      "2016": 1907,
      "Ġbased": 1908,
      "Ġduring": 1909,
      "Ġexample": 1910,
      "Ġpol": 1911,
      "ì": 1912,
      "ations": 1913,
      "Ġinst": 1914,
      "rian": 1915,
      "Ġ1860": 1916,
      "fl": 1917,
      "Ġalready": 1918,
      "Ġinj": 1919,
      "ĠSocial": 1920,
      "ĠCulture": 1921,
      "Ġwave": 1922,
      "ĠHungarian": 1923,
      "Ġsacred": 1924,
      "Ġlanguage": 1925,
      "Ġtrials": 1926,
      "Ġcontinuing": 1927,
      "Ġattended": 1928,
      "ĠPsych": 1929,
      "Ã£": 1930,
      "ĠMarsh": 1931,
      "62": 1932,
      "ief": 1933,
      "Ġcontrib": 1934,
      "Ġnegotiations": 1935,
      "Ġhorse": 1936,
      "Ġpoin": 1937,
      "Ġ00": 1938,
      "iz": 1939,
      "ĠLear": 1940,
      "inal": 1941,
      "Ġcommanded": 1942,
      "ficial": 1943,
      "Ġcry": 1944,
      "ĠBrown": 1945,
      "ĠMiller": 1946,
      "²": 1947,
      "ĠUt": 1948,
      "ipped": 1949,
      "Ġproduces": 1950,
      "ĠAtl": 1951,
      "Ġmemb": 1952,
      "Ġintermedi": 1953,
      "Ġreason": 1954,
      "Ġrepublic": 1955,
      "Ġ19": 1956,
      "Ġspecial": 1957,
      "iang": 1958,
      "ĠRh": 1959,
      "Ġdecrease": 1960,
      "ĠSch": 1961,
      "ĠAnat": 1962,
      "Ã³": 1963,
      "Ġfound": 1964,
      "ooth": 1965,
      "Ġrisk": 1966,
      "Ġparticles": 1967,
      "Ġunable": 1968,
      "Ġ1932": 1969,
      "Ġrect": 1970,
      "Ġsignificant": 1971,
      "Ġparents": 1972,
      "Ġdescribe": 1973,
      "Ġrequirements": 1974,
      "Ġcontin": 1975,
      "ĠOd": 1976,
      "Ġbecomes": 1977,
      "ĠSri": 1978,
      "epend": 1979,
      "ĠWinter": 1980,
      "Ġrefer": 1981,
      "Ġleast": 1982,
      "Ġ2006": 1983,
      "ĠBlue": 1984,
      "Ġsyndrome": 1985,
      "ĠBulletin": 1986,
      "Ġide": 1987,
      "Ġres": 1988,
      "irt": 1989,
      "ĠEnergy": 1990,
      "Ġbox": 1991,
      "ĠSh": 1992,
      "ating": 1993,
      "ur": 1994,
      "Ġpossession": 1995,
      "Ġcollect": 1996,
      "Ġimp": 1997,
      "aw": 1998,
      "ĠSand": 1999,
      "ĠGazette": 2000,
      "Ġmale": 2001,
      "Ġrecogn": 2002,
      "Ġcyl": 2003,
      "Ġmorph": 2004,
      "ĠTre": 2005,
      "Ġhistorian": 2006,
      "Ġclos": 2007,
      "Ġaccur": 2008,
      "ĠField": 2009,
      "Ġphot": 2010,
      "ev": 2011,
      "itch": 2012,
      "Ġgl": 2013,
      "Ġdang": 2014,
      "Ġvs": 2015,
      "ieties": 2016,
      "pective": 2017,
      "Ġemer": 2018,
      "ographic": 2019,
      "osen": 2020,
      "inea": 2021,
      "Ġteacher": 2022,
      "Ġlimits": 2023,
      "cop": 2024,
      "ĠMet": 2025,
      "Ġpublication": 2026,
      "ĠUN": 2027,
      "aken": 2028,
      "Ġold": 2029,
      "ĠWisconsin": 2030,
      "Ġmill": 2031,
      "Ġnumerous": 2032,
      "inity": 2033,
      "bing": 2034,
      "Ġsatell": 2035,
      "iness": 2036,
      "ĠPerson": 2037,
      "Ġ1960": 2038,
      "ua": 2039,
      "ĠAir": 2040,
      "Ġbought": 2041,
      "Ġ1912": 2042,
      "Ġslow": 2043,
      "Ġsimult": 2044,
      "Ġneg": 2045,
      "Ġemphas": 2046,
      "seud": 2047,
      "gu": 2048,
      "Ġeru": 2049,
      "Ġallowing": 2050,
      "Ġvessel": 2051,
      "á½": 2052,
      "Ġformer": 2053,
      "Ġmis": 2054,
      "Ġexchang": 2055,
      "Ġcompet": 2056,
      "mp": 2057,
      "ms": 2058,
      "Ġom": 2059,
      "ĠConf": 2060,
      "imensions": 2061,
      "Ġinvolved": 2062,
      "Ġopposed": 2063,
      "ĠCode": 2064,
      "ĠFreedom": 2065,
      "Ġmur": 2066,
      "ush": 2067,
      "Ġrecord": 2068,
      "inent": 2069,
      "tered": 2070,
      "Ġcaus": 2071,
      "cies": 2072,
      "ĠVI": 2073,
      "elle": 2074,
      "Ġpercentage": 2075,
      "ŀ": 2076,
      "Ġmathemat": 2077,
      "ĠCanadian": 2078,
      "Ġsign": 2079,
      "ĠFri": 2080,
      "Ġsurvived": 2081,
      "Ġquant": 2082,
      "Ġfocus": 2083,
      "istry": 2084,
      "anning": 2085,
      "<": 2086,
      "inals": 2087,
      "Ġcaused": 2088,
      "1979": 2089,
      "Ġindeed": 2090,
      "orning": 2091,
      "Ġfirm": 2092,
      "as": 2093,
      "ĠDutch": 2094,
      "adelphia": 2095,
      "Ġcor": 2096,
      "back": 2097,
      "ĠLib": 2098,
      "Ġdifficult": 2099,
      "ĠAccount": 2100,
      "Ġexec": 2101,
      "uments": 2102,
      "ĠPass": 2103,
      "osh": 2104,
      "Ġowned": 2105,
      "Ġpatterns": 2106,
      "Ġstreng": 2107,
      "Ġproduced": 2108,
      "Ġdied": 2109,
      "igation": 2110,
      "ĠEvery": 2111,
      "ĠElizabeth": 2112,
      "ruction": 2113,
      "Ġach": 2114,
      "ki": 2115,
      "Ġcentre": 2116,
      "ĠSC": 2117,
      "Ġnav": 2118,
      "Ġelection": 2119,
      "ĠPun": 2120,
      "ĠAust": 2121,
      "Ġclaimed": 2122,
      "ĠVal": 2123,
      "Ġcontain": 2124,
      "use": 2125,
      "ĠFound": 2126,
      "Ġstri": 2127,
      "ifying": 2128,
      "making": 2129,
      "ĠGlobal": 2130,
      "Ġterritorial": 2131,
      "ily": 2132,
      "ĠPeninsula": 2133,
      "Ġproducts": 2134,
      "ĠKe": 2135,
      "Ġrail": 2136,
      "ĠIntelligence": 2137,
      "Ġsuggested": 2138,
      "raft": 2139,
      "Ġphil": 2140,
      "hern": 2141,
      "apor": 2142,
      "ternet": 2143,
      "Ġpresidential": 2144,
      "ĠT": 2145,
      ".]": 2146,
      "ĠMalay": 2147,
      "arter": 2148,
      "Ġestablishment": 2149,
      "ĠKenya": 2150,
      "ocy": 2151,
      "Ġimmedi": 2152,
      "ĠQuarter": 2153,
      "Ġped": 2154,
      "anuary": 2155,
      "Ġgir": 2156,
      "Ġcomputers": 2157,
      "ĠBe": 2158,
      "ĠâĢ": 2159,
      "ĠFort": 2160,
      "Ġspecies": 2161,
      "ãĥ": 2162,
      "Ġask": 2163,
      "ĠPeriod": 2164,
      "ĠTrans": 2165,
      "Ġnom": 2166,
      "ĠMa": 2167,
      "Ġconfused": 2168,
      "Ġday": 2169,
      "Ġthird": 2170,
      "Ġit": 2171,
      "ilit": 2172,
      "asy": 2173,
      "300": 2174,
      "ĠAllied": 2175,
      "Ġcounty": 2176,
      "ĠGall": 2177,
      "box": 2178,
      "Ġwant": 2179,
      "Ġwindows": 2180,
      "Ġreach": 2181,
      "Ġhero": 2182,
      "Ġ46": 2183,
      "ĠChristians": 2184,
      "ĠArizona": 2185,
      "Ġextension": 2186,
      "ĠWolf": 2187,
      "Ġinfantry": 2188,
      "Ġ65": 2189,
      "Ġthought": 2190,
      "ewise": 2191,
      "ĠChrist": 2192,
      "Ġext": 2193,
      "ĠGun": 2194,
      "au": 2195,
      "Ġinterests": 2196,
      "ice": 2197,
      "Ġenter": 2198,
      "į": 2199,
      "z": 2200,
      "itory": 2201,
      "Ġpen": 2202,
      "Ġarchitecture": 2203,
      "ito": 2204,
      "Ġactivities": 2205,
      "Ġstr": 2206,
      "Is": 2207,
      "appe": 2208,
      "vard": 2209,
      "gressive": 2210,
      "atural": 2211,
      "amps": 2212,
      "Ġconsiderable": 2213,
      "ĠBuddh": 2214,
      "2006": 2215,
      "Ġsounds": 2216,
      "Ġmetal": 2217,
      "here": 2218,
      "Ġ14": 2219,
      "ĠBank": 2220,
      "Ġroad": 2221,
      "Ġpressure": 2222,
      "ĠRen": 2223,
      "Ġshall": 2224,
      "ĠAff": 2225,
      "ĠTay": 2226,
      "ologist": 2227,
      "55": 2228,
      "Ġ83": 2229,
      "Ġdeploy": 2230,
      "Ġeffects": 2231,
      "inian": 2232,
      "Ġexecuted": 2233,
      "Ġmerely": 2234,
      "Ġeval": 2235,
      "ĠLangu": 2236,
      "kins": 2237,
      "ĠOne": 2238,
      "Ġmit": 2239,
      "ott": 2240,
      "Ġrigh": 2241,
      "Ġprep": 2242,
      "illes": 2243,
      "Ġderived": 2244,
      "Europe": 2245,
      "ometimes": 2246,
      "Ġabout": 2247,
      "ĠCorporation": 2248,
      "Ġ1917": 2249,
      "Ġcom": 2250,
      "net": 2251,
      "Ġroot": 2252,
      "athered": 2253,
      "d": 2254,
      "iology": 2255,
      "Ġsales": 2256,
      "ĠTro": 2257,
      "thur": 2258,
      "Ġoperation": 2259,
      "Wh": 2260,
      "ĠRet": 2261,
      "Ġwithin": 2262,
      "Ġvirus": 2263,
      "Ķ": 2264,
      "ĠM": 2265,
      "osite": 2266,
      "ĠPil": 2267,
      "Ġremains": 2268,
      "erv": 2269,
      "ĠSol": 2270,
      "Ġsplit": 2271,
      "Ġtemple": 2272,
      "Ġlot": 2273,
      "Ġadditional": 2274,
      "ĠAtt": 2275,
      "who": 2276,
      "Ġbones": 2277,
      "Ġminister": 2278,
      "Ġed": 2279,
      "Ġ1995": 2280,
      "Ġhorizont": 2281,
      "Ġliterature": 2282,
      "zed": 2283,
      "ĠFre": 2284,
      "Ġben": 2285,
      "ĠSer": 2286,
      "Ġ1915": 2287,
      "erk": 2288,
      "Ġexpansion": 2289,
      "ĠLake": 2290,
      "ĠLuther": 2291,
      "Ġviews": 2292,
      "Ġphon": 2293,
      "rainian": 2294,
      "Ġwall": 2295,
      "Ġ1865": 2296,
      "ĠHot": 2297,
      "Ãł": 2298,
      "Ġdriv": 2299,
      "fully": 2300,
      "ĠAdam": 2301,
      "ĠNow": 2302,
      "ĠRoos": 2303,
      "ven": 2304,
      "Ġvow": 2305,
      "Ġtechn": 2306,
      "Ġ1933": 2307,
      "oen": 2308,
      "erman": 2309,
      "98": 2310,
      "Ġappl": 2311,
      "Ġdro": 2312,
      "ĠBro": 2313,
      "1988": 2314,
      "ĠMedia": 2315,
      "ĠEuropean": 2316,
      "etic": 2317,
      "hesis": 2318,
      "Ł": 2319,
      "ption": 2320,
      "Ġerect": 2321,
      "ĠConst": 2322,
      "Ġresident": 2323,
      "ech": 2324,
      "Ġpaper": 2325,
      "à¤": 2326,
      "Ġstandard": 2327,
      "ious": 2328,
      "O": 2329,
      "Ġ1951": 2330,
      "ĠIndians": 2331,
      "Ġpractices": 2332,
      "heastern": 2333,
      "13": 2334,
      "round": 2335,
      "¶": 2336,
      "Ġmoving": 2337,
      "Ġmonth": 2338,
      "Ġl": 2339,
      "ord": 2340,
      "Ġmusical": 2341,
      "ĠClark": 2342,
      "Ġpeople": 2343,
      "Ġdeb": 2344,
      "No": 2345,
      "ĠDem": 2346,
      "ĠSince": 2347,
      "cember": 2348,
      "hess": 2349,
      "equ": 2350,
      "ĠIslands": 2351,
      "CS": 2352,
      "Ġwing": 2353,
      "ĠConn": 2354,
      "Ġreport": 2355,
      "ĠNep": 2356,
      "scape": 2357,
      "Ġsynd": 2358,
      "Ġconstitutional": 2359,
      "Ġextend": 2360,
      "Ġspl": 2361,
      "ĠScientific": 2362,
      "Ġindu": 2363,
      "umph": 2364,
      "Ġlabor": 2365,
      "ful": 2366,
      "ering": 2367,
      "Ġk": 2368,
      "isms": 2369,
      "used": 2370,
      "aturally": 2371,
      "Ġworking": 2372,
      "rated": 2373,
      "á¹£": 2374,
      "ented": 2375,
      "Ġbasic": 2376,
      "Ġlimit": 2377,
      "aware": 2378,
      "ĠMinor": 2379,
      "41": 2380,
      "ol": 2381,
      "ĠJew": 2382,
      "Ġside": 2383,
      "rep": 2384,
      "Ġorigin": 2385,
      "Ġcitizenship": 2386,
      "ĠEconom": 2387,
      "ĠSen": 2388,
      "ciation": 2389,
      "wich": 2390,
      "ĠMex": 2391,
      "Ġdetailed": 2392,
      "heast": 2393,
      ":": 2394,
      "row": 2395,
      "attle": 2396,
      "unting": 2397,
      "ĠSimon": 2398,
      "Ġopt": 2399,
      "ĠCanada": 2400,
      "£": 2401,
      "atically": 2402,
      "Ch": 2403,
      "BM": 2404,
      "Ġaccurate": 2405,
      "Ġpower": 2406,
      "ĠMiddle": 2407,
      "ħ": 2408,
      "ĠEurope": 2409,
      "asi": 2410,
      "unciation": 2411,
      "ĠLiving": 2412,
      "Ġinfluences": 2413,
      "ĠÂ·": 2414,
      "ĠK": 2415,
      "Ġaddress": 2416,
      "ella": 2417,
      "Ġopening": 2418,
      "Ġthe": 2419,
      "erve": 2420,
      "Ġmeters": 2421,
      "udd": 2422,
      "rors": 2423,
      "Ġagencies": 2424,
      "ĠJesus": 2425,
      "ieved": 2426,
      "Ġsuffer": 2427,
      "Ġcateg": 2428,
      "Ġ118": 2429,
      "¾": 2430,
      "Ġflu": 2431,
      "Ġ2003": 2432,
      "itime": 2433,
      "Ġalthough": 2434,
      "Ġbackground": 2435,
      "Ġ2004": 2436,
      "iced": 2437,
      "o": 2438,
      "97": 2439,
      "Ġassistance": 2440,
      "ĠBefore": 2441,
      "Ġcenters": 2442,
      "ung": 2443,
      "Ġlogic": 2444,
      "ining": 2445,
      "ĠFord": 2446,
      "ner": 2447,
      "ries": 2448,
      "Ġsession": 2449,
      "Ġchall": 2450,
      "Ġreceived": 2451,
      "Ġveh": 2452,
      "Ġgravity": 2453,
      "2007": 2454,
      "30": 2455,
      "Ġbroke": 2456,
      "ĠView": 2457,
      "Ġpione": 2458,
      "pd": 2459,
      "ĠSaf": 2460,
      "Ġpl": 2461,
      "Ġstopped": 2462,
      "man": 2463,
      "109": 2464,
      "ĩ": 2465,
      "ĠÎ": 2466,
      "uture": 2467,
      "ĠHis": 2468,
      "Ġtechnical": 2469,
      "ĠGuinea": 2470,
      "ivers": 2471,
      "ĠPy": 2472,
      "ĠAstron": 2473,
      "uous": 2474,
      "enth": 2475,
      "ĠAncient": 2476,
      "ĠNeuro": 2477,
      "Ġprotected": 2478,
      "Ġdistant": 2479,
      "ĠNote": 2480,
      "Ġ1901": 2481,
      "quest": 2482,
      "Ġwritings": 2483,
      "Ġprovin": 2484,
      "ĠLet": 2485,
      "king": 2486,
      "Ġdiseases": 2487,
      "ĠPolice": 2488,
      "alph": 2489,
      "Ġoccas": 2490,
      "Ġbec": 2491,
      "ĠTs": 2492,
      "ĠAb": 2493,
      "lin": 2494,
      "Ġinfluential": 2495,
      "urther": 2496,
      "Ġconstitution": 2497,
      "Ġdevelopments": 2498,
      "ĠVi": 2499,
      "eck": 2500,
      "aka": 2501,
      "icated": 2502,
      "ague": 2503,
      "cor": 2504,
      "Ġenvironmental": 2505,
      "ĠNon": 2506,
      "ĠDie": 2507,
      "ĠEnd": 2508,
      "Ĭ": 2509,
      "rastructure": 2510,
      "ills": 2511,
      "ĠPolitics": 2512,
      "Ġmaint": 2513,
      "Ġtravel": 2514,
      "rap": 2515,
      "Ġdamaged": 2516,
      "ĠGree": 2517,
      "olve": 2518,
      "Ġimages": 2519,
      "ĠMin": 2520,
      "Ġ978": 2521,
      "Ġconvention": 2522,
      "ĠManagement": 2523,
      "yles": 2524,
      "A": 2525,
      "ĠIndiana": 2526,
      "1": 2527,
      "ĠCampbell": 2528,
      "Ġmetres": 2529,
      "Ãª": 2530,
      "Ġ33": 2531,
      "Ġsuitable": 2532,
      "side": 2533,
      "ciety": 2534,
      "ican": 2535,
      "Ġhum": 2536,
      "ĠBy": 2537,
      "ĠTheod": 2538,
      "Ġrepresentative": 2539,
      "Ġpos": 2540,
      "Ġbrief": 2541,
      "Ġgot": 2542,
      "air": 2543,
      "endar": 2544,
      "ific": 2545,
      "alities": 2546,
      "ĠKennedy": 2547,
      "axon": 2548,
      "Ġtraditional": 2549,
      "wegian": 2550,
      "¿": 2551,
      "zz": 2552,
      "Ġwho": 2553,
      "ĠTour": 2554,
      "ĠTar": 2555,
      "Ġ3": 2556,
      "ĠOff": 2557,
      "ĠJohann": 2558,
      "Ġperm": 2559,
      "38": 2560,
      "Åį": 2561,
      "Ġtraditions": 2562,
      "ĠLeban": 2563,
      "ances": 2564,
      "Ġtemper": 2565,
      "Ġvoltage": 2566,
      "Ġcurrently": 2567,
      "Ġour": 2568,
      "ĠPop": 2569,
      "ĠBuddhism": 2570,
      "Ġcathedral": 2571,
      "Ġrebell": 2572,
      "Ġprovided": 2573,
      "ellow": 2574,
      "Ġofficers": 2575,
      "Ġaccord": 2576,
      "Ġbro": 2577,
      "Ġcountry": 2578,
      "co": 2579,
      "ĠHome": 2580,
      "Ġsmaller": 2581,
      "ko": 2582,
      "Ġcal": 2583,
      "Ġvital": 2584,
      "Ġfr": 2585,
      "ĠSupreme": 2586,
      "Ġmach": 2587,
      "Sp": 2588,
      "Ġintrodu": 2589,
      "ĠBattalion": 2590,
      "ather": 2591,
      "iki": 2592,
      "Ġrapid": 2593,
      "Ġpark": 2594,
      "ĠJanuary": 2595,
      "Ġdiagn": 2596,
      "ĠKarl": 2597,
      "no": 2598,
      "Ġwrite": 2599,
      "Ġmemory": 2600,
      "ple": 2601,
      "201": 2602,
      "Ġbring": 2603,
      "Ã¨": 2604,
      "Ġ89": 2605,
      "Ġestab": 2606,
      "Ġ1983": 2607,
      "Ġri": 2608,
      "ocked": 2609,
      "Ġab": 2610,
      "Ġval": 2611,
      "Ġcontract": 2612,
      "ath": 2613,
      "mill": 2614,
      "Ġmanifest": 2615,
      "Ġextended": 2616,
      "ĠLiterature": 2617,
      "Rev": 2618,
      "Ġcenturies": 2619,
      "omm": 2620,
      "ĠRow": 2621,
      "ĠCooper": 2622,
      "lighten": 2623,
      "ood": 2624,
      "Ġassembly": 2625,
      "Ġall": 2626,
      "ĠIl": 2627,
      "Ġdecided": 2628,
      "ĠOnt": 2629,
      "Ġmatter": 2630,
      "Ġfighting": 2631,
      "Ĺ": 2632,
      "irds": 2633,
      "Ġshorter": 2634,
      "ĠCom": 2635,
      "Ġparas": 2636,
      "Ġdelivered": 2637,
      "sp": 2638,
      "stream": 2639,
      "Ġwatch": 2640,
      "ĠHarry": 2641,
      "ĠDes": 2642,
      "Ġfully": 2643,
      "erg": 2644,
      "vious": 2645,
      "Ġgoal": 2646,
      "ĠZealand": 2647,
      "anu": 2648,
      "ochem": 2649,
      "ier": 2650,
      "overs": 2651,
      "ĠLes": 2652,
      "ĠThere": 2653,
      "wise": 2654,
      "ason": 2655,
      "Ġere": 2656,
      "ĠLew": 2657,
      "Ġmention": 2658,
      "Ġstations": 2659,
      "Ġrecognition": 2660,
      "e": 2661,
      "Ġshape": 2662,
      "orders": 2663,
      "Ġ199": 2664,
      "Ġsn": 2665,
      "stit": 2666,
      "isters": 2667,
      "ĠAfrica": 2668,
      "Ġfunds": 2669,
      "Ġconsult": 2670,
      "ĠEis": 2671,
      "ĠâĢĶ": 2672,
      "ems": 2673,
      "ĠAntar": 2674,
      "Ġstructures": 2675,
      "etwork": 2676,
      "ch": 2677,
      "spe": 2678,
      "hy": 2679,
      "omical": 2680,
      "irth": 2681,
      "Ġdyn": 2682,
      "pir": 2683,
      "Ġruns": 2684,
      "ither": 2685,
      "Ġfull": 2686,
      "ths": 2687,
      "Ġvictims": 2688,
      "igen": 2689,
      "ĠConc": 2690,
      "Ġactivity": 2691,
      "Ġ186": 2692,
      "dia": 2693,
      "Ġthose": 2694,
      "Ġarrangement": 2695,
      "ĠToday": 2696,
      "able": 2697,
      "ib": 2698,
      "ĠLabor": 2699,
      "ĠIN": 2700,
      "Ġcomposed": 2701,
      "ĠBroad": 2702,
      "Ġtheore": 2703,
      "ĠLam": 2704,
      "iew": 2705,
      "ĠScient": 2706,
      "Ġnort": 2707,
      "bi": 2708,
      "Ġ1940": 2709,
      "ĠAgric": 2710,
      "Ġ1993": 2711,
      "ĠJews": 2712,
      "writ": 2713,
      "ility": 2714,
      "ĠSev": 2715,
      "prise": 2716,
      "Ġachieved": 2717,
      "Ġcomm": 2718,
      "Ġcalling": 2719,
      "ĠEff": 2720,
      "Ġpersu": 2721,
      "iforn": 2722,
      "Ġlead": 2723,
      "ĠISBN": 2724,
      "Ġoccurred": 2725,
      "Ġ62": 2726,
      "ĠWhile": 2727,
      "mark": 2728,
      "Ġsurg": 2729,
      "Ü": 2730,
      "Ġbar": 2731,
      "Ġconvin": 2732,
      "Ġserv": 2733,
      "Ġintroduced": 2734,
      "ĠLibrary": 2735,
      "Ġobservation": 2736,
      "Ġemployees": 2737,
      "ĠEdward": 2738,
      "orge": 2739,
      "ĠBase": 2740,
      "Ġbuilding": 2741,
      "Ġ1918": 2742,
      "ĠWiley": 2743,
      "ieval": 2744,
      "Ġparallel": 2745,
      "formation": 2746,
      "night": 2747,
      "Ġgoddess": 2748,
      "oured": 2749,
      "Ġlittle": 2750,
      "Ġac": 2751,
      "rating": 2752,
      "Ġedge": 2753,
      "Ġdist": 2754,
      "Ind": 2755,
      "Ġtouch": 2756,
      "Ġ2005": 2757,
      "Ġextent": 2758,
      "ĠPrize": 2759,
      "Ġgoes": 2760,
      "Ġ+": 2761,
      "raction": 2762,
      "ably": 2763,
      "Ġgrant": 2764,
      "Ġinterpretation": 2765,
      "Ġstatement": 2766,
      "Ġalle": 2767,
      "ery": 2768,
      "Ġreforms": 2769,
      "Died": 2770,
      "Ġunder": 2771,
      "Ġusually": 2772,
      "8": 2773,
      "prus": 2774,
      "Ġcontains": 2775,
      "Ġconc": 2776,
      "Ġdef": 2777,
      "ification": 2778,
      "Ġmyth": 2779,
      "meric": 2780,
      "Ġvictim": 2781,
      "Ġapp": 2782,
      "helm": 2783,
      "Ġmode": 2784,
      "ĠBh": 2785,
      "ping": 2786,
      "Ġstrength": 2787,
      "Ġunless": 2788,
      "Ġdetail": 2789,
      "Ġchance": 2790,
      "Ġrecip": 2791,
      "Ġpack": 2792,
      "Ġrestoration": 2793,
      "Ġdescrib": 2794,
      "ĠOF": 2795,
      "rator": 2796,
      "Ab": 2797,
      "Ġvertical": 2798,
      "aste": 2799,
      "uses": 2800,
      "ĠProv": 2801,
      "ĠLo": 2802,
      "ĠAst": 2803,
      "iary": 2804,
      "ated": 2805,
      "ning": 2806,
      "Ġident": 2807,
      "ĠGuard": 2808,
      "Ġdirection": 2809,
      "Ġprogress": 2810,
      "Ġactiv": 2811,
      "Ġhonour": 2812,
      "ĠHarvard": 2813,
      "af": 2814,
      "[": 2815,
      "Ġ-": 2816,
      "ĠStock": 2817,
      "Ġrepresentation": 2818,
      "eget": 2819,
      "ami": 2820,
      "eng": 2821,
      "Ġevil": 2822,
      "à¥": 2823,
      "Ġgo": 2824,
      "Ġencoura": 2825,
      "CL": 2826,
      "Ġrecording": 2827,
      "Å«": 2828,
      "burg": 2829,
      "ĠAcademy": 2830,
      "How": 2831,
      "Ġneeds": 2832,
      "asa": 2833,
      "ĠComm": 2834,
      "Ġalgor": 2835,
      "Ġ39": 2836,
      "Ġgain": 2837,
      "Ġcourt": 2838,
      "atter": 2839,
      "Ġcultiv": 2840,
      "Ġset": 2841,
      "Ġnorthwest": 2842,
      "ja": 2843,
      "Ġleave": 2844,
      "Ġassist": 2845,
      "ask": 2846,
      "Ġbudget": 2847,
      "Ġjour": 2848,
      "ĠRam": 2849,
      "Ġposs": 2850,
      "eral": 2851,
      "itionally": 2852,
      "alysis": 2853,
      "ĠAustria": 2854,
      "ĠWe": 2855,
      "Ġefficient": 2856,
      "ĠDavid": 2857,
      "ardo": 2858,
      "ĠRog": 2859,
      "Ġcultures": 2860,
      "ero": 2861,
      "ĠWithin": 2862,
      "Ġsol": 2863,
      "ema": 2864,
      "Ġfourth": 2865,
      "ato": 2866,
      "ile": 2867,
      "Ġcycl": 2868,
      "61": 2869,
      "ĠTherefore": 2870,
      "ocracy": 2871,
      "Ġ150": 2872,
      "Ġmass": 2873,
      "Ġcryst": 2874,
      "Ġsouth": 2875,
      "jection": 2876,
      "Ġ1978": 2877,
      "Ġtransl": 2878,
      "auge": 2879,
      "ients": 2880,
      "oken": 2881,
      "ds": 2882,
      "Ġtwenty": 2883,
      "ine": 2884,
      "Ġcheck": 2885,
      "52": 2886,
      "ĠMed": 2887,
      "ĠRena": 2888,
      "worth": 2889,
      "Ġmother": 2890,
      "Ġhomes": 2891,
      "that": 2892,
      "ours": 2893,
      "Ġseemed": 2894,
      "Ġofficially": 2895,
      "ĠNaval": 2896,
      "Ġetc": 2897,
      "we": 2898,
      "ĠPlan": 2899,
      "Ġdivided": 2900,
      "range": 2901,
      "ĠArchitect": 2902,
      "ĠDevelopment": 2903,
      "Ġconduct": 2904,
      "ig": 2905,
      "ll": 2906,
      "ĠKing": 2907,
      "urch": 2908,
      "Ġlater": 2909,
      "000": 2910,
      "ĠMorris": 2911,
      "Ġpeace": 2912,
      "aval": 2913,
      "Ġargue": 2914,
      "ological": 2915,
      "med": 2916,
      "ĠMalays": 2917,
      "iable": 2918,
      "ĠQ": 2919,
      "ello": 2920,
      "ĠJeff": 2921,
      "ĠIll": 2922,
      "omb": 2923,
      "Ġlegislature": 2924,
      "E": 2925,
      "cip": 2926,
      "ulation": 2927,
      "ĠBig": 2928,
      "Ġred": 2929,
      "uls": 2930,
      "Ġfollowing": 2931,
      "Ġpal": 2932,
      "ĠOrd": 2933,
      "ĠCommission": 2934,
      "ias": 2935,
      "Ġhus": 2936,
      "ĠSl": 2937,
      "Ġtask": 2938,
      "Ġrailroad": 2939,
      "Ġtal": 2940,
      "ibility": 2941,
      "ism": 2942,
      "Ġwhat": 2943,
      "Ġobl": 2944,
      "erson": 2945,
      "Ġorg": 2946,
      "Ħ": 2947,
      "ĠSo": 2948,
      "ĠConnecticut": 2949,
      "ĠReg": 2950,
      "ĠGer": 2951,
      "Ġdiscovered": 2952,
      "Ġnew": 2953,
      "Ġparticularly": 2954,
      "Ġgrad": 2955,
      "ĠDictionary": 2956,
      "Ġunique": 2957,
      "Ġrarely": 2958,
      "W": 2959,
      "Ġnote": 2960,
      "Ġregional": 2961,
      "Ġsubjects": 2962,
      "ĠBo": 2963,
      "Ġking": 2964,
      "ĠØ": 2965,
      "Ġconfl": 2966,
      "ĠCap": 2967,
      "ointed": 2968,
      "Ġword": 2969,
      "terior": 2970,
      "ador": 2971,
      "Ġsons": 2972,
      "Ġbringing": 2973,
      "illing": 2974,
      "phas": 2975,
      "rovers": 2976,
      "free": 2977,
      "Ġbeh": 2978,
      "Ġtotal": 2979,
      "ĠHaw": 2980,
      "elson": 2981,
      "ĠFull": 2982,
      "enn": 2983,
      "Ġal": 2984,
      "Can": 2985,
      "ĠEdition": 2986,
      "Ġbecame": 2987,
      "Ġtyp": 2988,
      "ilib": 2989,
      "Ġlat": 2990,
      "IC": 2991,
      "Ġnotice": 2992,
      "Ġaccompanied": 2993,
      "ĠYoung": 2994,
      "ĠChemical": 2995,
      "Ġconsider": 2996,
      "ao": 2997,
      "ĠPen": 2998,
      "¨": 2999,
      "arp": 3000,
      "Ġhistorical": 3001,
      "Ġsand": 3002,
      "Ġ1948": 3003,
      "mosp": 3004,
      ";": 3005,
      "uch": 3006,
      "bert": 3007,
      "Ġpredom": 3008,
      "ĠMark": 3009,
      "fts": 3010,
      "Ñģ": 3011,
      "viron": 3012,
      "cut": 3013,
      "Ġrelations": 3014,
      "Ã¼r": 3015,
      "ave": 3016,
      "Ġfashion": 3017,
      "Ġmerc": 3018,
      "Ġadults": 3019,
      "alog": 3020,
      "Ġstored": 3021,
      "Ġscene": 3022,
      "orts": 3023,
      "itative": 3024,
      "resh": 3025,
      "Ġdefine": 3026,
      "Ġmaintained": 3027,
      "Ġaro": 3028,
      "Ġdespite": 3029,
      "III": 3030,
      "urope": 3031,
      "inter": 3032,
      "Û": 3033,
      "Ġwind": 3034,
      "Ġreconst": 3035,
      "ĠArab": 3036,
      "gether": 3037,
      "Ġantib": 3038,
      "Ġthroughout": 3039,
      "Ġstrong": 3040,
      "ened": 3041,
      "Ġsequ": 3042,
      "Ġdescribes": 3043,
      "118": 3044,
      "onto": 3045,
      "ĠTan": 3046,
      "Ġother": 3047,
      "ĠAs": 3048,
      "Ã¼": 3049,
      "adel": 3050,
      "Ġattached": 3051,
      "Ġdep": 3052,
      "Ġcandidate": 3053,
      "Ġvary": 3054,
      "Ġstatistics": 3055,
      "ĠChristian": 3056,
      "Ġ1961": 3057,
      "Ġgiv": 3058,
      "Ġvision": 3059,
      "ĠSecurity": 3060,
      "aped": 3061,
      "Ġmentioned": 3062,
      "chestra": 3063,
      "Ġconclusion": 3064,
      "Ġgay": 3065,
      "Ġen": 3066,
      "Ġcited": 3067,
      "Ġfert": 3068,
      "Ġgod": 3069,
      "Ġflying": 3070,
      "Ġfeel": 3071,
      "ĠRaj": 3072,
      "Ġdesignated": 3073,
      "ĠRos": 3074,
      "Ġ|": 3075,
      "Ġexpert": 3076,
      "Îµ": 3077,
      "Ġbrother": 3078,
      "ov": 3079,
      "Ġlegit": 3080,
      "rov": 3081,
      "borne": 3082,
      "rogen": 3083,
      "1992": 3084,
      "March": 3085,
      "Ġmanner": 3086,
      "Ġone": 3087,
      "ĠEngland": 3088,
      "Ġwell": 3089,
      "Ġagre": 3090,
      "Ġprocess": 3091,
      "Ġdisplay": 3092,
      "Ġgalax": 3093,
      "Ġcup": 3094,
      "ĠGreece": 3095,
      "opter": 3096,
      "jan": 3097,
      "sa": 3098,
      "Ġrejected": 3099,
      "Ġkin": 3100,
      "Ġindex": 3101,
      "ĠElect": 3102,
      "Ġgave": 3103,
      "ridge": 3104,
      "Ġev": 3105,
      "rupt": 3106,
      "Ġfilter": 3107,
      "Î½": 3108,
      "rey": 3109,
      "ert": 3110,
      "Ġworld": 3111,
      "day": 3112,
      "Ġmerged": 3113,
      "onder": 3114,
      "ĠSalv": 3115,
      "pr": 3116,
      "IR": 3117,
      "Ġmeaning": 3118,
      "ĠLieutenant": 3119,
      "ĠAuthority": 3120,
      "EEE": 3121,
      "Ġcattle": 3122,
      "Ġcounter": 3123,
      "ĠSher": 3124,
      "upp": 3125,
      "Ġquarter": 3126,
      "ĠSpe": 3127,
      "Ġcust": 3128,
      "ree": 3129,
      "Ġpresent": 3130,
      "Ġsister": 3131,
      "van": 3132,
      "Ġcode": 3133,
      "Ġ250": 3134,
      "ograph": 3135,
      "ns": 3136,
      "agues": 3137,
      "Ġeasily": 3138,
      "Ġestablish": 3139,
      "Ġarc": 3140,
      "Ġwrong": 3141,
      "rary": 3142,
      "Ġafford": 3143,
      "bor": 3144,
      "erse": 3145,
      "itude": 3146,
      "ĠAnim": 3147,
      "ication": 3148,
      "ss": 3149,
      "Ġrecognized": 3150,
      "Ġenjoy": 3151,
      "Ġ1941": 3152,
      "tic": 3153,
      "ĠWelsh": 3154,
      "ĠJud": 3155,
      "Ġfollow": 3156,
      "n": 3157,
      "Ġregulation": 3158,
      "Ġhoriz": 3159,
      "ĠCatholic": 3160,
      "Ph": 3161,
      "ĠGen": 3162,
      "ĠAccessed": 3163,
      "ĠPart": 3164,
      "Ġtre": 3165,
      "ĠHind": 3166,
      "ĠRoutledge": 3167,
      "Ġprovinces": 3168,
      "ĠSn": 3169,
      "Ġgroup": 3170,
      "Ġliter": 3171,
      "Ġsituated": 3172,
      "ĠKorean": 3173,
      "Ġstage": 3174,
      "ators": 3175,
      "Ġus": 3176,
      "ver": 3177,
      "Ġmen": 3178,
      "CA": 3179,
      "Ġtold": 3180,
      "Ġchose": 3181,
      "Ġiron": 3182,
      "ears": 3183,
      "Ġterms": 3184,
      "Ġkind": 3185,
      "ows": 3186,
      "Ġquest": 3187,
      "Ġreasons": 3188,
      "Ġske": 3189,
      "Ġtower": 3190,
      "Ġad": 3191,
      "onal": 3192,
      "ĠNear": 3193,
      "Ġstrateg": 3194,
      "og": 3195,
      "Ġdiscrim": 3196,
      "Ġcoins": 3197,
      "ĠFlorida": 3198,
      "ersion": 3199,
      "ilst": 3200,
      "ĠPeters": 3201,
      "pes": 3202,
      "ĠTol": 3203,
      "Ġproduct": 3204,
      "~": 3205,
      "Ġraise": 3206,
      "ĠAustralia": 3207,
      "icon": 3208,
      "ination": 3209,
      "Ġvarying": 3210,
      "ama": 3211,
      "ĠCh": 3212,
      "ify": 3213,
      "Ġjurisdiction": 3214,
      "Ġmph": 3215,
      "pecially": 3216,
      "ength": 3217,
      "rug": 3218,
      "ĠFried": 3219,
      "Ġrural": 3220,
      "eed": 3221,
      "Ġdistributed": 3222,
      "Ġvelocity": 3223,
      "organ": 3224,
      "Ġnotion": 3225,
      "ĠSeveral": 3226,
      "Ġproduce": 3227,
      "Ġvalues": 3228,
      "IA": 3229,
      "ĠStan": 3230,
      "ĠNative": 3231,
      "know": 3232,
      "ĠIsrael": 3233,
      "Ġtransportation": 3234,
      "Ġalleg": 3235,
      "ĠAccess": 3236,
      "Ġcoun": 3237,
      "borough": 3238,
      "Â²": 3239,
      "http": 3240,
      "Ġdiplom": 3241,
      "ĠImperial": 3242,
      "ĠKings": 3243,
      "Ġstand": 3244,
      "Ġstim": 3245,
      "ĠRomans": 3246,
      "ter": 3247,
      "Ġvul": 3248,
      "Ġbusiness": 3249,
      "Ġdocument": 3250,
      "Ġchoice": 3251,
      "PA": 3252,
      "amp": 3253,
      "son": 3254,
      "Ġ1850": 3255,
      "Ġsaf": 3256,
      "ĠSeven": 3257,
      "ĠCroat": 3258,
      "teen": 3259,
      "Ġapplied": 3260,
      "lan": 3261,
      "ĠVict": 3262,
      "thly": 3263,
      "Ġfinished": 3264,
      "Ġsuffered": 3265,
      "Ġtraditionally": 3266,
      "including": 3267,
      "Ġserved": 3268,
      "90": 3269,
      "ĠMilitary": 3270,
      "Ġcampaign": 3271,
      "ĠCho": 3272,
      "Ġneed": 3273,
      "ĠPac": 3274,
      "cl": 3275,
      "ĠBat": 3276,
      "er": 3277,
      "2011": 3278,
      "wealth": 3279,
      "Ġavail": 3280,
      "az": 3281,
      "Ġthree": 3282,
      "Ġliquid": 3283,
      "ounce": 3284,
      "Ġplanned": 3285,
      "Ġcertainly": 3286,
      "Ġprovision": 3287,
      "Ġprovide": 3288,
      "ingu": 3289,
      "Ġoffering": 3290,
      "Ġconsisting": 3291,
      "ĠQu": 3292,
      "Ġappointed": 3293,
      "Ġaround": 3294,
      "umn": 3295,
      "Ġclassified": 3296,
      "ĠCre": 3297,
      "Ġdict": 3298,
      "ĠPra": 3299,
      "20": 3300,
      "As": 3301,
      "ohn": 3302,
      "Ġorigins": 3303,
      "ount": 3304,
      "Ġprev": 3305,
      "Ġgender": 3306,
      "kes": 3307,
      "ow": 3308,
      "Ġyou": 3309,
      "Ġrevealed": 3310,
      "Ġdates": 3311,
      "inding": 3312,
      "Ġnon": 3313,
      "Ġbehaviour": 3314,
      "Ġ1950": 3315,
      "eva": 3316,
      "Ġdecades": 3317,
      "ĠHor": 3318,
      "Ġmom": 3319,
      "erts": 3320,
      "ors": 3321,
      "ĠBol": 3322,
      "Ġ|âĢ¢": 3323,
      "Ġprior": 3324,
      "ebruary": 3325,
      "Ġdefeat": 3326,
      "emetery": 3327,
      "Ġweather": 3328,
      "Ġremove": 3329,
      "Ġadvanced": 3330,
      "hyth": 3331,
      "ĠRobert": 3332,
      "Ġboat": 3333,
      "Ġacadem": 3334,
      "Ġconven": 3335,
      "ĠTheatre": 3336,
      "ĠEU": 3337,
      "ĠPalestine": 3338,
      "Ġintelligence": 3339,
      "82": 3340,
      "leg": 3341,
      "ctions": 3342,
      "Ġreverse": 3343,
      "Ġfall": 3344,
      "Ġstrict": 3345,
      "Ġ1994": 3346,
      "Ġund": 3347,
      "kh": 3348,
      "Ġpersonal": 3349,
      "Ġearthquake": 3350,
      "Ġnoted": 3351,
      "Ġthorough": 3352,
      "uring": 3353,
      "gar": 3354,
      "Ġaction": 3355,
      "standing": 3356,
      "Ġsust": 3357,
      "Ġperspective": 3358,
      "olecular": 3359,
      "Ġer": 3360,
      "Ļ": 3361,
      "ĠHistorical": 3362,
      "Ġdraw": 3363,
      "ĠPortug": 3364,
      "Ġstret": 3365,
      "»": 3366,
      "Ġresults": 3367,
      "ĠProtection": 3368,
      "Ġmount": 3369,
      "Ġob": 3370,
      "ic": 3371,
      "Ġfixed": 3372,
      "ĠAfrican": 3373,
      "Ġpoverty": 3374,
      "aris": 3375,
      "Ġstore": 3376,
      "Ġthreatened": 3377,
      "Ġpra": 3378,
      "aps": 3379,
      "Ġgovernment": 3380,
      "Ġco": 3381,
      "Ġchemical": 3382,
      "Ġblocks": 3383,
      "uate": 3384,
      "Ġcap": 3385,
      "Ġinterior": 3386,
      "Ġsup": 3387,
      "Ġbig": 3388,
      "Ġshift": 3389,
      "leton": 3390,
      "raq": 3391,
      "Ġconvent": 3392,
      "Ġgener": 3393,
      "atever": 3394,
      "Ġsurv": 3395,
      "ĠMuhammad": 3396,
      "ĠOffice": 3397,
      "Ġdetect": 3398,
      "ressed": 3399,
      "=": 3400,
      "Ġann": 3401,
      "ĠVictoria": 3402,
      "inical": 3403,
      "ats": 3404,
      "ĠBerkeley": 3405,
      "Ġdesigns": 3406,
      "ble": 3407,
      "ĠMargaret": 3408,
      "roid": 3409,
      "'": 3410,
      "Ġpronounced": 3411,
      "Ġrailway": 3412,
      "gi": 3413,
      "olog": 3414,
      "hi": 3415,
      "Ġtried": 3416,
      "Ġcons": 3417,
      "Ġboundaries": 3418,
      "Ġrocket": 3419,
      "orship": 3420,
      "Ġmem": 3421,
      "Ġroute": 3422,
      "Ġbright": 3423,
      "ĠSouthern": 3424,
      "Ġcompleted": 3425,
      "Ġpurchased": 3426,
      "Ġequal": 3427,
      "ĠChristopher": 3428,
      "sky": 3429,
      "Ġscatter": 3430,
      "script": 3431,
      "Ġmarine": 3432,
      "Ġstrategy": 3433,
      "----": 3434,
      "Ġsacrifice": 3435,
      "arsh": 3436,
      "Ġplaced": 3437,
      "Ġnam": 3438,
      "angle": 3439,
      "Ġop": 3440,
      "Ġare": 3441,
      "Ġdri": 3442,
      "uther": 3443,
      "Ġadm": 3444,
      "ocated": 3445,
      "Ġlab": 3446,
      "Ġsenior": 3447,
      "Ġcentury": 3448,
      "ĠTai": 3449,
      "Ġsurf": 3450,
      "rans": 3451,
      "ĠDistrict": 3452,
      "Ġsurvive": 3453,
      "oth": 3454,
      "olic": 3455,
      "Ġnetwork": 3456,
      "Ġeasy": 3457,
      "Ġfar": 3458,
      "ober": 3459,
      "Ġengineer": 3460,
      "Ġfifth": 3461,
      "Ġmembership": 3462,
      "Ġin": 3463,
      "ledge": 3464,
      "35": 3465,
      "Ġ1979": 3466,
      "olia": 3467,
      "Ġboard": 3468,
      "Ġref": 3469,
      "Ġnine": 3470,
      "Ġapparently": 3471,
      "Ġthirty": 3472,
      "oked": 3473,
      "RC": 3474,
      "ished": 3475,
      "Ġanimals": 3476,
      "ĠLater": 3477,
      "Ġbelief": 3478,
      "Ġreached": 3479,
      "Ġvotes": 3480,
      "Ġattributed": 3481,
      "ĠWorld": 3482,
      "Ġfrom": 3483,
      "ĠSea": 3484,
      "Ġlect": 3485,
      "don": 3486,
      "claim": 3487,
      "Ġmining": 3488,
      "Ġneuro": 3489,
      "Ġinf": 3490,
      "letin": 3491,
      "ĠTreaty": 3492,
      "oca": 3493,
      "ĠMinn": 3494,
      "ĠGermans": 3495,
      "Ġformula": 3496,
      "ĠTransl": 3497,
      "ĠWang": 3498,
      "inburgh": 3499,
      "ĠOntario": 3500,
      "ĠWhy": 3501,
      "ĠThose": 3502,
      "est": 3503,
      "ĠColon": 3504,
      "lam": 3505,
      "is": 3506,
      "Ã£o": 3507,
      "\".": 3508,
      "Ġso": 3509,
      "St": 3510,
      "Ġtomb": 3511,
      "ĠUS": 3512,
      "clam": 3513,
      "ĠPalest": 3514,
      "ĠPMID": 3515,
      "ĠLife": 3516,
      "ĠÂ£": 3517,
      "Ne": 3518,
      "ĠMind": 3519,
      "ĠIts": 3520,
      "¯": 3521,
      "Ġsays": 3522,
      "ĠGolden": 3523,
      "Ġprominent": 3524,
      "lie": 3525,
      "1991": 3526,
      "Ġdry": 3527,
      "ĠMes": 3528,
      "Ġsubsequent": 3529,
      "Ġpurchase": 3530,
      "ĠPalace": 3531,
      "ĠRenaissance": 3532,
      "ĠDet": 3533,
      "Ġhousing": 3534,
      "Ġseen": 3535,
      "Ġmile": 3536,
      "ĠUse": 3537,
      "Ġstyles": 3538,
      "Ġcoll": 3539,
      "ĠCou": 3540,
      "Ġvisited": 3541,
      "Ġvice": 3542,
      "ĠAg": 3543,
      "ĠPsychology": 3544,
      "Ġencounter": 3545,
      "ones": 3546,
      "¢": 3547,
      "Ġinterest": 3548,
      "ades": 3549,
      "Ġinitially": 3550,
      "ĠHol": 3551,
      "Ġne": 3552,
      "ested": 3553,
      "archy": 3554,
      "Ġyield": 3555,
      "ĠPierre": 3556,
      "ĠLithuan": 3557,
      "urricane": 3558,
      "Ġthinking": 3559,
      "ĠEnvironment": 3560,
      "ĠPakistan": 3561,
      "Ġpict": 3562,
      "Ġ1907": 3563,
      "oric": 3564,
      "ality": 3565,
      "achusetts": 3566,
      "Ĳ": 3567,
      "ĠDepartment": 3568,
      "ĠBudd": 3569,
      "Ġess": 3570,
      "ĠMah": 3571,
      "ĠFin": 3572,
      "Ġfemales": 3573,
      "Ġden": 3574,
      "ring": 3575,
      "Ġliberal": 3576,
      "ail": 3577,
      "Ġact": 3578,
      "ham": 3579,
      "Ġelect": 3580,
      "Ġaccompl": 3581,
      "Ġnotes": 3582,
      "ĠApp": 3583,
      "Ġrub": 3584,
      "gn": 3585,
      "Ġhappened": 3586,
      "obal": 3587,
      "ĠÅ": 3588,
      "Ġbot": 3589,
      "Ġagricultural": 3590,
      "Ġsample": 3591,
      "aging": 3592,
      "Ġresistance": 3593,
      "Ġassum": 3594,
      "Ġ1991": 3595,
      "500": 3596,
      "set": 3597,
      "grad": 3598,
      "Ġaltitude": 3599,
      "Ġagain": 3600,
      "Ġpull": 3601,
      "Ġindividuals": 3602,
      "Ġopinion": 3603,
      "Ġinstall": 3604,
      "Ġpan": 3605,
      "ĠStre": 3606,
      "ky": 3607,
      "Ġunderground": 3608,
      "Ġjuris": 3609,
      "Ġpo": 3610,
      "ĠStation": 3611,
      "rium": 3612,
      "ĠGoth": 3613,
      "Ġclear": 3614,
      "Ġrom": 3615,
      "Ġsystem": 3616,
      "Ġgood": 3617,
      "ĠProtest": 3618,
      "ĠUnivers": 3619,
      "14": 3620,
      "ê": 3621,
      "sequ": 3622,
      "ĠProfess": 3623,
      "books": 3624,
      "Í": 3625,
      "86": 3626,
      "ĠMS": 3627,
      "Ġthen": 3628,
      "ĠPublic": 3629,
      "Ġens": 3630,
      "Ġstable": 3631,
      "Ġcorrect": 3632,
      "Ġrestored": 3633,
      "Ġtoward": 3634,
      "nt": 3635,
      "Ġ6": 3636,
      "Ġwealth": 3637,
      "rag": 3638,
      "Ġexperiences": 3639,
      "Ġ97": 3640,
      "Ġstanding": 3641,
      "Ġpopulation": 3642,
      "Ġinstrument": 3643,
      "Ġion": 3644,
      "illed": 3645,
      "Ġcovers": 3646,
      "âĢĵ": 3647,
      "gest": 3648,
      "Ġmovie": 3649,
      "ĠLouisiana": 3650,
      "stron": 3651,
      "Ġhier": 3652,
      "Ġpotential": 3653,
      "Ġwork": 3654,
      "Ġsigned": 3655,
      "ity": 3656,
      "ĠCollection": 3657,
      "Ġracial": 3658,
      "Ġro": 3659,
      "Ġprime": 3660,
      "Ġt": 3661,
      "act": 3662,
      "1016": 3663,
      "rim": 3664,
      "2015": 3665,
      "Ġran": 3666,
      "ĠJerusalem": 3667,
      "ĠQueens": 3668,
      "Ġmight": 3669,
      "Ġgovernor": 3670,
      "aching": 3671,
      "ged": 3672,
      "ivity": 3673,
      "73": 3674,
      "Ġimper": 3675,
      "ĠLiber": 3676,
      "iers": 3677,
      "Ġusage": 3678,
      "Ġemotional": 3679,
      "unte": 3680,
      "ĠSpirit": 3681,
      "ĠRights": 3682,
      "imate": 3683,
      "Ġsqu": 3684,
      "Ġearliest": 3685,
      "Ġfood": 3686,
      "Ġhope": 3687,
      "anned": 3688,
      "Ġcollected": 3689,
      "ĠLord": 3690,
      "ĠWood": 3691,
      "ĠTex": 3692,
      "Ġthey": 3693,
      "acts": 3694,
      "ĠSee": 3695,
      "om": 3696,
      "Ġnegative": 3697,
      "Ġconsequ": 3698,
      "Ġvoc": 3699,
      "agan": 3700,
      "Ġestablished": 3701,
      "Ġemployment": 3702,
      "racy": 3703,
      "RO": 3704,
      "ules": 3705,
      "Ġcamp": 3706,
      "Ġauthority": 3707,
      "ĠJama": 3708,
      "Ġsituation": 3709,
      "ĠX": 3710,
      "Ġconstructed": 3711,
      "ĠâĨĴ": 3712,
      "ĠBav": 3713,
      "ĠDiv": 3714,
      "ĠTechnology": 3715,
      "BS": 3716,
      "Ġsuccess": 3717,
      "aily": 3718,
      "apers": 3719,
      "Ġcommit": 3720,
      "Ġavoid": 3721,
      "Ġshe": 3722,
      "Ġmeetings": 3723,
      "Ġarriv": 3724,
      "Ġvo": 3725,
      "ington": 3726,
      "Ġfulf": 3727,
      "National": 3728,
      "Ġexpression": 3729,
      "Ġresp": 3730,
      "ĠPress": 3731,
      "Ġdepend": 3732,
      "58": 3733,
      "RA": 3734,
      "Ġmedieval": 3735,
      "ability": 3736,
      "cycl": 3737,
      "rage": 3738,
      "j": 3739,
      "Ġfalse": 3740,
      "Ġ1974": 3741,
      "ĠEarth": 3742,
      "ĠDevelop": 3743,
      "ĠVirginia": 3744,
      "ederation": 3745,
      "rine": 3746,
      "Ġalliance": 3747,
      "Ġoffice": 3748,
      "Ġaccum": 3749,
      "Ïĥ": 3750,
      "ĠWashington": 3751,
      "Ġeverything": 3752,
      "war": 3753,
      "ĵ": 3754,
      "Ġdiv": 3755,
      "ĠPortugal": 3756,
      "ical": 3757,
      "2000": 3758,
      "Ġphase": 3759,
      "ĠIllinois": 3760,
      "Ġgas": 3761,
      "ĠParliament": 3762,
      "ĠCong": 3763,
      "ty": 3764,
      "Ġproviding": 3765,
      "ipp": 3766,
      "cell": 3767,
      "ĠGr": 3768,
      "Ġargues": 3769,
      "Ġmostly": 3770,
      "Ġcovered": 3771,
      "John": 3772,
      "ĠAm": 3773,
      "itor": 3774,
      "ĠOperation": 3775,
      "Ġremoved": 3776,
      "ĠBud": 3777,
      "aints": 3778,
      "ĠVol": 3779,
      "Ġ1848": 3780,
      "89": 3781,
      "gment": 3782,
      "Ġdependent": 3783,
      "Ġcirc": 3784,
      "Ġpasses": 3785,
      "ĠHeb": 3786,
      "org": 3787,
      "ash": 3788,
      "Ġinfection": 3789,
      "Ġsocial": 3790,
      "ĠFood": 3791,
      "Ġlove": 3792,
      "Ġtown": 3793,
      "ancial": 3794,
      "ĠSanta": 3795,
      "Ġwinter": 3796,
      "ĠCarol": 3797,
      "ĠCommand": 3798,
      "iana": 3799,
      "raine": 3800,
      "ç": 3801,
      "Ġ76": 3802,
      "ĠUkraine": 3803,
      "Ġevolved": 3804,
      "Ġchild": 3805,
      "ĠProvince": 3806,
      "ĠLatin": 3807,
      "Ġimm": 3808,
      "ĠMississipp": 3809,
      "ĠDown": 3810,
      "Ġtun": 3811,
      "Ġdiam": 3812,
      "ronic": 3813,
      "ala": 3814,
      "Ġacademic": 3815,
      "ĠArabic": 3816,
      "Ġdism": 3817,
      "ht": 3818,
      "Ġ48": 3819,
      "Ġstyle": 3820,
      "Ġfrequency": 3821,
      "Ġwriting": 3822,
      "ayer": 3823,
      "44": 3824,
      "qu": 3825,
      "ĠJean": 3826,
      "ĠDonald": 3827,
      "ĠVirgin": 3828,
      "Ġscen": 3829,
      "Ġnations": 3830,
      "Ġlingu": 3831,
      "aces": 3832,
      "Ġair": 3833,
      "Ġexistence": 3834,
      "ĠPublishers": 3835,
      "acles": 3836,
      "eters": 3837,
      "Ġcompetition": 3838,
      "ever": 3839,
      "Ġmargin": 3840,
      "Ġseparated": 3841,
      "Ġgal": 3842,
      "Ġpres": 3843,
      "ĠUnder": 3844,
      "Ġstra": 3845,
      "Ġinfer": 3846,
      "Ġconservation": 3847,
      "ĠCath": 3848,
      "ue": 3849,
      "Ġunf": 3850,
      "Ġcapacity": 3851,
      "Ġsport": 3852,
      "prison": 3853,
      "ous": 3854,
      "Ġidea": 3855,
      "Ġtesting": 3856,
      "Ġdefense": 3857,
      "Ġnatural": 3858,
      "ey": 3859,
      "ĠKir": 3860,
      "51": 3861,
      "reen": 3862,
      "Ġdamage": 3863,
      "Ġpreparation": 3864,
      "Ġindirect": 3865,
      "Ġsort": 3866,
      "st": 3867,
      "Ġdest": 3868,
      "Ġter": 3869,
      "orm": 3870,
      "OS": 3871,
      "restrial": 3872,
      "usion": 3873,
      "Ġscreen": 3874,
      "Ġ1937": 3875,
      "Ġadministration": 3876,
      "Ġspirit": 3877,
      "Ġshowed": 3878,
      "ĠLittle": 3879,
      "ĠOrganization": 3880,
      "Ġitself": 3881,
      "ĠOlympic": 3882,
      "ĠDan": 3883,
      "pt": 3884,
      "sel": 3885,
      "#": 3886,
      "Ġdescendants": 3887,
      "Ġgranted": 3888,
      "Ġcircle": 3889,
      "ulf": 3890,
      "Ġforce": 3891,
      "Ġerror": 3892,
      "Ġrepresented": 3893,
      "Ġintern": 3894,
      "Ç": 3895,
      "ĠTrust": 3896,
      "Ã¶": 3897,
      "ĠArthur": 3898,
      "Ġ2011": 3899,
      "aks": 3900,
      "Ġ178": 3901,
      "Ġunknown": 3902,
      "Ġhours": 3903,
      "Ġfinding": 3904,
      "Ġ1938": 3905,
      "ĠCop": 3906,
      "Ġobjects": 3907,
      "Ġder": 3908,
      "Ġphenomena": 3909,
      "selves": 3910,
      "ĠOver": 3911,
      "ennes": 3912,
      "heric": 3913,
      "Ġmanuscript": 3914,
      "Ġenc": 3915,
      "Ġhaz": 3916,
      "pper": 3917,
      "Ġverification": 3918,
      "Ŀ": 3919,
      "yond": 3920,
      "Ġzero": 3921,
      "ĠBack": 3922,
      "itect": 3923,
      "ĠGovernor": 3924,
      "Ġreading": 3925,
      "pass": 3926,
      "Ġmay": 3927,
      "end": 3928,
      "iterranean": 3929,
      "Ġconstitu": 3930,
      "car": 3931,
      "Ġdecor": 3932,
      "Ġradiation": 3933,
      "ĠOnce": 3934,
      "Ġpropag": 3935,
      "Ġinter": 3936,
      "ĠFam": 3937,
      "aders": 3938,
      "ĠLos": 3939,
      "ĠCan": 3940,
      "Ġspoke": 3941,
      "IN": 3942,
      "Ġresulting": 3943,
      "y": 3944,
      "Ġperceived": 3945,
      "Ġsy": 3946,
      "Ġrequire": 3947,
      "Ġreject": 3948,
      "Ġlines": 3949,
      "bal": 3950,
      "ĠLocal": 3951,
      "Ġregion": 3952,
      "Ġ201": 3953,
      "Ġimperial": 3954,
      "Ġá": 3955,
      "iling": 3956,
      "ĠCas": 3957,
      "May": 3958,
      "ĠBecause": 3959,
      "Ġvessels": 3960,
      "ĠYour": 3961,
      "Ġ1956": 3962,
      "ker": 3963,
      "ec": 3964,
      "Ġher": 3965,
      "ume": 3966,
      "oting": 3967,
      "Ġfung": 3968,
      "Ġcompl": 3969,
      "ĠMichel": 3970,
      "Ġcorresponding": 3971,
      "cel": 3972,
      "Ġtum": 3973,
      "ĠHans": 3974,
      "Ã©t": 3975,
      "based": 3976,
      "cons": 3977,
      "Ġattempted": 3978,
      "Ġfre": 3979,
      "Ġbehalf": 3980,
      "ustrated": 3981,
      "eth": 3982,
      "amilton": 3983,
      "ĠRoad": 3984,
      "ĠChildren": 3985,
      "istics": 3986,
      "il": 3987,
      "Ġfloor": 3988,
      "Ġprecip": 3989,
      "Ġclasses": 3990,
      "Eng": 3991,
      "Ù": 3992,
      "ĠTheir": 3993,
      "Ġmort": 3994,
      "Ġbill": 3995,
      "Ġlink": 3996,
      "Ġeach": 3997,
      "pectives": 3998,
      "Ġinfl": 3999,
      "Ġremote": 4000,
      "ans": 4001,
      ".[": 4002,
      "ĠArmy": 4003,
      "Ġsugg": 4004,
      "ĠSym": 4005,
      "Ġhands": 4006,
      "Ġdeveloping": 4007,
      "ifer": 4008,
      "Ġharm": 4009,
      "apping": 4010,
      "ĠRich": 4011,
      "ĠTurkey": 4012,
      "Ġpolic": 4013,
      "ulating": 4014,
      "ĠSet": 4015,
      "asters": 4016,
      "ĠNap": 4017,
      "Ġalcohol": 4018,
      "Ġhabitat": 4019,
      "ĠWilson": 4020,
      "ĠFe": 4021,
      "alf": 4022,
      "Ġresid": 4023,
      "1993": 4024,
      "verage": 4025,
      "Ġacknow": 4026,
      "ĠCentre": 4027,
      "Ġlearned": 4028,
      "94": 4029,
      "Ġmagazine": 4030,
      "Ġmedian": 4031,
      "Ġfuel": 4032,
      "Ġmainly": 4033,
      "Ġseats": 4034,
      "ĠEarl": 4035,
      "ĠMo": 4036,
      "Ġevident": 4037,
      "Ġabove": 4038,
      "Ġlet": 4039,
      "Ġland": 4040,
      "rolled": 4041,
      "tes": 4042,
      "charge": 4043,
      "71": 4044,
      "Ġplay": 4045,
      "othy": 4046,
      "Ġnuclear": 4047,
      "aton": 4048,
      "Ġloyal": 4049,
      "ï": 4050,
      "SR": 4051,
      "200": 4052,
      "áº": 4053,
      "Ġdescribed": 4054,
      "atal": 4055,
      "Ġservice": 4056,
      "omon": 4057,
      "Ġthin": 4058,
      "uity": 4059,
      "ĠBelg": 4060,
      "Ġholds": 4061,
      "ep": 4062,
      "Ġlic": 4063,
      "gers": 4064,
      "ĠAsia": 4065,
      "Ġdiscussed": 4066,
      "ahn": 4067,
      "uty": 4068,
      "arch": 4069,
      "Ġph": 4070,
      "rete": 4071,
      "Ġblue": 4072,
      "ĠN": 4073,
      "ĠEnvironmental": 4074,
      "Ġoccurring": 4075,
      "rows": 4076,
      "ales": 4077,
      "ĠGeneral": 4078,
      "ĠFrom": 4079,
      "ĠGold": 4080,
      "Ġreligious": 4081,
      "yal": 4082,
      "ria": 4083,
      "ĠHit": 4084,
      "elf": 4085,
      "Ġlargest": 4086,
      "Ġextract": 4087,
      "Ġ101": 4088,
      "Ġreceive": 4089,
      "Ġvel": 4090,
      "Ġlinear": 4091,
      "Ġwoman": 4092,
      "Ġment": 4093,
      "Ġspace": 4094,
      "ugust": 4095,
      "arliament": 4096,
      "ĠLook": 4097,
      "Ġwent": 4098,
      "ĠTwo": 4099,
      "Ġordinary": 4100,
      "ĠSite": 4101,
      "ĠOtt": 4102,
      "ry": 4103,
      "ounced": 4104,
      "lical": 4105,
      "Ġpaid": 4106,
      "Ġaward": 4107,
      "state": 4108,
      "ĠReligion": 4109,
      "Ġinfrastructure": 4110,
      "Ġtaken": 4111,
      "Ġconsum": 4112,
      "Ġre": 4113,
      "ĠFore": 4114,
      "ena": 4115,
      "39": 4116,
      "aine": 4117,
      "ĠBall": 4118,
      "Ġimprovement": 4119,
      "roup": 4120,
      "ram": 4121,
      "ĠRegister": 4122,
      "Ġpi": 4123,
      "ĠFoot": 4124,
      "Ġback": 4125,
      "ĠLtd": 4126,
      "ĠGener": 4127,
      "ð": 4128,
      "Ġnoise": 4129,
      "Ġtree": 4130,
      "lu": 4131,
      "Ġ2010": 4132,
      "Ġhundreds": 4133,
      "Ġhad": 4134,
      "Ġvers": 4135,
      "ion": 4136,
      "Ġformerly": 4137,
      "Ġdiscussion": 4138,
      "Ġbillion": 4139,
      "t": 4140,
      "Ġcart": 4141,
      "Ġinternational": 4142,
      "Ġcancer": 4143,
      "ĠProgram": 4144,
      "ĠStat": 4145,
      "ĠOs": 4146,
      "ED": 4147,
      "Ġexp": 4148,
      "enue": 4149,
      "umin": 4150,
      "han": 4151,
      "ĠBan": 4152,
      "Ġmonaster": 4153,
      "Ġcompar": 4154,
      "ethod": 4155,
      "Ġdis": 4156,
      "Ġprincipal": 4157,
      "armac": 4158,
      "ĠArm": 4159,
      "Ġexplain": 4160,
      "Ġ1962": 4161,
      "Ġtube": 4162,
      "arth": 4163,
      "ĠHay": 4164,
      "acter": 4165,
      "rieved": 4166,
      "Ġfrequ": 4167,
      "An": 4168,
      "Ġmissions": 4169,
      "Ġeth": 4170,
      "ĠDyn": 4171,
      "Ġmatters": 4172,
      "ĥ": 4173,
      "rell": 4174,
      "Ġbet": 4175,
      "Ġrif": 4176,
      "Ġworth": 4177,
      "Ġisolated": 4178,
      "ĠNuclear": 4179,
      "Ġtanks": 4180,
      "ĠOklahoma": 4181,
      "aneous": 4182,
      "110": 4183,
      "Ġpump": 4184,
      "onian": 4185,
      "rote": 4186,
      "Ġclassification": 4187,
      "Ġoccasionally": 4188,
      "Ġif": 4189,
      "Ġadvance": 4190,
      "1007": 4191,
      "ĠExpl": 4192,
      "FC": 4193,
      "Ġmoney": 4194,
      "Ġstarting": 4195,
      "oples": 4196,
      "Ġdispute": 4197,
      "AD": 4198,
      "Ġsur": 4199,
      "riv": 4200,
      "Ġatomic": 4201,
      "Ġstreet": 4202,
      "Ġresemb": 4203,
      "Ġadjacent": 4204,
      "Ġ[": 4205,
      "ĠPhilosophy": 4206,
      "iny": 4207,
      "ocal": 4208,
      ").": 4209,
      "Ġsuccessfully": 4210,
      "acks": 4211,
      "43": 4212,
      "Ġcoastal": 4213,
      "Ġ;": 4214,
      "orous": 4215,
      "ĠChurchill": 4216,
      "Ġbranches": 4217,
      "Ġconditions": 4218,
      "riage": 4219,
      "Ġelsewhere": 4220,
      "Ġ*": 4221,
      "Ġdeliver": 4222,
      "Ġdecisions": 4223,
      "overn": 4224,
      "Ġcle": 4225,
      "Ġsingle": 4226,
      "ĠPenns": 4227,
      "Ġbreat": 4228,
      "Ġclock": 4229,
      "Ġbegin": 4230,
      "dom": 4231,
      "ind": 4232,
      "Ġ2007": 4233,
      "Ġhigher": 4234,
      "ĠISSN": 4235,
      "Ġcourse": 4236,
      "Ġrival": 4237,
      "ink": 4238,
      "Ġsepar": 4239,
      "ifications": 4240,
      "Ġidentification": 4241,
      "Ġprote": 4242,
      "ËĪ": 4243,
      "aration": 4244,
      "Ġrenamed": 4245,
      "Â°": 4246,
      "ĠDougl": 4247,
      "ĠPoint": 4248,
      "Ġmuseum": 4249,
      "ance": 4250,
      "ĠCongress": 4251,
      "amin": 4252,
      "ino": 4253,
      "Ġcompanies": 4254,
      "bell": 4255,
      "Ġtelevision": 4256,
      "ĠDirect": 4257,
      "ĠBrother": 4258,
      "Ġelev": 4259,
      "Ġcausing": 4260,
      "ĠNovember": 4261,
      "bed": 4262,
      "teb": 4263,
      "ĠâĢĺ": 4264,
      "Ġhot": 4265,
      "Ġwater": 4266,
      "Ġexperiments": 4267,
      "Ġ1992": 4268,
      "Ġ45": 4269,
      "ĠBand": 4270,
      "eless": 4271,
      "Ġmiss": 4272,
      "ĠPopulation": 4273,
      "Ġ198": 4274,
      "ĠParty": 4275,
      "een": 4276,
      "ww": 4277,
      "Ġroll": 4278,
      "ĠMuseum": 4279,
      "1945": 4280,
      "Ġpreferred": 4281,
      "Ġaccount": 4282,
      "owed": 4283,
      "do": 4284,
      "Ġparticular": 4285,
      "uters": 4286,
      "67": 4287,
      "Ġmillion": 4288,
      "ying": 4289,
      "one": 4290,
      "Ġ114": 4291,
      "Ġcopies": 4292,
      "olution": 4293,
      "ĠDespite": 4294,
      "Ġsil": 4295,
      "Ġorb": 4296,
      "Ġdise": 4297,
      "ĠComputer": 4298,
      "Ġauthors": 4299,
      "Ġissue": 4300,
      "Ġdra": 4301,
      "osophy": 4302,
      "Ġsupported": 4303,
      "utes": 4304,
      "Ġforth": 4305,
      "thlet": 4306,
      "ĠLords": 4307,
      "eor": 4308,
      "Ġequipment": 4309,
      "Ġet": 4310,
      "Î±": 4311,
      "Ġdirected": 4312,
      "Ġwhile": 4313,
      "ali": 4314,
      ",\"": 4315,
      "Ġvehicle": 4316,
      "Ġabandon": 4317,
      "ission": 4318,
      "Ġlive": 4319,
      "ublic": 4320,
      "Qu": 4321,
      "ĠMD": 4322,
      "ĠCity": 4323,
      "ario": 4324,
      "Ġnoun": 4325,
      "Ġnow": 4326,
      "ross": 4327,
      "Ġinit": 4328,
      "asm": 4329,
      "See": 4330,
      "Ġculture": 4331,
      "Ġeventually": 4332,
      "vis": 4333,
      "ĠâĨ": 4334,
      "ĠVen": 4335,
      "Ġprepared": 4336,
      "ĠEst": 4337,
      "Ġphenomen": 4338,
      "ĠOpen": 4339,
      "ģ": 4340,
      "Ġnearly": 4341,
      "Ġdirect": 4342,
      "lag": 4343,
      "âĢĶ": 4344,
      "cient": 4345,
      "aking": 4346,
      "Ġdies": 4347,
      "ii": 4348,
      "Ġsupposed": 4349,
      "rid": 4350,
      "Ġvac": 4351,
      "ux": 4352,
      "ĠBr": 4353,
      "cules": 4354,
      "ĠEarly": 4355,
      "Ġlegend": 4356,
      "ĠBoy": 4357,
      "Ġeffective": 4358,
      "ement": 4359,
      "abul": 4360,
      "ĠOS": 4361,
      "Ġstation": 4362,
      "part": 4363,
      "Ġidentify": 4364,
      "ĠForce": 4365,
      "Ġsacrif": 4366,
      "Ġlinks": 4367,
      "ogy": 4368,
      "ĠIran": 4369,
      "Ġrelated": 4370,
      "ĠPro": 4371,
      "cule": 4372,
      "00": 4373,
      "ĠHand": 4374,
      "ĠCharles": 4375,
      "ĠChar": 4376,
      "mun": 4377,
      "Ġbinding": 4378,
      "Ġconnected": 4379,
      "Ġtransferred": 4380,
      "asure": 4381,
      "Ġcorrespond": 4382,
      "Ġdedicated": 4383,
      "Ġring": 4384,
      "ĠOpp": 4385,
      "fficient": 4386,
      "ĠAffairs": 4387,
      "ËĲ": 4388,
      "arma": 4389,
      "ĠBalt": 4390,
      "onst": 4391,
      "Ġhelped": 4392,
      "TC": 4393,
      "Ġwriters": 4394,
      "Ġopened": 4395,
      "'.": 4396,
      "Ġhydro": 4397,
      "Ġtypical": 4398,
      "osure": 4399,
      "ework": 4400,
      "Ġonly": 4401,
      "Ġearly": 4402,
      "Ġcontroll": 4403,
      "aired": 4404,
      "Ġ1946": 4405,
      "Ġclub": 4406,
      "69": 4407,
      "Ġremark": 4408,
      "IM": 4409,
      "olas": 4410,
      "âĢĻ": 4411,
      "Ġutil": 4412,
      "Ġbehav": 4413,
      "Ġlevel": 4414,
      "Ġdance": 4415,
      "oration": 4416,
      "keley": 4417,
      "Ġreve": 4418,
      "ĠSpr": 4419,
      "Ġrepresenting": 4420,
      "Ġturned": 4421,
      "Ġsect": 4422,
      "illery": 4423,
      "ĠSab": 4424,
      "Ġbenefit": 4425,
      "Ġaffected": 4426,
      "ĠChicago": 4427,
      "ube": 4428,
      "Ġ1861": 4429,
      "Ġexperiment": 4430,
      "zing": 4431,
      "Ġacid": 4432,
      "ni": 4433,
      "Ġpages": 4434,
      "orter": 4435,
      "ĠHugh": 4436,
      "lement": 4437,
      "vention": 4438,
      "ĠSc": 4439,
      "ĠMedical": 4440,
      "Ġexist": 4441,
      "ain": 4442,
      "osition": 4443,
      "enger": 4444,
      "ĠAdmiral": 4445,
      "rence": 4446,
      "ota": 4447,
      "ica": 4448,
      "Ġlaunched": 4449,
      "Ġenab": 4450,
      "ĠShe": 4451,
      "Ġint": 4452,
      "Ġmar": 4453,
      "Ġstre": 4454,
      "__": 4455,
      "je": 4456,
      "wan": 4457,
      "Ġdeath": 4458,
      "Ġlar": 4459,
      "l": 4460,
      "ĠHam": 4461,
      "iser": 4462,
      "rong": 4463,
      "Ġjust": 4464,
      "cept": 4465,
      "Ġrelationship": 4466,
      "Ġindigenous": 4467,
      "Ġhybrid": 4468,
      "Î¼": 4469,
      "Ġtransmission": 4470,
      "Ġstorm": 4471,
      "iter": 4472,
      "Ġapprov": 4473,
      "ache": 4474,
      "Ġkm": 4475,
      "Ġserious": 4476,
      "isdom": 4477,
      "ĠCit": 4478,
      "Ġthings": 4479,
      "una": 4480,
      "brid": 4481,
      "ĠNether": 4482,
      "acial": 4483,
      "Ġpers": 4484,
      "Ġphysical": 4485,
      "iscons": 4486,
      "ĠInstitution": 4487,
      "ĠRuss": 4488,
      "such": 4489,
      "Ġbreak": 4490,
      "Se": 4491,
      "asty": 4492,
      "Ġfly": 4493,
      "pped": 4494,
      "ische": 4495,
      "ca": 4496,
      "ly": 4497,
      "iger": 4498,
      "Ġtemporary": 4499,
      "Ġtry": 4500,
      "arg": 4501,
      "Ġimmun": 4502,
      "Ġwithout": 4503,
      "rict": 4504,
      "Ġteachers": 4505,
      "isher": 4506,
      "Ġtemperatures": 4507,
      "ĠBib": 4508,
      "ĠJust": 4509,
      "Ġcouple": 4510,
      "Ġbur": 4511,
      "72": 4512,
      "Ġcustom": 4513,
      "Ġkilometres": 4514,
      "Ġeither": 4515,
      "Ġreceiving": 4516,
      "Ġpassage": 4517,
      "Ġsurrounded": 4518,
      "ĠDal": 4519,
      "Ġproteins": 4520,
      "iro": 4521,
      "ĠJames": 4522,
      "Ġsurviving": 4523,
      "oids": 4524,
      "ĠGro": 4525,
      "apan": 4526,
      "ĠIndepend": 4527,
      "ĠWhite": 4528,
      "iological": 4529,
      "vo": 4530,
      "Ġdiameter": 4531,
      "Ġappropriate": 4532,
      "ĠLaws": 4533,
      "Ġmuch": 4534,
      "ails": 4535,
      "Ġesc": 4536,
      "í": 4537,
      "Ġancient": 4538,
      "Ġsentence": 4539,
      "ĠTown": 4540,
      "ancing": 4541,
      "sub": 4542,
      "Ġcertain": 4543,
      "ĠMachine": 4544,
      "obile": 4545,
      "Ġconstruct": 4546,
      "Ġvarieties": 4547,
      "ĠIr": 4548,
      "Ġwild": 4549,
      "ogn": 4550,
      "irc": 4551,
      "Ġbut": 4552,
      "Ġdistinguish": 4553,
      "ĠJones": 4554,
      "Ġgrowing": 4555,
      "Ġarm": 4556,
      "ĠCorn": 4557,
      "Ġ:": 4558,
      "ĠTit": 4559,
      "ng": 4560,
      "Å": 4561,
      "ban": 4562,
      "cc": 4563,
      "stitutions": 4564,
      "ho": 4565,
      "Ġcorn": 4566,
      "raining": 4567,
      "Ġdisturb": 4568,
      "elfare": 4569,
      "iles": 4570,
      "ĠTHE": 4571,
      "ĠProfessor": 4572,
      "Ġsharp": 4573,
      "Ġmicro": 4574,
      "Ġopp": 4575,
      "Ġsurvey": 4576,
      "Pl": 4577,
      "rowing": 4578,
      "ĠSound": 4579,
      "estic": 4580,
      "Ġvariety": 4581,
      "Ġincreasingly": 4582,
      "ae": 4583,
      "ĠL": 4584,
      "Ġfishing": 4585,
      "iley": 4586,
      "Ġmiddle": 4587,
      "Ge": 4588,
      "imedia": 4589,
      "atters": 4590,
      "Ġfurther": 4591,
      "Ġrational": 4592,
      "Ġimplemented": 4593,
      "Ġagreed": 4594,
      "ideo": 4595,
      "ĠSub": 4596,
      "form": 4597,
      "Ġnet": 4598,
      "Ġarchae": 4599,
      "Ġdepends": 4600,
      "Ġ42": 4601,
      "Ġsatisf": 4602,
      "Ġbud": 4603,
      "icine": 4604,
      "S": 4605,
      "K": 4606,
      "Ġrandom": 4607,
      "ictions": 4608,
      "aining": 4609,
      "ploy": 4610,
      "Ġcommun": 4611,
      "ĠAuthor": 4612,
      "roscop": 4613,
      "Ġcognitive": 4614,
      "Ġ40": 4615,
      "Ð½": 4616,
      "ĠLearning": 4617,
      "ved": 4618,
      "Ġsold": 4619,
      "Ġcarry": 4620,
      "Ġille": 4621,
      "Ġevents": 4622,
      "gen": 4623,
      "//": 4624,
      "ots": 4625,
      "Ġdes": 4626,
      "Ġcommonly": 4627,
      "ĠFa": 4628,
      "Ġdoor": 4629,
      "owski": 4630,
      "ĠNor": 4631,
      "idal": 4632,
      "Ġstates": 4633,
      "ĠDemocratic": 4634,
      "Ġchain": 4635,
      "Ġaf": 4636,
      "oin": 4637,
      "Ġsea": 4638,
      "ĠVichy": 4639,
      "Ġweap": 4640,
      "Ġra": 4641,
      "gy": 4642,
      "ĠCommons": 4643,
      "Ġentry": 4644,
      "Ġvisual": 4645,
      "Ġdivers": 4646,
      "w": 4647,
      "action": 4648,
      "Ġreb": 4649,
      "Ġpredict": 4650,
      "ĠArea": 4651,
      "alin": 4652,
      "Ġspoken": 4653,
      "iva": 4654,
      "stem": 4655,
      "ĠSlav": 4656,
      "Ġchapter": 4657,
      "asury": 4658,
      "oy": 4659,
      "iting": 4660,
      "code": 4661,
      "Ġalong": 4662,
      "ire": 4663,
      "rehensive": 4664,
      "ĠCastle": 4665,
      "78": 4666,
      "Ġrestrictions": 4667,
      "Ïģ": 4668,
      "Ġaccording": 4669,
      "ĠBow": 4670,
      "itz": 4671,
      "Ġminimum": 4672,
      "ĠDemocr": 4673,
      "Ġpatients": 4674,
      "ĠWilliam": 4675,
      "Ġmouth": 4676,
      "Ġis": 4677,
      "ĠMajor": 4678,
      "Ġappear": 4679,
      "Ġinterested": 4680,
      "ĠGulf": 4681,
      "Ġsat": 4682,
      "ults": 4683,
      "Ġbuy": 4684,
      "uras": 4685,
      "andom": 4686,
      "ĠIndependent": 4687,
      "Ġstart": 4688,
      "ĠTest": 4689,
      "Ġmerch": 4690,
      "Ġnest": 4691,
      "Ġincor": 4692,
      "ĠFebruary": 4693,
      "arent": 4694,
      "ĠAle": 4695,
      "ÏĢ": 4696,
      "ift": 4697,
      "Ġsw": 4698,
      "Ġguide": 4699,
      "ĠSpain": 4700,
      "ĠThis": 4701,
      "Ġweapon": 4702,
      "ĠRoman": 4703,
      "Ġmain": 4704,
      "Ġneigh": 4705,
      "Ġlast": 4706,
      "Ġprin": 4707,
      "burn": 4708,
      "Ġbran": 4709,
      "stract": 4710,
      "ĠPl": 4711,
      "and": 4712,
      "Ġgeomet": 4713,
      "Ġpolit": 4714,
      "Ġalso": 4715,
      "agen": 4716,
      "Ġreplace": 4717,
      "sex": 4718,
      "Ġdevoted": 4719,
      "ĠOrthodox": 4720,
      "://": 4721,
      "Ġnews": 4722,
      "Ġcontrolled": 4723,
      "Ġjustice": 4724,
      "Ġshow": 4725,
      "ieuten": 4726,
      "Ġdiver": 4727,
      "iod": 4728,
      "Ġkept": 4729,
      "eting": 4730,
      "elled": 4731,
      "ret": 4732,
      "eds": 4733,
      "06": 4734,
      "Ġkeep": 4735,
      "Ġindic": 4736,
      "ĠBer": 4737,
      "hr": 4738,
      "Ġsuggests": 4739,
      "km": 4740,
      "Ġemb": 4741,
      "ĠMoore": 4742,
      "ended": 4743,
      "Ġ2019": 4744,
      "Ġsquare": 4745,
      "Ġmyst": 4746,
      "indu": 4747,
      "Ġtor": 4748,
      "elligence": 4749,
      "ĠSwed": 4750,
      "Ġcon": 4751,
      "ves": 4752,
      "Ġleft": 4753,
      "Ġassemb": 4754,
      "ĠSherman": 4755,
      "Ġhighly": 4756,
      "ville": 4757,
      "cia": 4758,
      "ography": 4759,
      "enge": 4760,
      "Ġcount": 4761,
      "anda": 4762,
      "04": 4763,
      "Ġexperimental": 4764,
      "Ġfight": 4765,
      "ided": 4766,
      "clesiast": 4767,
      ">": 4768,
      "Ġ8": 4769,
      "Ġlake": 4770,
      "adem": 4771,
      "Ġempt": 4772,
      "ĠHas": 4773,
      "48": 4774,
      "ren": 4775,
      "Ġ1972": 4776,
      "Ġspent": 4777,
      "Ġ99": 4778,
      "Ġsecurity": 4779,
      "Ġthor": 4780,
      "xt": 4781,
      "Ġconne": 4782,
      "reek": 4783,
      "rief": 4784,
      "Ġ1921": 4785,
      ")\".": 4786,
      "Ġpool": 4787,
      "Ġcompared": 4788,
      "ember": 4789,
      "se": 4790,
      "Ġmaintain": 4791,
      "ĠBened": 4792,
      "ĠVar": 4793,
      "Ġtopic": 4794,
      "rier": 4795,
      "Ġemergency": 4796,
      "Ġbom": 4797,
      "12": 4798,
      "za": 4799,
      "ĠSu": 4800,
      "ĠTotal": 4801,
      "ĠLine": 4802,
      "ĠCalifornia": 4803,
      "ent": 4804,
      "emic": 4805,
      "Ġconnect": 4806,
      "Ġenvironment": 4807,
      "ĠFred": 4808,
      "ygen": 4809,
      "ila": 4810,
      "ĠSa": 4811,
      "ĠAlexand": 4812,
      "ĠUsing": 4813,
      "Ġ1966": 4814,
      "ingly": 4815,
      "Ġattempt": 4816,
      "Ġhere": 4817,
      "ĠAssembly": 4818,
      "Ġstudies": 4819,
      "Ġlocated": 4820,
      "ibilities": 4821,
      "ski": 4822,
      "iler": 4823,
      "Ġyet": 4824,
      "Ġolder": 4825,
      "Ġradar": 4826,
      "Ġaccident": 4827,
      "Ġcr": 4828,
      "gency": 4829,
      "Ġcommemor": 4830,
      "Ġbody": 4831,
      "lying": 4832,
      "ĠTheory": 4833,
      "rices": 4834,
      "if": 4835,
      "ym": 4836,
      "Ġprobability": 4837,
      "Ġmeasures": 4838,
      "ĠDu": 4839,
      "site": 4840,
      "ãģ": 4841,
      "ĠDise": 4842,
      "rol": 4843,
      "³": 4844,
      "Ġeggs": 4845,
      "Ġgroups": 4846,
      "amples": 4847,
      "alls": 4848,
      "PC": 4849,
      "Ġways": 4850,
      "ĠDisc": 4851,
      "lege": 4852,
      "Ġresist": 4853,
      "Ġcrew": 4854,
      "emor": 4855,
      "Ġobtained": 4856,
      "Ġcomes": 4857,
      "ĠFriedrich": 4858,
      "Ġ35": 4859,
      "Ġsk": 4860,
      "Ġtechnologies": 4861,
      "Ġexpensive": 4862,
      "Ġban": 4863,
      "ract": 4864,
      "ricted": 4865,
      "Ġaccomp": 4866,
      "ĠMess": 4867,
      "Ġcrisis": 4868,
      "Ġextra": 4869,
      "ĠGl": 4870,
      "Ġhigh": 4871,
      "os": 4872,
      "ĠEmpire": 4873,
      "Ġjurisd": 4874,
      "ĠSuper": 4875,
      "Ġ197": 4876,
      "Ġsignificantly": 4877,
      "iol": 4878,
      "ashington": 4879,
      "ĠOh": 4880,
      "ĠVietnam": 4881,
      "Ġknew": 4882,
      "ĠLawrence": 4883,
      "ting": 4884,
      "?": 4885,
      "ĠGal": 4886,
      "omot": 4887,
      "rab": 4888,
      "Ġhem": 4889,
      "note": 4890,
      "ĠEnglish": 4891,
      "Ġseeds": 4892,
      "Ġ1936": 4893,
      "olm": 4894,
      "Ġfriends": 4895,
      "Ġ1963": 4896,
      "Ġvirt": 4897,
      "oun": 4898,
      "aga": 4899,
      "Ġuniversal": 4900,
      "ids": 4901,
      "Ġrecorded": 4902,
      "Ġeyes": 4903,
      "ched": 4904,
      "ĠVII": 4905,
      "ĠKim": 4906,
      "Ġtrading": 4907,
      "enses": 4908,
      "^": 4909,
      "Ġequ": 4910,
      "Ġadvert": 4911,
      "Ġinform": 4912,
      "ĠGard": 4913,
      "ĠRa": 4914,
      "ĠRome": 4915,
      "Ġeld": 4916,
      "ĠExp": 4917,
      "N": 4918,
      "Ġgro": 4919,
      "ĠMun": 4920,
      "Ġdriven": 4921,
      "Ġpromoted": 4922,
      "utions": 4923,
      "Ġem": 4924,
      "rop": 4925,
      "Ġfunctions": 4926,
      "ĠOur": 4927,
      "ps": 4928,
      "lav": 4929,
      "ĠPed": 4930,
      "pping": 4931,
      "Ġlb": 4932,
      "2013": 4933,
      "Ġconstant": 4934,
      "ori": 4935,
      "ĠCarter": 4936,
      "Ġsignals": 4937,
      "Ġchron": 4938,
      "Ġrot": 4939,
      "ĠAugust": 4940,
      "add": 4941,
      "ifferent": 4942,
      "Ġc": 4943,
      "ost": 4944,
      "ĠVir": 4945,
      "not": 4946,
      "Ġknowledge": 4947,
      "Ġsyn": 4948,
      "Ġmag": 4949,
      "Ġhow": 4950,
      "inet": 4951,
      "ĠValley": 4952,
      "Ġcasualties": 4953,
      "Ġbacteria": 4954,
      "nce": 4955,
      "evelop": 4956,
      "tained": 4957,
      "ibrary": 4958,
      "ĠSpanish": 4959,
      "Ġreduced": 4960,
      "ĠAri": 4961,
      "outs": 4962,
      "ology": 4963,
      "ĠCharl": 4964,
      "Ġvariations": 4965,
      "date": 4966,
      "Ġcars": 4967,
      "Ġsave": 4968,
      "igan": 4969,
      "Ġdisease": 4970,
      "Ġdom": 4971,
      "Ġable": 4972,
      "cript": 4973,
      "Ġtraffic": 4974,
      "Ġotherwise": 4975,
      "iment": 4976,
      "ĠWith": 4977,
      "Ġexha": 4978,
      "pet": 4979,
      "Ġcommunication": 4980,
      "des": 4981,
      "Ġcandid": 4982,
      "fore": 4983,
      "ef": 4984,
      "ĠPract": 4985,
      "Ġcircum": 4986,
      "Ġnational": 4987,
      "ards": 4988,
      "Ġpractical": 4989,
      "Ġlands": 4990,
      "atus": 4991,
      "ĠGe": 4992,
      "Ġtrav": 4993,
      "old": 4994,
      "ĠMac": 4995,
      "Ġmin": 4996,
      "Ġpopularity": 4997,
      "ĠMaria": 4998,
      "Ġlibrary": 4999,
      "ĠUl": 5000,
      "okes": 5001,
      "arm": 5002,
      "Ġ34": 5003,
      "agement": 5004,
      "Ġgrav": 5005,
      "Ġblack": 5006,
      "hem": 5007,
      "ĠSix": 5008,
      "ĠAround": 5009,
      "ĠAnderson": 5010,
      "ĠPrime": 5011,
      "Ġcovering": 5012,
      "Ġ53": 5013,
      "ĠTurn": 5014,
      "Ġcenter": 5015,
      "Ġbest": 5016,
      "Ġ130": 5017,
      "isa": 5018,
      "Ġmeasurement": 5019,
      "itted": 5020,
      "asons": 5021,
      "ports": 5022,
      "aria": 5023,
      "Ġdeg": 5024,
      "ĠThe": 5025,
      "Ġ1982": 5026,
      "utation": 5027,
      "alk": 5028,
      "Ġconference": 5029,
      "Ġbes": 5030,
      "wa": 5031,
      "Ġclearly": 5032,
      "ighter": 5033,
      "uck": 5034,
      "Ġbridge": 5035,
      "Ġsimply": 5036,
      "Ġended": 5037,
      "Ġorganisms": 5038,
      "key": 5039,
      "Ġdid": 5040,
      "wh": 5041,
      "ĠDa": 5042,
      "bers": 5043,
      "ad": 5044,
      "ĠMexico": 5045,
      "Ġ1999": 5046,
      "Ġpron": 5047,
      "Ġmy": 5048,
      "Ġuntil": 5049,
      "Ġcrit": 5050,
      "Ġforeign": 5051,
      "Ġadvant": 5052,
      "Ġdeposits": 5053,
      "Ġprotest": 5054,
      "ĠNeg": 5055,
      "active": 5056,
      "Ġle": 5057,
      "ĠChristianity": 5058,
      "ĠBarb": 5059,
      "itic": 5060,
      "ĠBoth": 5061,
      "ĠApple": 5062,
      "Ġcastle": 5063,
      "agle": 5064,
      "ĠArchae": 5065,
      "Ġmarked": 5066,
      "Ġchar": 5067,
      "Ġborn": 5068,
      "Ġthese": 5069,
      "ĠTransport": 5070,
      "Ġreal": 5071,
      "53": 5072,
      "uin": 5073,
      "lets": 5074,
      "ĠBang": 5075,
      "Ġalmost": 5076,
      "Ġft": 5077,
      "ĠConfeder": 5078,
      "Ġsubst": 5079,
      "ĠLl": 5080,
      "ower": 5081,
      "Ġboy": 5082,
      "iversity": 5083,
      "Ġcomb": 5084,
      "Ġmand": 5085,
      "Ġmajority": 5086,
      "Pro": 5087,
      "Ġsource": 5088,
      "rish": 5089,
      "ML": 5090,
      "rd": 5091,
      "ĠCarib": 5092,
      "Ġcolon": 5093,
      "Ġ81": 5094,
      "ceedings": 5095,
      "ado": 5096,
      "ĠBurg": 5097,
      "pson": 5098,
      "ern": 5099,
      "anes": 5100,
      "Ġaccepted": 5101,
      "Ġgrown": 5102,
      "Ġstudents": 5103,
      "Ġhuman": 5104,
      "ĠJane": 5105,
      "Ġhaving": 5106,
      "Ġrelief": 5107,
      "rown": 5108,
      "ana": 5109,
      "def": 5110,
      "Ġtur": 5111,
      "Ġfield": 5112,
      "flu": 5113,
      "Ġpaintings": 5114,
      "Ġfit": 5115,
      "Ġfig": 5116,
      "ĠOp": 5117,
      "oust": 5118,
      "ĠMy": 5119,
      "¥": 5120,
      "Ġstar": 5121,
      "ensis": 5122,
      "ze": 5123,
      "Ġfifty": 5124,
      "ve": 5125,
      "oys": 5126,
      "ĠSeptember": 5127,
      "urg": 5128,
      "Ġlimited": 5129,
      "Ġ^": 5130,
      "Ġexcess": 5131,
      "Ġgreater": 5132,
      "Ġver": 5133,
      "Ġmodel": 5134,
      "Ġepis": 5135,
      "ĠArch": 5136,
      "Ġgoals": 5137,
      "ites": 5138,
      "vironments": 5139,
      "Ġbed": 5140,
      "ĠSS": 5141,
      "Ġseven": 5142,
      "Ġprison": 5143,
      "Ġ1955": 5144,
      "Ġ1958": 5145,
      "Ġconqu": 5146,
      "Ġ1943": 5147,
      "ĠOhio": 5148,
      "ong": 5149,
      "asion": 5150,
      "Ġaid": 5151,
      "erted": 5152,
      "ĠIS": 5153,
      "insula": 5154,
      "ĠJose": 5155,
      "ĠThrough": 5156,
      "Ġseem": 5157,
      "reg": 5158,
      "ĠMexican": 5159,
      "Ġexplan": 5160,
      "acon": 5161,
      "Ġsatis": 5162,
      "Ġsuggest": 5163,
      "Ġoperate": 5164,
      "Ġelectronic": 5165,
      "Ġterm": 5166,
      "Ġfeatured": 5167,
      "atab": 5168,
      "resp": 5169,
      "ollow": 5170,
      "Ġconsequence": 5171,
      "ational": 5172,
      "bean": 5173,
      "Ġrecords": 5174,
      "Ġclaims": 5175,
      "Ġtypes": 5176,
      "Ġunion": 5177,
      "Ġtend": 5178,
      "Ġprovides": 5179,
      "Ġlearn": 5180,
      "Ġarms": 5181,
      "Ġsymbol": 5182,
      "Äģ": 5183,
      "ervation": 5184,
      "ilities": 5185,
      "aniel": 5186,
      "ĠChief": 5187,
      "Ġnorthern": 5188,
      "ians": 5189,
      "Ġloop": 5190,
      "Ġrates": 5191,
      "Ġbehavior": 5192,
      "Ġmotor": 5193,
      "Ġhal": 5194,
      "aught": 5195,
      "ann": 5196,
      "Ġobservations": 5197,
      "Ġworkers": 5198,
      "Ġorient": 5199,
      "Ġbegins": 5200,
      "Ġ1910": 5201,
      "ĠArn": 5202,
      "ĠProte": 5203,
      "ĠNazi": 5204,
      "Ġbatter": 5205,
      "ĠPoland": 5206,
      "Ġconversion": 5207,
      "Ġimpact": 5208,
      "New": 5209,
      "Ġaway": 5210,
      "ired": 5211,
      "Ġperform": 5212,
      "Ġseek": 5213,
      "Ġoldest": 5214,
      "Ġmeans": 5215,
      "ously": 5216,
      "orses": 5217,
      "uable": 5218,
      "Ġ4": 5219,
      "Ġpure": 5220,
      "R": 5221,
      "Ġchemistry": 5222,
      "cast": 5223,
      "acters": 5224,
      "ĠWestern": 5225,
      "Ġremember": 5226,
      "ĠCall": 5227,
      "evel": 5228,
      "ishops": 5229,
      "Ġprivile": 5230,
      "Ġargued": 5231,
      "im": 5232,
      "ĠDev": 5233,
      "2003": 5234,
      "700": 5235,
      "Ġpitch": 5236,
      "Ġstop": 5237,
      "alm": 5238,
      "Ġearth": 5239,
      "Ġreferred": 5240,
      "Ġenemy": 5241,
      "Ġstock": 5242,
      "Ġtail": 5243,
      "oyal": 5244,
      "Ġpossible": 5245,
      "Ġ1954": 5246,
      "inger": 5247,
      "ĠMaj": 5248,
      "Ġintended": 5249,
      "rison": 5250,
      "Ġ58": 5251,
      "Ġexternal": 5252,
      "Ġwhe": 5253,
      "Ġjoint": 5254,
      "¬": 5255,
      "ctober": 5256,
      "Ġfrequently": 5257,
      "osal": 5258,
      "Ġwrites": 5259,
      "4": 5260,
      "khaz": 5261,
      "see": 5262,
      "Ġcommitted": 5263,
      "ĠInt": 5264,
      "ĠEar": 5265,
      "Ġbeen": 5266,
      "Ġmovements": 5267,
      "Ġadv": 5268,
      "ĠThird": 5269,
      "Ġbeautiful": 5270,
      "Ġpainting": 5271,
      "omer": 5272,
      "road": 5273,
      "Ġjud": 5274,
      "Ġartists": 5275,
      "ĠTun": 5276,
      "osp": 5277,
      "ĠAv": 5278,
      "lem": 5279,
      "Ġimmediate": 5280,
      "Ġsame": 5281,
      "Ġdifference": 5282,
      "lands": 5283,
      "IS": 5284,
      "Ġplan": 5285,
      "Ġemployed": 5286,
      "ĠBet": 5287,
      "ras": 5288,
      "Ġmonitor": 5289,
      "oses": 5290,
      "Ġwages": 5291,
      "Ġargument": 5292,
      "Ġedition": 5293,
      "Ġoccasion": 5294,
      "ani": 5295,
      "Ġrun": 5296,
      "ola": 5297,
      "ĠPatrick": 5298,
      "inson": 5299,
      "ificial": 5300,
      "Ġrooms": 5301,
      "ĠEdinburgh": 5302,
      "rent": 5303,
      "rav": 5304,
      "ĠServices": 5305,
      "Ġhang": 5306,
      "mond": 5307,
      "oters": 5308,
      "unar": 5309,
      "AS": 5310,
      "Ġexperien": 5311,
      "astic": 5312,
      "ĠStew": 5313,
      "ceed": 5314,
      "ĠOctober": 5315,
      "Ġancest": 5316,
      "Trans": 5317,
      "Ġcontributions": 5318,
      "Ġprovisions": 5319,
      "bo": 5320,
      "Ġ1890": 5321,
      "eenth": 5322,
      "Ġpract": 5323,
      "Ġinvestig": 5324,
      "Ġfacility": 5325,
      "ĠWagner": 5326,
      "anish": 5327,
      "ĠMarc": 5328,
      "Ġ]": 5329,
      "aver": 5330,
      "cluding": 5331,
      "ĠPrincess": 5332,
      "berg": 5333,
      "ĠMost": 5334,
      "Ġhel": 5335,
      "Ġinclude": 5336,
      "45": 5337,
      "ws": 5338,
      "Ġtexts": 5339,
      "Ġscript": 5340,
      "ĠUr": 5341,
      "Ġopportun": 5342,
      "ĠPhot": 5343,
      "Ġarmy": 5344,
      "ee": 5345,
      "ĠAlex": 5346,
      "gets": 5347,
      "120": 5348,
      "Ġphen": 5349,
      "Ġrevolution": 5350,
      "It": 5351,
      "cle": 5352,
      "Ġ55": 5353,
      "Ġquestions": 5354,
      "Ġislands": 5355,
      "iti": 5356,
      "iations": 5357,
      "Ġarea": 5358,
      "Ġcombat": 5359,
      "own": 5360,
      "oc": 5361,
      "bur": 5362,
      "put": 5363,
      "oom": 5364,
      "Ġhapp": 5365,
      "Ġuniverse": 5366,
      "ĠCur": 5367,
      "Ġsurve": 5368,
      "Ġraces": 5369,
      "Ġhall": 5370,
      "Ġletter": 5371,
      "Ġdoes": 5372,
      "ĠMinnesota": 5373,
      "Ġstone": 5374,
      "Ġperformed": 5375,
      "iox": 5376,
      "time": 5377,
      "Ġing": 5378,
      "olid": 5379,
      "1982": 5380,
      "Ġeffect": 5381,
      "ĠKingdom": 5382,
      "Ġstudy": 5383,
      "ranch": 5384,
      "Ġvalley": 5385,
      "In": 5386,
      "ropical": 5387,
      "Ġput": 5388,
      "Ġthat": 5389,
      "umes": 5390,
      "ptember": 5391,
      "chester": 5392,
      "Ġshield": 5393,
      "ained": 5394,
      "mir": 5395,
      "ome": 5396,
      "Ġtool": 5397,
      "ister": 5398,
      "Ï": 5399,
      "Ġstat": 5400,
      "Ġbrain": 5401,
      "ĠFront": 5402,
      "cribed": 5403,
      "ĠEastern": 5404,
      "Ġ600": 5405,
      "Ġ1870": 5406,
      "Ġ7": 5407,
      "%": 5408,
      "Ġcharge": 5409,
      "Ġtype": 5410,
      "Ġprinted": 5411,
      "go": 5412,
      "Ġdated": 5413,
      "Ġbow": 5414,
      "ĠBapt": 5415,
      "Ġonce": 5416,
      "ĠNik": 5417,
      "ĠWik": 5418,
      "Ġbases": 5419,
      "Ġeas": 5420,
      "conom": 5421,
      "ĠArmen": 5422,
      "Ġv": 5423,
      "ĠStates": 5424,
      "uese": 5425,
      "atures": 5426,
      "ast": 5427,
      "ĠSecretary": 5428,
      "Ġinches": 5429,
      "ĠExamples": 5430,
      "Ġexecutive": 5431,
      "ft": 5432,
      "ady": 5433,
      "Ġheard": 5434,
      "asc": 5435,
      "urs": 5436,
      "Ġcurrency": 5437,
      "ÏĦ": 5438,
      "ric": 5439,
      "ji": 5440,
      "vant": 5441,
      "unch": 5442,
      "Ġalone": 5443,
      "pid": 5444,
      "Ġexpect": 5445,
      "hers": 5446,
      "Ġ66": 5447,
      "ĠHart": 5448,
      "Ġpoet": 5449,
      "Ġmic": 5450,
      "Ġastron": 5451,
      "Ġsculpt": 5452,
      "ĠDuke": 5453,
      "Ġham": 5454,
      "Ġspec": 5455,
      "ff": 5456,
      "cont": 5457,
      "ective": 5458,
      "Ġindicated": 5459,
      "ĠNature": 5460,
      "Ġarchitect": 5461,
      "Ġmuscle": 5462,
      "aked": 5463,
      "Ġpurpose": 5464,
      "Ġartillery": 5465,
      "17": 5466,
      "Ġnotable": 5467,
      "Ġbacter": 5468,
      "Ġcharges": 5469,
      "Ġtitle": 5470,
      "olv": 5471,
      "ident": 5472,
      "ĠStr": 5473,
      "Ġexecution": 5474,
      "Ġtru": 5475,
      "Ġcommittee": 5476,
      "ĠPers": 5477,
      "Ġexpedition": 5478,
      "itzer": 5479,
      "ĠFather": 5480,
      "Ġo": 5481,
      "Ġfamiliar": 5482,
      "DS": 5483,
      "April": 5484,
      "ource": 5485,
      "wick": 5486,
      "ĠAmericans": 5487,
      "Ġmassive": 5488,
      "Ġnot": 5489,
      "ocene": 5490,
      "Ġequival": 5491,
      "ĠLuc": 5492,
      "Ġversion": 5493,
      "ope": 5494,
      "ĠMovement": 5495,
      "Ġsend": 5496,
      "zil": 5497,
      "Ġplus": 5498,
      "Ġissued": 5499,
      "Ġlists": 5500,
      "Ġsucceed": 5501,
      "ens": 5502,
      "ĠDon": 5503,
      "umed": 5504,
      "Ġlanguages": 5505,
      "ĠWrit": 5506,
      "quarters": 5507,
      "\"": 5508,
      "ĠOregon": 5509,
      "Ġfurn": 5510,
      "Ġtheir": 5511,
      "ĠMichigan": 5512,
      "Ġprol": 5513,
      "Ġroots": 5514,
      "ĠPublishing": 5515,
      "Ġpp": 5516,
      "Ġmodern": 5517,
      "Ġsuch": 5518,
      "),": 5519,
      "Ġsympt": 5520,
      "ĠLev": 5521,
      "Ġcolumn": 5522,
      "sey": 5523,
      "63": 5524,
      "ĠLi": 5525,
      "run": 5526,
      "ĠMatt": 5527,
      "ĠAt": 5528,
      "inance": 5529,
      "900": 5530,
      "Ġnumber": 5531,
      "da": 5532,
      "Ġsever": 5533,
      "gin": 5534,
      "ild": 5535,
      "Ġdie": 5536,
      "Ġcome": 5537,
      "load": 5538,
      "Ġmamm": 5539,
      "Ġfacilities": 5540,
      "ĠUSS": 5541,
      "elling": 5542,
      "ores": 5543,
      "Ġbond": 5544,
      "Ġresearch": 5545,
      "1038": 5546,
      "Ġdeaths": 5547,
      "ires": 5548,
      "Ġcitiz": 5549,
      "Ġknown": 5550,
      "Ġclim": 5551,
      "esh": 5552,
      "Ġgeneral": 5553,
      "Ġretain": 5554,
      "ĠAd": 5555,
      "Ġcomposer": 5556,
      "Ġrock": 5557,
      "Ġcalls": 5558,
      "Ġ78": 5559,
      "rett": 5560,
      "quis": 5561,
      "ructions": 5562,
      "oul": 5563,
      "icles": 5564,
      "Ġcompos": 5565,
      "Ġwidespread": 5566,
      "ranean": 5567,
      "Ġcut": 5568,
      "ĠHistor": 5569,
      "Ġconj": 5570,
      "ply": 5571,
      "Ġinhib": 5572,
      "ĠBCE": 5573,
      "Ġupon": 5574,
      "Ġvote": 5575,
      "ĠUnlike": 5576,
      "iled": 5577,
      "ĠColorado": 5578,
      "Ġelement": 5579,
      "aneously": 5580,
      "Ġnext": 5581,
      "ez": 5582,
      "Ġwounded": 5583,
      "Ġapplication": 5584,
      "Ġhowever": 5585,
      "ĠKu": 5586,
      "Ġyellow": 5587,
      "ĠCam": 5588,
      "Ġlegislation": 5589,
      "urches": 5590,
      "Ġmole": 5591,
      "Ġsettlers": 5592,
      "Ġsections": 5593,
      "Ġfix": 5594,
      "inate": 5595,
      "ĠReview": 5596,
      "SP": 5597,
      "tern": 5598,
      "Ġtoo": 5599,
      "?]": 5600,
      "Ġspeed": 5601,
      "Ġfalls": 5602,
      "entieth": 5603,
      "emed": 5604,
      "ight": 5605,
      "othe": 5606,
      "ĠCamb": 5607,
      "igr": 5608,
      "Ġreaction": 5609,
      "ive": 5610,
      "Ġbase": 5611,
      "hed": 5612,
      "Ġorganization": 5613,
      "celand": 5614,
      "Ã±": 5615,
      "Ġ1980": 5616,
      "Ġorganizations": 5617,
      "Ġ1919": 5618,
      "Ġ1985": 5619,
      "Ġcolonial": 5620,
      "ĠCons": 5621,
      "Ġprot": 5622,
      "Ġbroadcast": 5623,
      "eping": 5624,
      "Ġregime": 5625,
      "ĠManchester": 5626,
      "Ġparam": 5627,
      "mas": 5628,
      "ich": 5629,
      "Ġdem": 5630,
      "bec": 5631,
      "ĠRussell": 5632,
      "Ġinstalled": 5633,
      "wo": 5634,
      "ternal": 5635,
      "Ġunclear": 5636,
      "airs": 5637,
      "atin": 5638,
      "win": 5639,
      "Ġgive": 5640,
      "Ġfunding": 5641,
      "zy": 5642,
      "ci": 5643,
      "Ġend": 5644,
      "Ġdebate": 5645,
      "ÙĦ": 5646,
      "rÃ©": 5647,
      "Ġsynthesis": 5648,
      "coh": 5649,
      "Ġaccused": 5650,
      "Ġproced": 5651,
      "oral": 5652,
      "Ġarrival": 5653,
      "80": 5654,
      "Ġsod": 5655,
      "ĠJSTOR": 5656,
      "ins": 5657,
      "Ĵ": 5658,
      "ĠÂ°": 5659,
      "to": 5660,
      "Ġtrust": 5661,
      "Ġaffairs": 5662,
      "rait": 5663,
      "Ġregarded": 5664,
      "ruct": 5665,
      "Ġgar": 5666,
      "ĠConservation": 5667,
      "Ġstem": 5668,
      "Ġthink": 5669,
      "Ġparent": 5670,
      "Ġlight": 5671,
      "hedral": 5672,
      "Ġallow": 5673,
      "ĠGeorg": 5674,
      "600": 5675,
      "Ġtribe": 5676,
      "Ġconsid": 5677,
      "ĠEnt": 5678,
      "Ġcrow": 5679,
      "ciples": 5680,
      "ĠF": 5681,
      "Ġsector": 5682,
      "ichy": 5683,
      "htm": 5684,
      "ĠProtestant": 5685,
      "oms": 5686,
      "hammad": 5687,
      "Ġpalace": 5688,
      "Ġbr": 5689,
      "osed": 5690,
      "Ġgovern": 5691,
      "ĠHong": 5692,
      "Ġabsence": 5693,
      "ĠObs": 5694,
      "ners": 5695,
      "lex": 5696,
      "reme": 5697,
      "Ġinfluenced": 5698,
      "ĠSystems": 5699,
      "Ġcalendar": 5700,
      "Ġsupply": 5701,
      "cience": 5702,
      "Ġfine": 5703,
      "ĠCentury": 5704,
      "Ġproperties": 5705,
      "ĠJo": 5706,
      "rig": 5707,
      "Ġmolecular": 5708,
      "Ġgun": 5709,
      "inions": 5710,
      "most": 5711,
      "Ġaff": 5712,
      "Ġshut": 5713,
      "Ġhard": 5714,
      "Ðº": 5715,
      "Ġcontact": 5716,
      "ison": 5717,
      "ĠAng": 5718,
      "Ġimpossible": 5719,
      "iel": 5720,
      "CD": 5721,
      "ĠNic": 5722,
      "Ġmore": 5723,
      "Ġdecision": 5724,
      "Ġ1916": 5725,
      "ĠRiver": 5726,
      "Ġstill": 5727,
      "res": 5728,
      "ĠNever": 5729,
      "Ġabsor": 5730,
      "Ġ44": 5731,
      "Ġpublic": 5732,
      "Ġme": 5733,
      "18": 5734,
      "Ġsynt": 5735,
      "Ġconcerning": 5736,
      "Ġfleet": 5737,
      "asant": 5738,
      "ĠCompan": 5739,
      "ĠOxford": 5740,
      "Ġpersec": 5741,
      "ences": 5742,
      "face": 5743,
      "nel": 5744,
      "Ġtransfer": 5745,
      "ĠLat": 5746,
      "Ġtaxes": 5747,
      "Ġcar": 5748,
      "Ġprotect": 5749,
      "Ġincreased": 5750,
      "fect": 5751,
      "ub": 5752,
      "?\".": 5753,
      "ĠChamp": 5754,
      "ĠSimilarly": 5755,
      "Ġhear": 5756,
      "Äį": 5757,
      "ĠThen": 5758,
      "Ġ79": 5759,
      "3": 5760,
      "Ġocc": 5761,
      "Ġleaders": 5762,
      "igration": 5763,
      "book": 5764,
      "aster": 5765,
      "Ġgra": 5766,
      "OC": 5767,
      "Ġchosen": 5768,
      "ergy": 5769,
      "Ġlabour": 5770,
      "ĠFour": 5771,
      "ĠRab": 5772,
      "ĠPar": 5773,
      "icism": 5774,
      "pan": 5775,
      "ĠProble": 5776,
      "ein": 5777,
      "Ġcharacters": 5778,
      "Ġflav": 5779,
      "ther": 5780,
      "ac": 5781,
      "Ġfootball": 5782,
      "onies": 5783,
      "ĠLegisl": 5784,
      "2005": 5785,
      "Ġfire": 5786,
      "Ġwid": 5787,
      "Ġrep": 5788,
      "Ġ57": 5789,
      "iant": 5790,
      "ĠVolume": 5791,
      "atur": 5792,
      "ĠTor": 5793,
      "ĠEric": 5794,
      "Ġtheme": 5795,
      "ĠNations": 5796,
      "Ġpregn": 5797,
      "auc": 5798,
      "Ġtox": 5799,
      "acco": 5800,
      "F": 5801,
      "iph": 5802,
      "ĠBir": 5803,
      "hetic": 5804,
      "akers": 5805,
      "ĠMc": 5806,
      "Ġhorses": 5807,
      "Ġdiscuss": 5808,
      "ĠBernard": 5809,
      "Ġcontrol": 5810,
      "kl": 5811,
      "Ġsilver": 5812,
      "Ġbelong": 5813,
      "ran": 5814,
      "ĠGood": 5815,
      "ĠEliz": 5816,
      "text": 5817,
      "Ġg": 5818,
      "Ġapply": 5819,
      "Ġevent": 5820,
      "ined": 5821,
      "Ġclassical": 5822,
      "ument": 5823,
      "ĠHu": 5824,
      "ige": 5825,
      "Ġtalk": 5826,
      "Ð»": 5827,
      "istical": 5828,
      "Ġthrough": 5829,
      "itage": 5830,
      "och": 5831,
      "Ġ1944": 5832,
      "Ġresolution": 5833,
      "Ġsed": 5834,
      "Mar": 5835,
      "ĠServ": 5836,
      "ĠDue": 5837,
      "½": 5838,
      "ĠClass": 5839,
      "rank": 5840,
      "Ġceleb": 5841,
      "Ġprom": 5842,
      "Ġstudent": 5843,
      "Ġuniversity": 5844,
      "ĠNorthern": 5845,
      "ek": 5846,
      "Ġthis": 5847,
      "Ġseason": 5848,
      "ols": 5849,
      "Ġpicture": 5850,
      "ĠDecember": 5851,
      "ĠBor": 5852,
      "outheast": 5853,
      "Ġfail": 5854,
      "atre": 5855,
      "Ġbecause": 5856,
      "ĠPM": 5857,
      "Ġaim": 5858,
      "ects": 5859,
      "Ġ2000": 5860,
      "Ġill": 5861,
      "Ġmo": 5862,
      "Ġbus": 5863,
      "Ġdown": 5864,
      "ĠMedicine": 5865,
      "Ġpunishment": 5866,
      "Ġgame": 5867,
      "ĠStory": 5868,
      "§": 5869,
      "ĠColl": 5870,
      "Ġprofit": 5871,
      "term": 5872,
      "OR": 5873,
      "cks": 5874,
      "Ġwine": 5875,
      "ĠCN": 5876,
      "issions": 5877,
      "Ġsuper": 5878,
      "Ġslaves": 5879,
      "ĠEast": 5880,
      "Ġdialect": 5881,
      "ĠAge": 5882,
      "Ġdiverse": 5883,
      "ĠUnion": 5884,
      "ID": 5885,
      "alle": 5886,
      "Ġinnov": 5887,
      "ĠBatt": 5888,
      "ill": 5889,
      "Ġupper": 5890,
      "Ġvisit": 5891,
      "wen": 5892,
      "ar": 5893,
      "ox": 5894,
      "ising": 5895,
      "Ġnovel": 5896,
      "ĠLeague": 5897,
      "¤": 5898,
      "ĠGa": 5899,
      "Ġquality": 5900,
      "ĠSom": 5901,
      "Ġpattern": 5902,
      "Ġbarrel": 5903,
      "Ġear": 5904,
      "Ġconducted": 5905,
      "Ġmind": 5906,
      "land": 5907,
      "Ġ||": 5908,
      "ĠBru": 5909,
      "Ġ1976": 5910,
      "Ġexact": 5911,
      "out": 5912,
      "Ġlong": 5913,
      "Ġrad": 5914,
      "Ġwith": 5915,
      "par": 5916,
      "ĠB": 5917,
      "Ġcy": 5918,
      "acc": 5919,
      "ĠSant": 5920,
      "awa": 5921,
      "Ġmonths": 5922,
      "ĠEll": 5923,
      "vest": 5924,
      "ĠMore": 5925,
      "Ġ10": 5926,
      "ĠAdv": 5927,
      "andon": 5928,
      "ĠFinn": 5929,
      "Ġsubstance": 5930,
      "ulated": 5931,
      "Ġthick": 5932,
      "Ġibn": 5933,
      "fact": 5934,
      "Ġtruth": 5935,
      "ony": 5936,
      "199": 5937,
      "Ġcriticism": 5938,
      "Ġprinciple": 5939,
      "ico": 5940,
      "Ġincorporated": 5941,
      "Ġeducational": 5942,
      "inates": 5943,
      "ĠMov": 5944,
      "ĠWho": 5945,
      "ĠHead": 5946,
      "Ġcolle": 5947,
      "IL": 5948,
      "onia": 5949,
      "pread": 5950,
      "ĠHaven": 5951,
      "ands": 5952,
      "Ġregul": 5953,
      "Ġarrived": 5954,
      "oad": 5955,
      "osph": 5956,
      "ĠSong": 5957,
      "Ġevolution": 5958,
      "ajor": 5959,
      "field": 5960,
      "Ġheads": 5961,
      "ĠUniversity": 5962,
      "ck": 5963,
      "Ġradical": 5964,
      "ceton": 5965,
      "Ġnewsp": 5966,
      "Ġvolunte": 5967,
      "Ġ1905": 5968,
      "Ġtrial": 5969,
      "ĠSus": 5970,
      "ag": 5971,
      "Ġbodies": 5972,
      "ĠChurch": 5973,
      "Ġdistinguished": 5974,
      "Ġdefend": 5975,
      "ander": 5976,
      "Ġamong": 5977,
      "Ġprof": 5978,
      "olics": 5979,
      "ĠEqu": 5980,
      "Ġris": 5981,
      "ĠWind": 5982,
      "rics": 5983,
      "Ġtreated": 5984,
      "Ġ1964": 5985,
      "66": 5986,
      "Ġ80": 5987,
      "Ġmeasured": 5988,
      "UN": 5989,
      "Ġdispl": 5990,
      "nex": 5991,
      "Ġ1930": 5992,
      "Ġtechnology": 5993,
      "Ġand": 5994,
      "aut": 5995,
      "Ġprovince": 5996,
      "Ġpil": 5997,
      "ny": 5998,
      "ĠAccording": 5999,
      "Ġcreated": 6000,
      "ĠLouis": 6001,
      "Ġextrem": 6002,
      "scale": 6003,
      "ropri": 6004,
      "ĠOfficial": 6005,
      "Ġincome": 6006,
      "pl": 6007,
      "Ġcompon": 6008,
      "Ġfeatures": 6009,
      "Ġdark": 6010,
      "Ġrecomm": 6011,
      "Ġeconomy": 6012,
      "Ġ91": 6013,
      "Ġwould": 6014,
      "inary": 6015,
      "osy": 6016,
      "Ġdimin": 6017,
      "Ġprec": 6018,
      "level": 6019,
      "sc": 6020,
      "chang": 6021,
      "izations": 6022,
      "otton": 6023,
      "ified": 6024,
      "lett": 6025,
      "Ġdrug": 6026,
      "ouncil": 6027,
      "Ġsolutions": 6028,
      "iqu": 6029,
      "Ġrise": 6030,
      "Ġtroops": 6031,
      "Ġdemonstrated": 6032,
      "like": 6033,
      "Ġreducing": 6034,
      "Ġlay": 6035,
      "Ġgreatest": 6036,
      "Ġ41": 6037,
      "Ġvia": 6038,
      "â": 6039,
      "Comm": 6040,
      "Ġinvestigation": 6041,
      "Ġitems": 6042,
      "ĠPe": 6043,
      "Ġroof": 6044,
      "ĠRelations": 6045,
      "Ġexplos": 6046,
      "Ġsure": 6047,
      "Ġreform": 6048,
      "ental": 6049,
      "istic": 6050,
      "Ġmagnitude": 6051,
      "Ġocean": 6052,
      "Ġglass": 6053,
      "read": 6054,
      "ĠMol": 6055,
      "Ġpresident": 6056,
      "ĠLog": 6057,
      "Ġonto": 6058,
      "ĠNASA": 6059,
      "400": 6060,
      "Ġterritory": 6061,
      "Ġtemperature": 6062,
      "Ġidentical": 6063,
      "Ġlasted": 6064,
      "emeter": 6065,
      "Ġrein": 6066,
      "urance": 6067,
      "bs": 6068,
      "ophy": 6069,
      "Ġeastern": 6070,
      "Ġmed": 6071,
      "ER": 6072,
      "Ġmm": 6073,
      "Ġwas": 6074,
      "Ò": 6075,
      "ansion": 6076,
      "Ġdog": 6077,
      "ection": 6078,
      "ĠHud": 6079,
      "new": 6080,
      "33": 6081,
      "ĠMill": 6082,
      "Ġfled": 6083,
      "Ġperception": 6084,
      "Ġforming": 6085,
      "de": 6086,
      "ration": 6087,
      "Ġuncertain": 6088,
      "Ġsusp": 6089,
      "ane": 6090,
      "Ġfiles": 6091,
      "Ġas": 6092,
      "ba": 6093,
      "cription": 6094,
      "D": 6095,
      "11": 6096,
      "nal": 6097,
      "Ġ71": 6098,
      "Ġmakes": 6099,
      "ums": 6100,
      "ĠZ": 6101,
      "ĠRad": 6102,
      "Ġat": 6103,
      "Ġexists": 6104,
      "Ġadding": 6105,
      "Ġindicates": 6106,
      "uled": 6107,
      "ollowing": 6108,
      "eries": 6109,
      "ette": 6110,
      "Ġconce": 6111,
      "ĠFem": 6112,
      "Ġmon": 6113,
      "Ġreflected": 6114,
      "Ġlooks": 6115,
      "iev": 6116,
      "At": 6117,
      "an": 6118,
      "Ġsoldier": 6119,
      "icy": 6120,
      "ĠSecond": 6121,
      "Ġlook": 6122,
      "ĠLanc": 6123,
      "jamin": 6124,
      "Ġhimself": 6125,
      "Ã©s": 6126,
      "ĠCar": 6127,
      "Ġlaw": 6128,
      "int": 6129,
      "power": 6130,
      "Ġsoft": 6131,
      "Ġforces": 6132,
      "ifies": 6133,
      "Ġhyper": 6134,
      "ĠLaboratory": 6135,
      "Ġbomb": 6136,
      "Ġgoods": 6137,
      "ĠBen": 6138,
      "Ġsatellite": 6139,
      "ĠInternational": 6140,
      "id": 6141,
      "oming": 6142,
      "Ġbatt": 6143,
      "Ġcompris": 6144,
      "Ġinner": 6145,
      "Ġsan": 6146,
      "ie": 6147,
      "ĠAC": 6148,
      "Ġhearing": 6149,
      "Ġsm": 6150,
      "Ġfalling": 6151,
      "Ġjoin": 6152,
      "ĠMethod": 6153,
      "Ġ1973": 6154,
      "Ġsides": 6155,
      "Ġcomp": 6156,
      "vent": 6157,
      "tra": 6158,
      "TP": 6159,
      "ains": 6160,
      "Ġbeings": 6161,
      "isc": 6162,
      "ĠMary": 6163,
      "Ġmaster": 6164,
      "Ġcarrying": 6165,
      "ĠGre": 6166,
      "Ġcamera": 6167,
      "ĠPat": 6168,
      "ounded": 6169,
      "Ġj": 6170,
      "Ġoil": 6171,
      "rus": 6172,
      "Ġtrains": 6173,
      "Ġouter": 6174,
      "Ġprivate": 6175,
      "ÑĢ": 6176,
      "ĠLab": 6177,
      "Ġcent": 6178,
      "Ġurban": 6179,
      "Ġrequiring": 6180,
      "ĠBible": 6181,
      ".,": 6182,
      "ĠDay": 6183,
      "ĠAirport": 6184,
      "ation": 6185,
      "Ġthere": 6186,
      "Ġprofessional": 6187,
      "Ġverb": 6188,
      "Ġadvent": 6189,
      "ĠAss": 6190,
      "Ġproperly": 6191,
      "92": 6192,
      "ĠZe": 6193,
      "2004": 6194,
      "ĠAT": 6195,
      "Ġmessages": 6196,
      "Ġindepend": 6197,
      "Ġmist": 6198,
      "til": 6199,
      "ĠMan": 6200,
      "ĠStudies": 6201,
      "ĠBell": 6202,
      "Ġemerged": 6203,
      "Ġobst": 6204,
      "Ġelected": 6205,
      "ĠAssociation": 6206,
      "Ġinvolve": 6207,
      "ensity": 6208,
      "Ġjudge": 6209,
      "Ġlate": 6210,
      "Ġsound": 6211,
      "ĠJewish": 6212,
      "Ġ2009": 6213,
      "Ġdec": 6214,
      "Ġ1998": 6215,
      "Ġnuc": 6216,
      "ishment": 6217,
      "ĠJoseph": 6218,
      "ospital": 6219,
      "Ġdepicted": 6220,
      "ically": 6221,
      "Ġauthor": 6222,
      "Ġdesc": 6223,
      "Ġyears": 6224,
      "ĸ": 6225,
      "Ġ1000": 6226,
      "Ġsubstantial": 6227,
      "ife": 6228,
      "Ð¾": 6229,
      "Ġ1989": 6230,
      "ĠEducation": 6231,
      "ped": 6232,
      "Ġchalleng": 6233,
      "Ġelectricity": 6234,
      "ĠPin": 6235,
      "ines": 6236,
      "Ġhand": 6237,
      "Ġcooper": 6238,
      "ĠMoon": 6239,
      "usal": 6240,
      "ĠNe": 6241,
      "Ġce": 6242,
      "ĠPlay": 6243,
      "Ġexamples": 6244,
      "Ġdogs": 6245,
      "ride": 6246,
      "onic": 6247,
      "Ġisol": 6248,
      "Ġalgorithm": 6249,
      "itus": 6250,
      "Ġelse": 6251,
      "Ġprincip": 6252,
      "rough": 6253,
      "Ġinstitution": 6254,
      "ĠPo": 6255,
      "onents": 6256,
      "Ġpermitted": 6257,
      "Ġages": 6258,
      "ittee": 6259,
      "ĠNY": 6260,
      "Ġtake": 6261,
      "Ġlanding": 6262,
      "ĠPubl": 6263,
      "oll": 6264,
      "Ġestimates": 6265,
      "mid": 6266,
      "ections": 6267,
      "Ġany": 6268,
      "Ġcompens": 6269,
      "v": 6270,
      "Ġsin": 6271,
      "ĠOnline": 6272,
      "Ġhar": 6273,
      "ilar": 6274,
      "Ġmet": 6275,
      "ĠJul": 6276,
      "roy": 6277,
      "101": 6278,
      "ĠEngine": 6279,
      "ĠCrit": 6280,
      "ading": 6281,
      "ton": 6282,
      "Õ": 6283,
      "arden": 6284,
      "1983": 6285,
      "ĠCommittee": 6286,
      "SN": 6287,
      "Ġrelease": 6288,
      "Ġ1900": 6289,
      "ĠJer": 6290,
      "encies": 6291,
      "Ġtranslated": 6292,
      "50": 6293,
      "ĠEvolution": 6294,
      "Ġscale": 6295,
      "Ġball": 6296,
      "are": 6297,
      "Ġsection": 6298,
      "yp": 6299,
      "ĠCompar": 6300,
      "ĠMax": 6301,
      "rm": 6302,
      "Ġsyll": 6303,
      "Ġdeal": 6304,
      "ĠJan": 6305,
      "Ġincre": 6306,
      "Ġencouraged": 6307,
      "Ġconfig": 6308,
      "ult": 6309,
      "ĠCathedral": 6310,
      "fter": 6311,
      "Ġ1969": 6312,
      "ilt": 6313,
      "itors": 6314,
      "ively": 6315,
      "Ġleaving": 6316,
      "et": 6317,
      "ĠMem": 6318,
      "Ġun": 6319,
      "Ġinsects": 6320,
      "Ġfeet": 6321,
      "ĠThough": 6322,
      "gression": 6323,
      "atively": 6324,
      "Ġreferring": 6325,
      "Ġfast": 6326,
      "speaking": 6327,
      "ĠBur": 6328,
      "Ġgames": 6329,
      "Ġpriest": 6330,
      "ĠNatural": 6331,
      "ĠHel": 6332,
      "ley": 6333,
      "Ġrecovery": 6334,
      "Ġaware": 6335,
      "Ġworked": 6336,
      "Ġsucceeded": 6337,
      "Ġexpanding": 6338,
      "Ġdominated": 6339,
      "Ġyour": 6340,
      "Ġcontem": 6341,
      "Ġcomparison": 6342,
      "Ġvehicles": 6343,
      "ground": 6344,
      "rain": 6345,
      "iar": 6346,
      "ently": 6347,
      "pect": 6348,
      "rum": 6349,
      "very": 6350,
      "10": 6351,
      "red": 6352,
      "aughter": 6353,
      "ĠFall": 6354,
      "ees": 6355,
      "Ġtrack": 6356,
      "Ġthir": 6357,
      "ending": 6358,
      "dis": 6359,
      "irect": 6360,
      "ffici": 6361,
      "Ġdictionary": 6362,
      "enez": 6363,
      "Ġallies": 6364,
      "Ġhistoric": 6365,
      "ĠKar": 6366,
      "link": 6367,
      "Ġsomeone": 6368,
      "Ġsix": 6369,
      "ĠFrancisco": 6370,
      "Ġregard": 6371,
      "Ġforward": 6372,
      "Ġcomplet": 6373,
      "ove": 6374,
      "Ġ1924": 6375,
      "âĨ": 6376,
      "Ġinfluence": 6377,
      "olt": 6378,
      "Ġiss": 6379,
      "Ġ20": 6380,
      "Ġschool": 6381,
      "ĠSic": 6382,
      "Ġrepeated": 6383,
      "ĠBal": 6384,
      "Ġinvolv": 6385,
      "imental": 6386,
      "ely": 6387,
      "Ġreports": 6388,
      "Ġ196": 6389,
      "Ġeconomic": 6390,
      "ĠAer": 6391,
      "Ġbag": 6392,
      "Ã¢": 6393,
      "ized": 6394,
      "house": 6395,
      "ign": 6396,
      "ĠHistory": 6397,
      "ĠHigh": 6398,
      "borg": 6399,
      "ĠRailroad": 6400,
      "augh": 6401,
      "ld": 6402,
      "wood": 6403,
      "5": 6404,
      "stitute": 6405,
      "Ġ82": 6406,
      "ĠWomen": 6407,
      "ufficient": 6408,
      "esis": 6409,
      "Ġcause": 6410,
      "ula": 6411,
      "ray": 6412,
      "abilities": 6413,
      "ĠMarket": 6414,
      "Ġproblem": 6415,
      "Ġinvented": 6416,
      "59": 6417,
      "Ġepid": 6418,
      "Ġappre": 6419,
      "Ġinstance": 6420,
      "ĠPlant": 6421,
      "Ġplaying": 6422,
      "Ġmel": 6423,
      "Ġ1913": 6424,
      "Ġsun": 6425,
      "owever": 6426,
      "95": 6427,
      "ĠOcean": 6428,
      "ĠAlso": 6429,
      "CC": 6430,
      "ĠGra": 6431,
      "Ġpoems": 6432,
      "ging": 6433,
      "inus": 6434,
      "Ġarrest": 6435,
      "Ġview": 6436,
      "erc": 6437,
      "roduct": 6438,
      "minster": 6439,
      "ima": 6440,
      "atherine": 6441,
      "Ġcall": 6442,
      "\"),": 6443,
      "Ġproper": 6444,
      "mer": 6445,
      "Ġ|âĢ": 6446,
      "Ġtele": 6447,
      "Ġattacks": 6448,
      "Ġelevation": 6449,
      "Ġdesired": 6450,
      "á»": 6451,
      "ĠData": 6452,
      "ĠHar": 6453,
      "Ġthous": 6454,
      "Ġphilosophy": 6455,
      "ords": 6456,
      "Ġsubs": 6457,
      "ĠJ": 6458,
      "Ġfill": 6459,
      "Ġchief": 6460,
      "1989": 6461,
      "Ġintervention": 6462,
      "Ġ1911": 6463,
      "Ġmember": 6464,
      "lers": 6465,
      "ĠBureau": 6466,
      "ĠCD": 6467,
      "ĠRail": 6468,
      "Ġinterpreted": 6469,
      "Ġoccupied": 6470,
      "Ġpenal": 6471,
      "ived": 6472,
      "ĠArchived": 6473,
      "ĠMÃ¼": 6474,
      "Ġdesigned": 6475,
      "Ġarmed": 6476,
      "ments": 6477,
      "Ġoper": 6478,
      "ĠDaniel": 6479,
      "Ġast": 6480,
      "iddle": 6481,
      "hew": 6482,
      "omen": 6483,
      "ĠHerm": 6484,
      "Ġproducing": 6485,
      "ogs": 6486,
      "Ġpre": 6487,
      "board": 6488,
      "amine": 6489,
      "Ġheavily": 6490,
      "È": 6491,
      "Ġspect": 6492,
      "ĠNavy": 6493,
      "ets": 6494,
      "uman": 6495,
      "ĠAmerican": 6496,
      "ĠNobel": 6497,
      "iders": 6498,
      "ĠEach": 6499,
      "ĠJac": 6500,
      "Ġ1987": 6501,
      "ĠPeng": 6502,
      "rick": 6503,
      "Ġmaximum": 6504,
      "88": 6505,
      "force": 6506,
      "Ġquick": 6507,
      "ĠMorgan": 6508,
      "achus": 6509,
      "ĠWikip": 6510,
      "ocation": 6511,
      "Ġreturn": 6512,
      "Ġgather": 6513,
      "Ġ1968": 6514,
      "ĠSup": 6515,
      "2002": 6516,
      "Ġcer": 6517,
      "ript": 6518,
      "Ġready": 6519,
      "Ġfair": 6520,
      "Ġslightly": 6521,
      "Ġletters": 6522,
      "ĠMult": 6523,
      "inth": 6524,
      "Ġownership": 6525,
      "Ġbe": 6526,
      "Ġ67": 6527,
      "iciency": 6528,
      "ĠHowever": 6529,
      "Ġprinciples": 6530,
      "Ġexerc": 6531,
      "Ġillness": 6532,
      "Ġweak": 6533,
      "Ġenergy": 6534,
      "Ä«": 6535,
      "anded": 6536,
      "actions": 6537,
      "Ġmilitary": 6538,
      "©": 6539,
      "Ġability": 6540,
      "Ġ63": 6541,
      "ĠCongo": 6542,
      "Ġ27": 6543,
      "itable": 6544,
      "ĠLanguage": 6545,
      "erior": 6546,
      "Ġadapted": 6547,
      "ĠYou": 6548,
      "ia": 6549,
      "ĠMorm": 6550,
      "Ġmoves": 6551,
      "oston": 6552,
      "Ġanything": 6553,
      "Ġexactly": 6554,
      "ommod": 6555,
      "Ġdocuments": 6556,
      "Ġexpected": 6557,
      "ides": 6558,
      "Ġcat": 6559,
      "Ġschools": 6560,
      "ester": 6561,
      "former": 6562,
      "Ġnever": 6563,
      "ON": 6564,
      "pril": 6565,
      "Ġyoung": 6566,
      "ĠCard": 6567,
      "ĠCl": 6568,
      "uble": 6569,
      "uber": 6570,
      "Ġcivilian": 6571,
      "Ġcontext": 6572,
      "amics": 6573,
      "Ġroles": 6574,
      "ĠAra": 6575,
      "Ġ500": 6576,
      "Ġexcav": 6577,
      "che": 6578,
      "ĠFer": 6579,
      "Ġtowns": 6580,
      "Ġsecure": 6581,
      "thodox": 6582,
      "Ġresulted": 6583,
      "Ġ2015": 6584,
      "ank": 6585,
      "Ġsomew": 6586,
      "ĠViet": 6587,
      "ĠSil": 6588,
      "Ġpurp": 6589,
      "Ġrul": 6590,
      "eter": 6591,
      "Ġatt": 6592,
      "ĠStev": 6593,
      "ĠPaul": 6594,
      "ĠJacob": 6595,
      "Ġappearance": 6596,
      "Ġ,": 6597,
      "ĠType": 6598,
      "Ġbuild": 6599,
      "Ġdevelopment": 6600,
      "icate": 6601,
      "itness": 6602,
      "so": 6603,
      "cho": 6604,
      "ë": 6605,
      "Ġreturning": 6606,
      "ĠTom": 6607,
      "60": 6608,
      "ĠLy": 6609,
      "*": 6610,
      "Ġlif": 6611,
      "ĠSat": 6612,
      "Ġwood": 6613,
      "Ġvan": 6614,
      "inated": 6615,
      "ĠUSB": 6616,
      "Ġfat": 6617,
      "Ġsearch": 6618,
      "Ġunderstanding": 6619,
      "osing": 6620,
      "&": 6621,
      "Ġempire": 6622,
      "ĠAlbert": 6623,
      "ust": 6624,
      "ĠTem": 6625,
      "Ġretained": 6626,
      "ĠBuddhist": 6627,
      "ĠSing": 6628,
      "Ġdia": 6629,
      "ĠTyp": 6630,
      "Ġreleased": 6631,
      "Ġrefuge": 6632,
      "Ġdepth": 6633,
      "ĠIsland": 6634,
      "Ġ1893": 6635,
      "ĠCook": 6636,
      "gged": 6637,
      "Ġmean": 6638,
      "Ġtreaty": 6639,
      "ĠChild": 6640,
      "28": 6641,
      "Ġborders": 6642,
      "ĠAristot": 6643,
      "arge": 6644,
      "Ġsoon": 6645,
      "ĠWay": 6646,
      "C": 6647,
      "ĠRussia": 6648,
      "º": 6649,
      "Ġarticle": 6650,
      "ctic": 6651,
      "ÉĻ": 6652,
      "Ġyouth": 6653,
      "Ġminority": 6654,
      "ound": 6655,
      "ĠAmendment": 6656,
      "ĠBC": 6657,
      "anced": 6658,
      "ĠProt": 6659,
      "Ġteams": 6660,
      "Ġensure": 6661,
      "ĠMatthew": 6662,
      "Ġthy": 6663,
      "ĠâĢ¦": 6664,
      "ĠMarch": 6665,
      "Ġsignific": 6666,
      "eder": 6667,
      "Ġload": 6668,
      "±": 6669,
      "ara": 6670,
      "Ġprohib": 6671,
      "yn": 6672,
      "edding": 6673,
      "Ġrunning": 6674,
      "Ġhence": 6675,
      "ĠLondon": 6676,
      "Ġrole": 6677,
      "und": 6678,
      ")||": 6679,
      "ĠI": 6680,
      "ges": 6681,
      "ĠNapole": 6682,
      "ĠComp": 6683,
      "Ġrocks": 6684,
      "Ġaccounts": 6685,
      "Ġpri": 6686,
      "Ġoffices": 6687,
      "Ġvolume": 6688,
      "Ġpeoples": 6689,
      "Ġrelatively": 6690,
      "Ġnone": 6691,
      "Ġscholars": 6692,
      "work": 6693,
      "AC": 6694,
      "ĠMot": 6695,
      "Ġmethods": 6696,
      "Ġ1949": 6697,
      "ĠWell": 6698,
      "ĠConstantin": 6699,
      "Ġfirst": 6700,
      "ĠHard": 6701,
      "Ġ47": 6702,
      "Ġdescript": 6703,
      "gger": 6704,
      "ties": 6705,
      "di": 6706,
      "enh": 6707,
      "Ġrev": 6708,
      "con": 6709,
      "ĠSafety": 6710,
      "Ġlatter": 6711,
      "irmed": 6712,
      "etime": 6713,
      "Ġforb": 6714,
      "istent": 6715,
      "Ġsour": 6716,
      "Ġvess": 6717,
      "84": 6718,
      "Ġvis": 6719,
      "iences": 6720,
      "Ġencl": 6721,
      "ames": 6722,
      "Ġpoint": 6723,
      "Ġpopulations": 6724,
      "BT": 6725,
      "ancy": 6726,
      "Ġfamilies": 6727,
      "heim": 6728,
      "Ġexplanation": 6729,
      "Ġcases": 6730,
      "Ġworldwide": 6731,
      "ourse": 6732,
      "mat": 6733,
      "Ġcred": 6734,
      "ĠForm": 6735,
      "aux": 6736,
      "ĠLang": 6737,
      "ĠLud": 6738,
      "ĠLike": 6739,
      "AA": 6740,
      "io": 6741,
      "Ġthan": 6742,
      "Ġam": 6743,
      "ices": 6744,
      "Ġbit": 6745,
      "ts": 6746,
      "Ġport": 6747,
      "ford": 6748,
      "ĠVo": 6749,
      "Ġaxis": 6750,
      "Ġtr": 6751,
      "Ġundert": 6752,
      "estival": 6753,
      "ĠDist": 6754,
      "EM": 6755,
      "Ġfeature": 6756,
      "Ġheight": 6757,
      "ĠMinistry": 6758,
      "Ġconv": 6759,
      "°": 6760,
      "levision": 6761,
      "ĠAnn": 6762,
      "ĠAsh": 6763,
      "Ġemperor": 6764,
      "ĠSpace": 6765,
      "arks": 6766,
      "Ġrequ": 6767,
      "ician": 6768,
      "Ġagainst": 6769,
      "ĠJohn": 6770,
      "orph": 6771,
      "ierra": 6772,
      "aters": 6773,
      "Ġpractice": 6774,
      "inks": 6775,
      "Ġ2020": 6776,
      "oo": 6777,
      "Ġhealth": 6778,
      "ĠLind": 6779,
      "Ġleading": 6780,
      "ĠPennsylvania": 6781,
      "Ġprimary": 6782,
      "uits": 6783,
      "ĠPrin": 6784,
      "Ġmeasure": 6785,
      "Ġ\"": 6786,
      "ĠBusiness": 6787,
      "Ġterrit": 6788,
      "Ġdefined": 6789,
      "ĠGreek": 6790,
      "Ġvaries": 6791,
      "itual": 6792,
      "etry": 6793,
      "overnor": 6794,
      "Ġsimple": 6795,
      "Ġsummer": 6796,
      "Ġforests": 6797,
      "ĠRoyal": 6798,
      "Ġplane": 6799,
      "Ġduty": 6800,
      "ĠMong": 6801,
      "Ġcapac": 6802,
      "alth": 6803,
      "Ġart": 6804,
      "Ġserves": 6805,
      "Ġdemand": 6806,
      "ĠTh": 6807,
      "azz": 6808,
      "Ġatmosphere": 6809,
      "Ġ1971": 6810,
      "ago": 6811,
      "ĠAdm": 6812,
      "outhern": 6813,
      "ĠRelig": 6814,
      "Ġsecondary": 6815,
      "ĠInternet": 6816,
      "ĠDavis": 6817,
      "ī": 6818,
      "Ġstarted": 6819,
      "iÄĩ": 6820,
      "Ġrespectively": 6821,
      "orious": 6822,
      "Ġflood": 6823,
      "Ġhig": 6824,
      "izer": 6825,
      "Ġkill": 6826,
      "OL": 6827,
      "raham": 6828,
      "Ġsl": 6829,
      "Ġoff": 6830,
      "Ġcanal": 6831,
      "mi": 6832,
      "ĠTok": 6833,
      "Ġnorth": 6834,
      "Ġcoff": 6835,
      "cohol": 6836,
      "ĠObserv": 6837,
      "ĠSur": 6838,
      "uten": 6839,
      "Ġtribes": 6840,
      "ĠYears": 6841,
      "Ġpowers": 6842,
      "ĠHe": 6843,
      "ĠEd": 6844,
      "astern": 6845,
      "Ġ25": 6846,
      "Ġgreen": 6847,
      "Ġlonger": 6848,
      "more": 6849,
      "Ġchurch": 6850,
      "Ġfigure": 6851,
      "ividual": 6852,
      "Ġdefe": 6853,
      "Ġplastic": 6854,
      "called": 6855,
      "ĠDatabase": 6856,
      "comp": 6857,
      "Ġcritic": 6858,
      "odox": 6859,
      "Ġass": 6860,
      "ĠTen": 6861,
      "otic": 6862,
      "isco": 6863,
      "ineteenth": 6864,
      "on": 6865,
      "Ġcomplete": 6866,
      "Ġbeliefs": 6867,
      "Ġcommon": 6868,
      "itive": 6869,
      "ĠSk": 6870,
      "77": 6871,
      "Ġacts": 6872,
      "Ġform": 6873,
      "ĠHer": 6874,
      "Ġcopper": 6875,
      "Ġacceler": 6876,
      "Ġconfiguration": 6877,
      "ĠA": 6878,
      "Ġasc": 6879,
      "Ġkilled": 6880,
      ".).": 6881,
      "Ġperman": 6882,
      "eties": 6883,
      "ĠKer": 6884,
      "Ġbottom": 6885,
      "Ġaccuracy": 6886,
      "ied": 6887,
      "ĠShakespeare": 6888,
      "ĠPacific": 6889,
      "ķ": 6890,
      "Ġinterpre": 6891,
      "CE": 6892,
      "ĠPort": 6893,
      "ler": 6894,
      "ĠRud": 6895,
      "Ġdepartment": 6896,
      "ĠHenry": 6897,
      "hood": 6898,
      "te": 6899,
      "Ġspe": 6900,
      "owers": 6901,
      "Ġestim": 6902,
      "ĠChange": 6903,
      "Ġhas": 6904,
      "artment": 6905,
      "Ġprofession": 6906,
      "Ġhyd": 6907,
      "Ġsettled": 6908,
      "Ġthem": 6909,
      "ĠCuba": 6910,
      "ĠNew": 6911,
      "ĠIII": 6912,
      "Ġclimate": 6913,
      "ĠSud": 6914,
      "EL": 6915,
      "Ġbeauty": 6916,
      "oss": 6917,
      "V": 6918,
      "ĠBah": 6919,
      "Ġfocused": 6920,
      "ĠShar": 6921,
      "ction": 6922,
      "ĠBurn": 6923,
      "ĠArgent": 6924,
      "arters": 6925,
      "av": 6926,
      "ĠWh": 6927,
      "ct": 6928,
      "iv": 6929,
      "amer": 6930,
      "ique": 6931,
      "Ġgenre": 6932,
      "ĠLiter": 6933,
      "Ġbecome": 6934,
      "Ġdeclined": 6935,
      "ĠMichael": 6936,
      "à¸": 6937,
      "Ġforms": 6938,
      "Ġte": 6939,
      "Ġformation": 6940,
      "she": 6941,
      "BC": 6942,
      "aman": 6943,
      "Ġteeth": 6944,
      "ark": 6945,
      "Ġemot": 6946,
      "ĠReal": 6947,
      "Ġgives": 6948,
      "Ġpec": 6949,
      "iform": 6950,
      "ĠÃī": 6951,
      "Ġhouseholds": 6952,
      "\\": 6953,
      "Ġdensity": 6954,
      "zo": 6955,
      "Ġentire": 6956,
      "ĠBill": 6957,
      "cul": 6958,
      "ool": 6959,
      "ĠAD": 6960,
      "um": 6961,
      "Ġbefore": 6962,
      "Ġreported": 6963,
      "ĠGar": 6964,
      "Ġtrained": 6965,
      "esty": 6966,
      "02": 6967,
      "Ġwrote": 6968,
      "Ġthereby": 6969,
      "Ġlaid": 6970,
      "stone": 6971,
      "Ġentered": 6972,
      "Ġprinci": 6973,
      "ĠMiss": 6974,
      "ned": 6975,
      "ĠOlymp": 6976,
      "ya": 6977,
      "ĠUn": 6978,
      "1990": 6979,
      "Ġaccess": 6980,
      "ally": 6981,
      "First": 6982,
      "Ġadj": 6983,
      "west": 6984,
      "ium": 6985,
      "eli": 6986,
      "Ġpossibility": 6987,
      "icity": 6988,
      "Ġmountains": 6989,
      "aim": 6990,
      "Ġheavy": 6991,
      "Ġinteraction": 6992,
      "ĠPolitical": 6993,
      "1987": 6994,
      "Ġwon": 6995,
      "Ġchildren": 6996,
      "Ġf": 6997,
      "Ġmeas": 6998,
      "Ġinvest": 6999,
      "Ġstatue": 7000,
      "ĠCo": 7001,
      "Ġren": 7002,
      "ĠBridge": 7003,
      "Ġconsec": 7004,
      ".:": 7005,
      "Ġexpress": 7006,
      "ĠBab": 7007,
      "ĠDire": 7008,
      "ĠBeng": 7009,
      "Ġswe": 7010,
      "Ġhill": 7011,
      "Ġvon": 7012,
      "Ġelabor": 7013,
      "Ġ84": 7014,
      "akh": 7015,
      "Ġfib": 7016,
      "ĠOx": 7017,
      "ources": 7018,
      "Ġcombined": 7019,
      "Ġelements": 7020,
      "uff": 7021,
      "ĠIsraeli": 7022,
      "Ġhundred": 7023,
      "Ġtypically": 7024,
      "25": 7025,
      "log": 7026,
      "ĠBritannica": 7027,
      "ivid": 7028,
      "P": 7029,
      "led": 7030,
      "ĠGermany": 7031,
      "line": 7032,
      "Ġmove": 7033,
      "Ġimage": 7034,
      "Ġorganized": 7035,
      "Ġpubl": 7036,
      "from": 7037,
      "Ġdropped": 7038,
      "adian": 7039,
      "Ġarran": 7040,
      "edy": 7041,
      "Ġinvent": 7042,
      "Ġcult": 7043,
      "iments": 7044,
      "ĠIndust": 7045,
      "Ġpart": 7046,
      "en": 7047,
      "Ġstands": 7048,
      "2014": 7049,
      "rot": 7050,
      "ocr": 7051,
      "Ġdifferent": 7052,
      "Ġspot": 7053,
      "Ġpul": 7054,
      "adi": 7055,
      "Ġstruggle": 7056,
      "Ġplaces": 7057,
      "ĠBegin": 7058,
      "ching": 7059,
      "Ġreserv": 7060,
      "Ġtank": 7061,
      "Ġanalysis": 7062,
      "ĠEngineering": 7063,
      "Ġtwice": 7064,
      "Ġeat": 7065,
      "nes": 7066,
      "Ġinterview": 7067,
      "ata": 7068,
      "ĠJefferson": 7069,
      "Ġseries": 7070,
      "Ġgrow": 7071,
      "Ġaccessed": 7072,
      "Ġcharacteristics": 7073,
      "Ġgap": 7074,
      "Ġ38": 7075,
      "ircraft": 7076,
      "ĠQue": 7077,
      "ĠAfghan": 7078,
      "Ġsaw": 7079,
      "Ġpatri": 7080,
      "aterial": 7081,
      "Ġlife": 7082,
      "rib": 7083,
      "ĠS": 7084,
      "Ġalter": 7085,
      "ĠCro": 7086,
      "overed": 7087,
      "Ġterritories": 7088,
      "Ġthousands": 7089,
      "rew": 7090,
      "tha": 7091,
      "Ġcu": 7092,
      "%.": 7093,
      "Ġur": 7094,
      "Ġru": 7095,
      "ald": 7096,
      "ĠMat": 7097,
      "ĠReserve": 7098,
      "Ġtone": 7099,
      "Ġgradually": 7100,
      "Ġ×": 7101,
      "ĠAltern": 7102,
      "Ġmedium": 7103,
      "Ġowners": 7104,
      "Ġdialects": 7105,
      "urers": 7106,
      "Ġpay": 7107,
      "Ġcommercial": 7108,
      "TI": 7109,
      "ouse": 7110,
      "gov": 7111,
      "Ġpassed": 7112,
      "ĠFact": 7113,
      "arant": 7114,
      "Ġgenes": 7115,
      "ase": 7116,
      "Ġinspired": 7117,
      "Ġper": 7118,
      "ĠBeh": 7119,
      "fic": 7120,
      "ĠAges": 7121,
      "inant": 7122,
      "Ġdecl": 7123,
      "Ġhistory": 7124,
      "ĠStanford": 7125,
      "Ġruler": 7126,
      "ste": 7127,
      "ĠBart": 7128,
      "Ġinstruction": 7129,
      "Ġcont": 7130,
      "Ġ31": 7131,
      "ĠHen": 7132,
      "ĠSimilar": 7133,
      "Ġcreation": 7134,
      "Ġweek": 7135,
      "Ġproblems": 7136,
      "Ġqu": 7137,
      "istan": 7138,
      "gon": 7139,
      "Ġvillages": 7140,
      "Ġconverted": 7141,
      "aj": 7142,
      "born": 7143,
      "Ġsupp": 7144,
      "Ġ95": 7145,
      "ĠHistoric": 7146,
      "alion": 7147,
      "Ġnothing": 7148,
      "iah": 7149,
      "yl": 7150,
      "Wik": 7151,
      "ellor": 7152,
      "Ġpenet": 7153,
      "Ġnearby": 7154,
      "got": 7155,
      "iction": 7156,
      "aly": 7157,
      "ĠMont": 7158,
      "Ġut": 7159,
      "Ġ50": 7160,
      "enna": 7161,
      "Ġbore": 7162,
      "avia": 7163,
      "Ġevidence": 7164,
      "issipp": 7165,
      "ĠFilm": 7166,
      "Ġib": 7167,
      "uz": 7168,
      "6": 7169,
      "per": 7170,
      "lyn": 7171,
      "Ġcontinued": 7172,
      "Ġera": 7173,
      "olved": 7174,
      "ĠPost": 7175,
      "Ġrelating": 7176,
      "âĢ": 7177,
      "rint": 7178,
      "ĠJoh": 7179,
      "Ġstars": 7180,
      "Ġpoison": 7181,
      "fish": 7182,
      "ĠArist": 7183,
      "Ġperfect": 7184,
      "Ġcook": 7185,
      "year": 7186,
      "ĠOrigin": 7187,
      "ĠNation": 7188,
      "Ġchrom": 7189,
      "Ġcit": 7190,
      "ĠSim": 7191,
      "ĠRes": 7192,
      "ogether": 7193,
      "ression": 7194,
      "Ġattack": 7195,
      "Ñ": 7196,
      "gg": 7197,
      "Ġwar": 7198,
      "Ġimport": 7199,
      "ĠXX": 7200,
      "ew": 7201,
      "Ġcross": 7202,
      "ĠScott": 7203,
      "Ġ54": 7204,
      "ĠWork": 7205,
      "Ġtherm": 7206,
      "ĠFl": 7207,
      "ĠUrban": 7208,
      "Ġrefused": 7209,
      "Ġha": 7210,
      "ĠNorwegian": 7211,
      "Ġ1934": 7212,
      "rif": 7213,
      "ĠHom": 7214,
      "Ġind": 7215,
      "Ġcontinue": 7216,
      "Ġshort": 7217,
      "Ġmanufacturing": 7218,
      "Ġ(\"": 7219,
      "Ġacc": 7220,
      "Ġel": 7221,
      "Ú": 7222,
      "ĠPur": 7223,
      "wide": 7224,
      "rin": 7225,
      "Ġeye": 7226,
      "play": 7227,
      "Ġelim": 7228,
      "ĠColor": 7229,
      "Ġlabel": 7230,
      "Ġworn": 7231,
      "Ġarch": 7232,
      "Ġneighbor": 7233,
      "Ġideal": 7234,
      "Ġprevented": 7235,
      "ylvania": 7236,
      "\")": 7237,
      "ights": 7238,
      "Ġdrawn": 7239,
      "Ġuse": 7240,
      "ĠShort": 7241,
      "Ġimproved": 7242,
      "BN": 7243,
      "agon": 7244,
      "ĠEn": 7245,
      "aren": 7246,
      "ĠTibet": 7247,
      "Ġdioxide": 7248,
      "comm": 7249,
      "ĠIslam": 7250,
      "ĠPath": 7251,
      "sk": 7252,
      "Ġfruit": 7253,
      "Ġreaching": 7254,
      "ensions": 7255,
      "Ġ1927": 7256,
      "por": 7257,
      "Ġ1953": 7258,
      "ĠNar": 7259,
      "Ġtwelve": 7260,
      "ĠZh": 7261,
      "Ġ1929": 7262,
      "ĠClare": 7263,
      "Ġhouse": 7264,
      "ĠAcadem": 7265,
      "ĠRober": 7266,
      "68": 7267,
      "Ġdescent": 7268,
      "cially": 7269,
      "Ġ120": 7270,
      "ĠLess": 7271,
      "Ġbott": 7272,
      "ĠChang": 7273,
      "Ġ1880": 7274,
      "ĠLady": 7275,
      "Ġtest": 7276,
      "ĠWalter": 7277,
      "Ġdu": 7278,
      "ĠDec": 7279,
      "Ġfreedom": 7280,
      "Ġexped": 7281,
      "ĠBus": 7282,
      "Ġname": 7283,
      "Ġheart": 7284,
      "pring": 7285,
      "ĠPer": 7286,
      "Ġ194": 7287,
      "ĠHig": 7288,
      ")|": 7289,
      "ĠBra": 7290,
      "ĠJapanese": 7291,
      "opl": 7292,
      "ovak": 7293,
      "Ġsuccessful": 7294,
      "Ġ$": 7295,
      "Ġeduc": 7296,
      "up": 7297,
      "icial": 7298,
      "ĠIraq": 7299,
      "Ġinto": 7300,
      "Ġmatch": 7301,
      "Ġwooden": 7302,
      "Ġ43": 7303,
      "ĠEt": 7304,
      "Ġconflict": 7305,
      "onomy": 7306,
      "Ġfront": 7307,
      "Ġincident": 7308,
      "Ġinc": 7309,
      "ab": 7310,
      "ough": 7311,
      "Ġcreating": 7312,
      "Ġbra": 7313,
      "Ġpain": 7314,
      "Ø": 7315,
      "Ġdisorder": 7316,
      "pe": 7317,
      "Ġgraph": 7318,
      "abil": 7319,
      "Ġgall": 7320,
      "ĠYork": 7321,
      "ros": 7322,
      "ĠRoss": 7323,
      "ĠResearch": 7324,
      "ĠHow": 7325,
      "Ġfam": 7326,
      "arian": 7327,
      "ĠâĪĴ": 7328,
      "Ġindependence": 7329,
      "07": 7330,
      "Ġneck": 7331,
      "Ġenh": 7332,
      "Ġmachine": 7333,
      "Ġcand": 7334,
      "Ġresc": 7335,
      "ĠPier": 7336,
      "Ġmechan": 7337,
      "German": 7338,
      "EC": 7339,
      "ĠAmong": 7340,
      "un": 7341,
      "Ġfle": 7342,
      "olar": 7343,
      "Ġfeeling": 7344,
      "ethyl": 7345,
      "em": 7346,
      "Ġdevelop": 7347,
      "ologies": 7348,
      "Ġequivalent": 7349,
      "ĠGerm": 7350,
      "Ġadded": 7351,
      "century": 7352,
      "ener": 7353,
      "Ġcanon": 7354,
      "ternational": 7355,
      "cil": 7356,
      "itudes": 7357,
      "Ġriver": 7358,
      "page": 7359,
      "Ġmanual": 7360,
      "Ġequally": 7361,
      "ĠBrian": 7362,
      "ina": 7363,
      "Ġdisc": 7364,
      "gal": 7365,
      "Ġtransition": 7366,
      "isation": 7367,
      "Ġbeaut": 7368,
      "ĠAz": 7369,
      "ĠLand": 7370,
      "ĠCont": 7371,
      "age": 7372,
      "ĠVin": 7373,
      "u": 7374,
      "Ġ1914": 7375,
      "ĠJr": 7376,
      "Ġdi": 7377,
      "ĠGu": 7378,
      "ional": 7379,
      "Ġstream": 7380,
      "ĠTri": 7381,
      "ĠProject": 7382,
      "40": 7383,
      "undred": 7384,
      "pre": 7385,
      "Ġnamed": 7386,
      "Ġlik": 7387,
      "Ġdet": 7388,
      "Ġproportion": 7389,
      "Ġgenetic": 7390,
      "Ġbands": 7391,
      "Ġda": 7392,
      "itt": 7393,
      "Ġinternal": 7394,
      "ot": 7395,
      "Ġapprox": 7396,
      "Ġwhich": 7397,
      "ĠHIV": 7398,
      "Ġliving": 7399,
      "ersey": 7400,
      "chi": 7401,
      "Ġrapidly": 7402,
      "],": 7403,
      "Ġquestion": 7404,
      "Ġspring": 7405,
      "ture": 7406,
      "Ġhypothesis": 7407,
      "ĠAlexander": 7408,
      "Ġvic": 7409,
      "ender": 7410,
      "ĠCommonwealth": 7411,
      "Ġmaintenance": 7412,
      "Ġ2016": 7413,
      "ĠGi": 7414,
      "inations": 7415,
      "Ġrepl": 7416,
      "western": 7417,
      "Ġoxid": 7418,
      "ĠDivision": 7419,
      "Ġovers": 7420,
      "cyclop": 7421,
      "ĠKl": 7422,
      "uj": 7423,
      "come": 7424,
      "ivil": 7425,
      "Ġdev": 7426,
      "ĠMor": 7427,
      "edd": 7428,
      "Ġmonarch": 7429,
      "eld": 7430,
      "ph": 7431,
      "op": 7432,
      "Ġbreed": 7433,
      "rive": 7434,
      "ceived": 7435,
      "ken": 7436,
      "pton": 7437,
      "igrants": 7438,
      "rast": 7439,
      "urric": 7440,
      "Ġearthqu": 7441,
      "ĠIsaac": 7442,
      "Ġfailure": 7443,
      "Ġdistingu": 7444,
      "ĠCol": 7445,
      "ÅĤ": 7446,
      "ĠU": 7447,
      "Ġcolour": 7448,
      ");": 7449,
      "Ġdam": 7450,
      "Ġpolicy": 7451,
      "ĠFrancis": 7452,
      "can": 7453,
      "Ġdebt": 7454,
      "cing": 7455,
      "Ġmunicip": 7456,
      "Ġmales": 7457,
      "etts": 7458,
      "Ġoverl": 7459,
      "ay": 7460,
      "Ġtim": 7461,
      "1981": 7462,
      "Ġdrin": 7463,
      "Ġturn": 7464,
      "rations": 7465,
      "Äĩ": 7466,
      "Ġfailed": 7467,
      "ĠPle": 7468,
      "Ġinteg": 7469,
      "ĠResources": 7470,
      "klah": 7471,
      "Ġsleep": 7472,
      "Ġgreatly": 7473,
      "ĠMississippi": 7474,
      "ĠTrade": 7475,
      "Ġlayer": 7476,
      "inn": 7477,
      "Ġtissue": 7478,
      "Ġintellectual": 7479,
      "osophical": 7480,
      "Ġmaps": 7481,
      "ĠSp": 7482,
      "Ġshown": 7483,
      "ĠWhere": 7484,
      "ugg": 7485,
      "uing": 7486,
      "cles": 7487,
      "Ġsubstant": 7488,
      "ider": 7489,
      "ellect": 7490,
      "ĠAut": 7491,
      "el": 7492,
      "Ġframe": 7493,
      "ĠMir": 7494,
      "names": 7495,
      "ject": 7496,
      "ĠFire": 7497,
      "Ġbeliev": 7498,
      "osoph": 7499,
      "Ġaccept": 7500,
      "ennial": 7501,
      "Ġpopular": 7502,
      "Ġactive": 7503,
      "Ġcloth": 7504,
      "Ġtraining": 7505,
      "ead": 7506,
      "Ġoperator": 7507,
      "Ġscientific": 7508,
      "ĠFar": 7509,
      "edom": 7510,
      "Ġstud": 7511,
      "Ġflows": 7512,
      "Ġbroken": 7513,
      "ogen": 7514,
      "Ġreturned": 7515,
      "Ġlarger": 7516,
      "Ġparticipants": 7517,
      "stra": 7518,
      "Ġburial": 7519,
      "Ġcosts": 7520,
      "itzerland": 7521,
      "eper": 7522,
      "Ġ1984": 7523,
      "Ġteac": 7524,
      "kin": 7525,
      "bon": 7526,
      "ĠKal": 7527,
      "Ġsevere": 7528,
      "Ġstrengthen": 7529,
      "ibly": 7530,
      "ĠMer": 7531,
      "Ġpoly": 7532,
      "Ġmeeting": 7533,
      "2008": 7534,
      "Ġ2002": 7535,
      "Ġprisoners": 7536,
      "tion": 7537,
      "Ġsom": 7538,
      "hib": 7539,
      "Ġhor": 7540,
      "ange": 7541,
      "ĠWill": 7542,
      "inct": 7543,
      "Ġfresh": 7544,
      "Ġrepresents": 7545,
      "Ġband": 7546,
      "Ġresult": 7547,
      "Ġcharged": 7548,
      "Ġfinancial": 7549,
      "Ġguarant": 7550,
      "ĠDynasty": 7551,
      "ening": 7552,
      "Ġconver": 7553,
      "lection": 7554,
      "Ġbre": 7555,
      "Ġpost": 7556,
      "Ġof": 7557,
      "rang": 7558,
      ")": 7559,
      "plom": 7560,
      "Ġgran": 7561,
      "Ġhat": 7562,
      "ition": 7563,
      "ĠReform": 7564,
      "osis": 7565,
      "ĠOtto": 7566,
      "cy": 7567,
      "allel": 7568,
      "ĠAdminist": 7569,
      "Ġbene": 7570,
      "cer": 7571,
      "ithm": 7572,
      "oring": 7573,
      "throp": 7574,
      "Ġfoundation": 7575,
      "aves": 7576,
      "yes": 7577,
      "burgh": 7578,
      "ams": 7579,
      "ĠPap": 7580,
      "Ġvariant": 7581,
      "Ġcontributed": 7582,
      "ri": 7583,
      "Ġgrowth": 7584,
      "ĠWar": 7585,
      "sect": 7586,
      "orn": 7587,
      "Ġprofessor": 7588,
      "olph": 7589,
      "Ġsuc": 7590,
      "Ġsphere": 7591,
      "lymp": 7592,
      "ĠAnnual": 7593,
      "Ġmaterial": 7594,
      "nings": 7595,
      "ĠPortuguese": 7596,
      "ĠArmenian": 7597,
      "ury": 7598,
      "ked": 7599,
      "onymous": 7600,
      "odies": 7601,
      "ĠPhiladelphia": 7602,
      "Ġannounced": 7603,
      "reement": 7604,
      "Ġpun": 7605,
      "ordon": 7606,
      "cipl": 7607,
      "Ġidentified": 7608,
      "Ġreduction": 7609,
      "orus": 7610,
      "Ġcutting": 7611,
      "itan": 7612,
      "Ġcommunity": 7613,
      "Ġchoose": 7614,
      "ragon": 7615,
      "aska": 7616,
      "ĠConstant": 7617,
      "ang": 7618,
      "Ġvill": 7619,
      "DP": 7620,
      "icted": 7621,
      "Ġlangu": 7622,
      "ĠSyn": 7623,
      "ĠAmerica": 7624,
      "ings": 7625,
      "ese": 7626,
      "He": 7627,
      "ies": 7628,
      "32": 7629,
      "Ġfive": 7630,
      "ĠDr": 7631,
      "Ġmessage": 7632,
      "Ġarrang": 7633,
      "lad": 7634,
      "Ðµ": 7635,
      "ĠPublications": 7636,
      "Ġsupplied": 7637,
      "Ġfunctional": 7638,
      "Ġmaterials": 7639,
      "istance": 7640,
      "Ġprotection": 7641,
      "Ġregiment": 7642,
      "rad": 7643,
      "Ġphilos": 7644,
      "Ġmart": 7645,
      "Ġmus": 7646,
      "Ġsus": 7647,
      "Ġprofess": 7648,
      "Ġliterary": 7649,
      "ĠLast": 7650,
      "ĠWindows": 7651,
      "ĠRepresent": 7652,
      "Ġstages": 7653,
      "Ġsq": 7654,
      "Ġrevenue": 7655,
      "ĠModel": 7656,
      "ai": 7657,
      "alled": 7658,
      "off": 7659,
      "Ġcontent": 7660,
      "Ġdevices": 7661,
      "Ġ2014": 7662,
      "abit": 7663,
      "Ġstress": 7664,
      "Ġapproach": 7665,
      "Ġcolony": 7666,
      "áĢ": 7667,
      "ĠMerc": 7668,
      "Ġresponsibility": 7669,
      "Ġtreat": 7670,
      "aced": 7671,
      "ger": 7672,
      "Ġ1945": 7673,
      "AN": 7674,
      "Ġnight": 7675,
      "ĠCr": 7676,
      "Ġ29": 7677,
      "mann": 7678,
      "elli": 7679,
      "ĠSac": 7680,
      "Ġbonds": 7681,
      "Ġcontrols": 7682,
      "ĠMusic": 7683,
      "Ġ30": 7684,
      "ĠFran": 7685,
      "Ġtradition": 7686,
      "Ġindependent": 7687,
      "oly": 7688,
      "iss": 7689,
      "Ġdial": 7690,
      "ĠHospital": 7691,
      "Ġsec": 7692,
      "Ġboth": 7693,
      "ĠProcess": 7694,
      "ĠNetherlands": 7695,
      "ĠEv": 7696,
      "Ġeng": 7697,
      "Ġcrown": 7698,
      "Ġroughly": 7699,
      "ĠDef": 7700,
      "Ġ400": 7701,
      "Ġhuge": 7702,
      "hu": 7703,
      "Ġborder": 7704,
      "Ġplural": 7705,
      "ĠMcG": 7706,
      "Ġuseful": 7707,
      "1999": 7708,
      "Ġ1942": 7709,
      "Ġsought": 7710,
      "M": 7711,
      "Ġaggreg": 7712,
      "ĠDou": 7713,
      "ĠAustral": 7714,
      "Ġcert": 7715,
      "Ġissues": 7716,
      "Ġstrugg": 7717,
      "edu": 7718,
      "Ġofficer": 7719,
      "Ġvolumes": 7720,
      "sw": 7721,
      "ĠAbbey": 7722,
      "riers": 7723,
      "Ġscientists": 7724,
      "Ġfil": 7725,
      "ada": 7726,
      "Ġparts": 7727,
      "ses": 7728,
      "Ġkilling": 7729,
      "Ġ28": 7730,
      "ĠLeg": 7731,
      "owa": 7732,
      "ĠHill": 7733,
      "icks": 7734,
      "Ġcarried": 7735,
      "ï¿½": 7736,
      "ĠPh": 7737,
      "ilation": 7738,
      "ĠOld": 7739,
      "Ġstead": 7740,
      "ers": 7741,
      "science": 7742,
      "Ġselected": 7743,
      "ĠExecutive": 7744,
      "Ġinformation": 7745,
      "Ġsac": 7746,
      "Ġfamil": 7747,
      "Ġoffic": 7748,
      "AP": 7749,
      "Ġapplications": 7750,
      "Ġhom": 7751,
      "Ġhead": 7752,
      "Ġfaith": 7753,
      "ected": 7754,
      "Ġeasier": 7755,
      "iot": 7756,
      "Ġsite": 7757,
      "erick": 7758,
      "Ġcrim": 7759,
      "ĠBay": 7760,
      "ency": 7761,
      "Ġstrongly": 7762,
      "ĠCat": 7763,
      "Ġprevious": 7764,
      "Ġ37": 7765,
      "ĠBar": 7766,
      "Ġinterpret": 7767,
      "ĠCle": 7768,
      "ĠWright": 7769,
      "ĠNag": 7770,
      "Ġrem": 7771,
      "now": 7772,
      "Ġarg": 7773,
      "bn": 7774,
      "Ġpress": 7775,
      "Ġincreasing": 7776,
      "AT": 7777,
      "ĠCouncil": 7778,
      "Ġkinds": 7779,
      "uk": 7780,
      "Ġpatient": 7781,
      "ator": 7782,
      "ĠVisual": 7783,
      "ĠBoard": 7784,
      "ut": 7785,
      "rat": 7786,
      "ĠIBM": 7787,
      "Ë": 7788,
      "].": 7789,
      "ĠCour": 7790,
      "aged": 7791,
      "ioxide": 7792,
      "plate": 7793,
      "ĠOri": 7794,
      "ĠList": 7795,
      "Ġmedicine": 7796,
      "Ġappears": 7797,
      "ases": 7798,
      "Ġimplementation": 7799,
      "ih": 7800,
      "Ġquot": 7801,
      "Ġdiss": 7802,
      "Ġoperated": 7803,
      "Ġmathematical": 7804,
      "Ġselect": 7805,
      "Ġfilm": 7806,
      "aug": 7807,
      "ug": 7808,
      "Ġnecessary": 7809,
      "ĠII": 7810,
      "ĠStand": 7811,
      "I": 7812,
      "ius": 7813,
      "occ": 7814,
      "1994": 7815,
      "ĠLee": 7816,
      "Ġsing": 7817,
      "hel": 7818,
      "ĠTrad": 7819,
      "mes": 7820,
      "ĠRepublican": 7821,
      "Z": 7822,
      "ike": 7823,
      "antry": 7824,
      "ĠChic": 7825,
      "Ġmental": 7826,
      "Ġfra": 7827,
      "Ġresources": 7828,
      "pired": 7829,
      "ise": 7830,
      "ĠScottish": 7831,
      "Ġabund": 7832,
      "MS": 7833,
      "ĠSe": 7834,
      "ĠChem": 7835,
      "ached": 7836,
      "Ġs": 7837,
      "Ġ64": 7838,
      "ridges": 7839,
      "nown": 7840,
      "Ġlower": 7841,
      "zer": 7842,
      "other": 7843,
      "ĠÂ§": 7844,
      "lete": 7845,
      "Ġsaid": 7846,
      "sis": 7847,
      "Ġdr": 7848,
      "awn": 7849,
      "Ġdata": 7850,
      "etary": 7851,
      "ĠOttoman": 7852,
      "ĠWars": 7853,
      "ĠAlthough": 7854,
      "rom": 7855,
      "ared": 7856,
      "Ã¦dia": 7857,
      "omes": 7858,
      "Ġge": 7859,
      "Ġhumans": 7860,
      "Ġanaly": 7861,
      "Ġconvers": 7862,
      "Ġlarge": 7863,
      "ĠArt": 7864,
      "hat": 7865,
      "Ġsoci": 7866,
      "Ġdistricts": 7867,
      "ĠIron": 7868,
      "Ġadapt": 7869,
      "ru": 7870,
      "Ġinterface": 7871,
      "Ġdin": 7872,
      "Ġmeant": 7873,
      "ĠPresident": 7874,
      "cht": 7875,
      "ĠDig": 7876,
      "Ì": 7877,
      "azine": 7878,
      "ĠWat": 7879,
      "¼": 7880,
      "Ġanswer": 7881,
      "apter": 7882,
      "Ġ12": 7883,
      "ĠPMC": 7884,
      "oles": 7885,
      "Ġboys": 7886,
      "Ġ2": 7887,
      "Ġgate": 7888,
      "Ġtra": 7889,
      "illa": 7890,
      "Ġequipped": 7891,
      "Ġwitness": 7892,
      "Ġmor": 7893,
      "itional": 7894,
      "ager": 7895,
      "Ġstru": 7896,
      ".|": 7897,
      "Ġassigned": 7898,
      "Ġphosph": 7899,
      "Rep": 7900,
      "Ġhelp": 7901,
      "Ġestablishing": 7902,
      "Ġdivision": 7903,
      "History": 7904,
      "ecticut": 7905,
      "Ġlength": 7906,
      "lic": 7907,
      "Ġbalance": 7908,
      "ĠAgain": 7909,
      "Ġagric": 7910,
      "Ġboundary": 7911,
      "ĠConfederate": 7912,
      "Ġdaughter": 7913,
      "ĠSyd": 7914,
      "¸": 7915,
      "96": 7916,
      "idents": 7917,
      "Ġdescend": 7918,
      "ma": 7919,
      "Ġcredit": 7920,
      "rial": 7921,
      "Ġnecess": 7922,
      "aring": 7923,
      "ĠBerlin": 7924,
      "PDF": 7925,
      "ĠWarren": 7926,
      "Ġaircraft": 7927,
      "ixed": 7928,
      "ĠCO": 7929,
      "ĠConference": 7930,
      "bre": 7931,
      "ĠThom": 7932,
      "Ġrange": 7933,
      "Ġlung": 7934,
      "Ġearlier": 7935,
      "od": 7936,
      "ants": 7937,
      "Ġdouble": 7938,
      "Ġtheatre": 7939,
      "Ġpast": 7940,
      "eler": 7941,
      "Ġoccupation": 7942,
      "ĠCivil": 7943,
      "ĠAp": 7944,
      "Ð": 7945,
      "iring": 7946,
      "H": 7947,
      "ĠPrim": 7948,
      "Ġpoem": 7949,
      "Ġmolecules": 7950,
      "Ġnative": 7951,
      "ĠGreat": 7952,
      "ĠNat": 7953,
      "vey": 7954,
      "ĠAustrian": 7955,
      "aff": 7956,
      "Ġcond": 7957,
      "Ġgram": 7958,
      "ĠSever": 7959,
      "ĠSons": 7960,
      "rit": 7961,
      "utive": 7962,
      "Ġboats": 7963,
      "Ġ2001": 7964,
      "Ġmounted": 7965,
      "Ġapproaches": 7966,
      "Ġeffic": 7967,
      "aint": 7968,
      "ital": 7969,
      "29": 7970,
      "akes": 7971,
      "Ġimpl": 7972,
      "Ġpg": 7973,
      "ĠAnglo": 7974,
      "ate": 7975,
      "ian": 7976,
      "Ġdescription": 7977,
      "Ġcoming": 7978,
      "Ġlearning": 7979,
      "p": 7980,
      "wards": 7981,
      "Ġindustry": 7982,
      "ĠTw": 7983,
      "U": 7984,
      "Ġim": 7985,
      "Ġstate": 7986,
      "otyp": 7987,
      "ĠC": 7988,
      "amil": 7989,
      "Ġhim": 7990,
      "Ġflight": 7991,
      "Ġmat": 7992,
      "Ġ56": 7993,
      "Ġinh": 7994,
      "Ġapproved": 7995,
      "Ġrose": 7996,
      "ĠCab": 7997,
      "ultan": 7998,
      "ĠJune": 7999,
      "ĠKel": 8000,
      "ĠAbd": 8001,
      "Ġdrop": 8002,
      "ĠAdditionally": 8003,
      "Ġnewly": 8004,
      "Ġguard": 8005,
      "ida": 8006,
      "ĠMel": 8007,
      "Ġfields": 8008,
      "embly": 8009,
      "Ġflo": 8010,
      "att": 8011,
      "Ġacquired": 8012,
      "Ġalt": 8013,
      "Ġcourts": 8014,
      "ĠHere": 8015,
      "Ġcreate": 8016,
      "der": 8017,
      "ĠSte": 8018,
      "rel": 8019,
      "ater": 8020,
      "Ġbrothers": 8021,
      "ibraries": 8022,
      "clusion": 8023,
      "Ġbread": 8024,
      "sh": 8025,
      "Ġke": 8026,
      "Ġbetween": 8027,
      "Ġbelieve": 8028,
      "Ġcre": 8029,
      "ĠOl": 8030,
      "Ġcritical": 8031,
      "Ġinclud": 8032,
      "ĪĴ": 8033,
      "ĠBel": 8034,
      "ĠPL": 8035,
      "Ġsubsequently": 8036,
      "ĠMP": 8037,
      "¡": 8038,
      "Ġgovernments": 8039,
      "ĠThat": 8040,
      "ulture": 8041,
      "Ġleg": 8042,
      "mber": 8043,
      "ĠFurther": 8044,
      "Ġsciences": 8045,
      "uter": 8046,
      "Ġmir": 8047,
      "inite": 8048,
      "1986": 8049,
      "Ġfounded": 8050,
      "Ġanother": 8051,
      "Ġrele": 8052,
      "Ġranges": 8053,
      "Ġmake": 8054,
      "Ġchang": 8055,
      "Ġslavery": 8056,
      "Ġdon": 8057,
      "1972": 8058,
      "vin": 8059,
      "Ġcreat": 8060,
      "Ġtar": 8061,
      "Ġcloud": 8062,
      "Ġstraight": 8063,
      "Ġneutral": 8064,
      "soci": 8065,
      "ĠKore": 8066,
      "ĠJamaica": 8067,
      "ĠDisease": 8068,
      "ĠBishop": 8069,
      "Ġenemies": 8070,
      "Ġsets": 8071,
      "ais": 8072,
      "ydro": 8073,
      "Ġaut": 8074,
      "Ġbishop": 8075,
      "Ġobs": 8076,
      "Ġincreases": 8077,
      "ant": 8078,
      "February": 8079,
      "Ġ1988": 8080,
      "Ġprograms": 8081,
      "CO": 8082,
      "omp": 8083,
      "ĠDen": 8084,
      "na": 8085,
      "Ġcru": 8086,
      "Ġrelationships": 8087,
      "Ġpur": 8088,
      "bour": 8089,
      "Ġacross": 8090,
      "ĠKn": 8091,
      "Ġremoval": 8092,
      "Ġrecon": 8093,
      "Ġcommissioned": 8094,
      "Ġplatform": 8095,
      "Ġhorn": 8096,
      "irm": 8097,
      "Ġvarious": 8098,
      "EG": 8099,
      "Col": 8100,
      "ĠEmperor": 8101,
      "ĠOrgan": 8102,
      "Ġcold": 8103,
      "Ġpassing": 8104,
      "cest": 8105,
      "lected": 8106,
      "Ġ2013": 8107,
      "HE": 8108,
      "Ġtook": 8109,
      "uration": 8110,
      "name": 8111,
      "avalry": 8112,
      "cess": 8113,
      "Ġrest": 8114,
      "Ġexperience": 8115,
      "Ġlog": 8116,
      "Ġscience": 8117,
      "Ġway": 8118,
      "ĠExec": 8119,
      "Ġ60": 8120,
      "ucky": 8121,
      "Ġtechniques": 8122,
      "lines": 8123,
      "ir": 8124,
      "ĠAlb": 8125,
      "port": 8126,
      "anta": 8127,
      "Ġacting": 8128,
      "ĠDeb": 8129,
      "Ġdifficulty": 8130,
      "Ġ18": 8131,
      "ĠEthiop": 8132,
      "ĠPower": 8133,
      "Ġsalt": 8134,
      "ishes": 8135,
      "Ġbear": 8136,
      "Ġautom": 8137,
      "Ġinhabit": 8138,
      "´": 8139,
      "Ġshould": 8140,
      "Ġentirely": 8141,
      "ĠNAS": 8142,
      "ĠCarolina": 8143,
      "band": 8144,
      "ĠNorth": 8145,
      "ĠAud": 8146,
      "ict": 8147,
      "Ġstring": 8148,
      "omet": 8149,
      "Ġelectron": 8150,
      "Ġcan": 8151,
      "ior": 8152,
      "Ġplays": 8153,
      "ĠBetween": 8154,
      "Ġpreval": 8155,
      "¿½": 8156,
      "Ġoblig": 8157,
      "Ġimportance": 8158,
      "Ġhold": 8159,
      "Ġdou": 8160,
      "ays": 8161,
      "Ġcategories": 8162,
      "Ġprim": 8163,
      "teenth": 8164,
      "ĠKh": 8165,
      "ĠOut": 8166,
      "ĠCount": 8167,
      "Ġ1920": 8168,
      "ĠNob": 8169,
      "rument": 8170,
      "Ġretired": 8171,
      "-": 8172,
      "Ġwide": 8173,
      "ĠMcC": 8174,
      "ili": 8175,
      "ĠNorman": 8176,
      "Ġten": 8177,
      "Ġrebu": 8178,
      "Ġreview": 8179,
      "ĠAl": 8180,
      "Ġengineering": 8181,
      "Ġcare": 8182,
      "Ġdestroy": 8183,
      "ĠAdd": 8184,
      "even": 8185,
      "ĠBrit": 8186,
      "ĠJersey": 8187,
      "Ġvaluable": 8188,
      "ĠCy": 8189,
      "Ð¾Ð": 8190,
      "Ġnar": 8191,
      "bl": 8192,
      "Ġship": 8193,
      "Ġaffect": 8194,
      "oyage": 8195,
      "Ġmust": 8196,
      "xi": 8197,
      "Ġsometimes": 8198,
      "isconsin": 8199,
      "ľ": 8200,
      "Ġthermal": 8201,
      "Ġfaster": 8202,
      "ips": 8203,
      "Î»": 8204,
      "ĠWilliams": 8205,
      "achment": 8206,
      "ĠSchool": 8207,
      "fe": 8208,
      "ob": 8209,
      "Ġ74": 8210,
      "ologists": 8211,
      "ĠGib": 8212,
      "Ġ2022": 8213,
      "Ġguns": 8214,
      "Ġyounger": 8215,
      "hemat": 8216,
      "Ġbutter": 8217,
      "antine": 8218,
      "Ġtemplate": 8219,
      "ghan": 8220,
      "Ġspiritual": 8221,
      "encing": 8222,
      "Ġdismiss": 8223,
      "Ġdoll": 8224,
      "ĠGregory": 8225,
      "ocol": 8226,
      "atives": 8227,
      "class": 8228,
      "erous": 8229,
      "Ġmix": 8230,
      "Ġcommander": 8231,
      "Î": 8232,
      "Ġgene": 8233,
      "Ġwet": 8234,
      "aud": 8235,
      "sych": 8236,
      "Ġfinally": 8237,
      "Ġabandoned": 8238,
      "Ġweight": 8239,
      "Ġ98": 8240,
      "Ġimprove": 8241,
      "forcement": 8242,
      "ĠSund": 8243,
      "Ġcomponent": 8244,
      "adow": 8245,
      "ulations": 8246,
      "ential": 8247,
      "Ġexceed": 8248,
      "imens": 8249,
      "ante": 8250,
      "Ġcomplex": 8251,
      "ĠPolit": 8252,
      "raw": 8253,
      "Ġm": 8254,
      "Ġcircumst": 8255,
      "ibr": 8256,
      "Ġattempts": 8257,
      "law": 8258,
      "righ": 8259,
      "Ġclaim": 8260,
      "gun": 8261,
      "gor": 8262,
      "ĠTr": 8263,
      "ĠHudson": 8264,
      "illy": 8265,
      "Ġflour": 8266,
      "Ġmarks": 8267,
      "Ġshell": 8268,
      "Ġ51": 8269,
      "ares": 8270,
      "..": 8271,
      "Ġfur": 8272,
      "ĠPan": 8273,
      "Ġgrew": 8274,
      "Ġtex": 8275,
      "Ġrespons": 8276,
      "Ġsubm": 8277,
      "Ġweapons": 8278,
      "Ġvar": 8279,
      "tical": 8280,
      "Ġcopy": 8281,
      "Ġceremony": 8282,
      "Ġtall": 8283,
      "Ġwhole": 8284,
      "Ġreturns": 8285,
      "ĠPhilippine": 8286,
      "Ġlocations": 8287,
      "izes": 8288,
      "ĠCra": 8289,
      "ylvan": 8290,
      "odge": 8291,
      "Ġdivisions": 8292,
      "Ġsoul": 8293,
      "23": 8294,
      "Ġep": 8295,
      "Ġinflu": 8296,
      "ĠAn": 8297,
      "Ġconcrete": 8298,
      "ĠGrand": 8299,
      "ĠY": 8300,
      "Ġ1947": 8301,
      "ĠHon": 8302,
      "igh": 8303,
      "Bl": 8304,
      "Ġquantity": 8305,
      "Ġretreat": 8306,
      "Ġplate": 8307,
      "(": 8308,
      "cular": 8309,
      "ĠRailway": 8310,
      "Ġest": 8311,
      "oe": 8312,
      "Ġinvolving": 8313,
      "Ġdelay": 8314,
      "nder": 8315,
      "ĠEl": 8316,
      "ĠStud": 8317,
      "Ġpsychology": 8318,
      "ĠCorps": 8319,
      "ĠSt": 8320,
      "AL": 8321,
      "norm": 8322,
      "ĠDesign": 8323,
      "ĠTechn": 8324,
      "ĠAlf": 8325,
      "iving": 8326,
      "ĠRoosevelt": 8327,
      "Ġseveral": 8328,
      "Ġ32": 8329,
      "\",": 8330,
      "ĠLett": 8331,
      "World": 8332,
      "ĠCatholics": 8333,
      "ization": 8334,
      "Ġclose": 8335,
      "ĠGames": 8336,
      "ĠSpecial": 8337,
      "urt": 8338,
      "Ġpip": 8339,
      "What": 8340,
      "Ġ1931": 8341,
      "ultural": 8342,
      "het": 8343,
      "Ġfelt": 8344,
      "Ġkil": 8345,
      "duc": 8346,
      "ĠRevolution": 8347,
      "Ġ73": 8348,
      "July": 8349,
      "Ġlim": 8350,
      "Ġdate": 8351,
      "ĠEth": 8352,
      "Ġjourney": 8353,
      "race": 8354,
      "Ġconcentration": 8355,
      "Ġsouthern": 8356,
      "Ġcolor": 8357,
      "âĢ¦": 8358,
      "Ġvoted": 8359,
      "ĠSquare": 8360,
      "The": 8361,
      "Ġstories": 8362,
      "ould": 8363,
      "November": 8364,
      "ĠMod": 8365,
      "Ġcontinues": 8366,
      "Ã¤": 8367,
      "Ġhis": 8368,
      "icians": 8369,
      "inch": 8370,
      "aph": 8371,
      "hard": 8372,
      "ĠVIII": 8373,
      "ĠId": 8374,
      "Î¹": 8375,
      "Ġcomposition": 8376,
      "Ġnarrow": 8377,
      "ĠAr": 8378,
      "oir": 8379,
      "Ġdire": 8380,
      "Ġespecially": 8381,
      "employ": 8382,
      "ÏĤ": 8383,
      "alt": 8384,
      "Ġsongs": 8385,
      "ĠSmall": 8386,
      "ĠSar": 8387,
      "ios": 8388,
      "Ġrecent": 8389,
      "Ġunus": 8390,
      "Ġtrade": 8391,
      "Ġvict": 8392,
      "Ġdrive": 8393,
      ".||": 8394,
      "elt": 8395,
      "ople": 8396,
      "Ġsafety": 8397,
      "ipher": 8398,
      "otes": 8399,
      "2": 8400,
      "aid": 8401,
      "Ġp": 8402,
      "anskrit": 8403,
      "Ġsle": 8404,
      "Ġrat": 8405,
      "Ġsal": 8406,
      "Ġcub": 8407,
      "Ġengin": 8408,
      "ĠGod": 8409,
      "Ġports": 8410,
      "ways": 8411,
      "Ġgarden": 8412,
      "mus": 8413,
      "Ġfer": 8414,
      "Ġ2008": 8415,
      "Ġclosely": 8416,
      "ĠJapan": 8417,
      "me": 8418,
      "Ġprocedure": 8419,
      "June": 8420,
      "Ġmilk": 8421,
      "Ġface": 8422,
      "us": 8423,
      "Ġfarm": 8424,
      "uting": 8425,
      "over": 8426,
      "Ġi": 8427,
      "ming": 8428,
      "ĠAny": 8429,
      "Ġexpressed": 8430,
      "Ġreality": 8431,
      "ĠService": 8432,
      "Ġregulations": 8433,
      "lish": 8434,
      "ĠFollowing": 8435,
      "Ġveget": 8436,
      "ce": 8437,
      "Ġadopted": 8438,
      "ĠJuly": 8439,
      "Ġbelieved": 8440,
      "ordan": 8441,
      "ĠWhit": 8442,
      "uth": 8443,
      "ean": 8444,
      "Ar": 8445,
      "ĠHal": 8446,
      "Ġmut": 8447,
      "ke": 8448,
      "ava": 8449,
      "father": 8450,
      "Ġadd": 8451,
      "Ġapparent": 8452,
      "oz": 8453,
      "nd": 8454,
      "Ġstatements": 8455,
      "ĠArticle": 8456,
      "th": 8457,
      "oven": 8458,
      "FL": 8459,
      "EE": 8460,
      "Ġauth": 8461,
      "å": 8462,
      "ose": 8463,
      "uclear": 8464,
      "Ġcab": 8465,
      "ĠJim": 8466,
      "rons": 8467,
      "ikh": 8468,
      "Æ": 8469,
      "Ġincluding": 8470,
      "Ġpartners": 8471,
      "aland": 8472,
      "ÃŃa": 8473,
      "Ġalternative": 8474,
      "Ġthus": 8475,
      "rich": 8476,
      "Ġbo": 8477,
      "\";": 8478,
      "ĠHandbook": 8479,
      "ĠNov": 8480,
      "ĠMe": 8481,
      "Ñı": 8482,
      "ety": 8483,
      "ĠJupiter": 8484,
      "Ġcultural": 8485,
      "ĠLt": 8486,
      "hent": 8487,
      "ĠHitler": 8488,
      "Ġmess": 8489,
      "pa": 8490,
      "ĠPit": 8491,
      "als": 8492,
      "Ġcell": 8493,
      "Ġhour": 8494,
      "Ġoutside": 8495,
      "Ġportion": 8496,
      "rect": 8497,
      "rane": 8498,
      "Ġcontroversy": 8499,
      "Ġmechanical": 8500,
      "Ġfear": 8501,
      "Ġprogram": 8502,
      "ĠCape": 8503,
      "Ġacqu": 8504,
      "ĠGh": 8505,
      "ı": 8506,
      "oid": 8507,
      "ĠBrad": 8508,
      "Ġneut": 8509,
      "Ġget": 8510,
      "hens": 8511,
      "Ġsub": 8512,
      "ersed": 8513,
      "aled": 8514,
      "Ġsymb": 8515,
      "Ġintention": 8516,
      "ully": 8517,
      "Ġfour": 8518,
      "din": 8519,
      "ĠR": 8520,
      "Ġinstruct": 8521,
      "Ġ15": 8522,
      "ttp": 8523,
      "ga": 8524,
      "uzz": 8525,
      "Ġ13": 8526,
      "low": 8527,
      "Ġrenew": 8528,
      "ĠJonathan": 8529,
      "Ġju": 8530,
      "Ġalph": 8531,
      "ought": 8532,
      "ĠCare": 8533,
      "ĠHa": 8534,
      "using": 8535,
      "ĠSon": 8536,
      "Ġwish": 8537,
      "Ċ": 8538,
      "Ġcriminal": 8539,
      "aving": 8540,
      "Ġnor": 8541,
      "stan": 8542,
      "ĠMcK": 8543,
      "ailed": 8544,
      "Ġtempor": 8545,
      "Ġbrown": 8546,
      "ĠSecret": 8547,
      "evelt": 8548,
      "ĠMach": 8549,
      "UTC": 8550,
      "Ġrepe": 8551,
      "ĠBut": 8552,
      "ĠPol": 8553,
      "overnment": 8554,
      "Ġpros": 8555,
      "ĠCreek": 8556,
      "eg": 8557,
      "Ġsmall": 8558,
      "Ġshot": 8559,
      "akespeare": 8560,
      "T": 8561,
      "mb": 8562,
      "word": 8563,
      "Ġruled": 8564,
      "Ġ90": 8565,
      "Ġentitled": 8566,
      "ĠSingapore": 8567,
      "ether": 8568,
      "ĠUnt": 8569,
      "ĠNevertheless": 8570,
      "ĠMinnes": 8571,
      "aven": 8572,
      "ora": 8573,
      "ictionary": 8574,
      "ĠReferences": 8575,
      "ĠBre": 8576,
      "ĠDun": 8577,
      "Ġestimate": 8578,
      "Ġkeeping": 8579,
      "ika": 8580,
      "Ġalways": 8581,
      "Ġtract": 8582,
      "ĠColumbia": 8583,
      "Sh": 8584,
      "onent": 8585,
      "ĠForeign": 8586,
      "rench": 8587,
      "ival": 8588,
      "ĠRock": 8589,
      "Ġreserve": 8590,
      "lections": 8591,
      "Ġadequ": 8592,
      "Ġ16": 8593,
      "Ġcommunities": 8594,
      "olis": 8595,
      "ilding": 8596,
      "ogue": 8597,
      "ĠTa": 8598,
      "uy": 8599,
      "Ġnum": 8600,
      "ĠChapter": 8601,
      "Ġmedia": 8602,
      "Ġ1990": 8603,
      "Ġcarbon": 8604,
      "bb": 8605,
      "Wikimedia": 8606,
      "ird": 8607,
      "itting": 8608,
      "X": 8609,
      "ĠTy": 8610,
      "Ġdays": 8611,
      "ÃŃ": 8612,
      "ĠCountry": 8613,
      "Ġsu": 8614,
      "Ġdirectly": 8615,
      "ĠIns": 8616,
      "Ġproceed": 8617,
      "aling": 8618,
      "Ġmorning": 8619,
      "ĠPres": 8620,
      "Ġcalled": 8621,
      "Ġfuture": 8622,
      "Ġstorage": 8623,
      "ature": 8624,
      "ĠSqu": 8625,
      "Ġcontemporary": 8626,
      "ĠVienna": 8627,
      "Ġmethod": 8628,
      "ĠSal": 8629,
      "Ġwhom": 8630,
      "Ġpolitics": 8631,
      "ĠAnalysis": 8632,
      "Ġcoast": 8633,
      "Ġaer": 8634,
      "Ġsch": 8635,
      "ĠOpt": 8636,
      "Ġuniversities": 8637,
      "ĠAngeles": 8638,
      "Ġnob": 8639,
      "NA": 8640,
      "Ġsense": 8641,
      "Ġpurposes": 8642,
      "Ġthreat": 8643,
      "ĠIndependence": 8644,
      "ference": 8645,
      "Ġpounds": 8646,
      "Ġtri": 8647,
      "yer": 8648,
      "acre": 8649,
      "ĠRec": 8650,
      "Ġcounties": 8651,
      "Ġgenerated": 8652,
      "Ġdeterm": 8653,
      "Al": 8654,
      "æ": 8655,
      "Ġnoble": 8656,
      "RI": 8657,
      "Ġ189": 8658,
      "Ġvalue": 8659,
      "itud": 8660,
      "ĠAlfred": 8661,
      "Ġtransport": 8662,
      "Pol": 8663,
      "Ġphilosophical": 8664,
      "ured": 8665,
      "ĠRegion": 8666,
      "iet": 8667,
      "art": 8668,
      "Ġcorpor": 8669,
      "ĠTV": 8670,
      "Ġstatus": 8671,
      "Ġpig": 8672,
      "ĠHem": 8673,
      "ĠExt": 8674,
      "ecess": 8675,
      "gress": 8676,
      "athan": 8677,
      "ĠHealth": 8678,
      "--": 8679,
      "Ã¨re": 8680,
      "head": 8681,
      "Ġillust": 8682,
      "Ġattacked": 8683,
      "mit": 8684,
      "Ġpolice": 8685,
      "ĠPhilipp": 8686,
      "ĠCompany": 8687,
      "Ġmarkets": 8688,
      "gan": 8689,
      "ĠSpringer": 8690,
      "Ġlies": 8691,
      "rh": 8692,
      "ted": 8693,
      "ĠHun": 8694,
      "ĠNav": 8695,
      "coln": 8696,
      "Ġleaves": 8697,
      "Ġnegot": 8698,
      "ĠClinical": 8699,
      "Ġsocieties": 8700,
      "ushed": 8701,
      "ĠBritain": 8702,
      "ells": 8703,
      "Ġh": 8704,
      "Ġpar": 8705,
      "Ġ110": 8706,
      "Ġframework": 8707,
      "è": 8708,
      "uster": 8709,
      "....": 8710,
      "Ġbank": 8711,
      "Ġcloser": 8712,
      "Ġod": 8713,
      "521": 8714,
      "onds": 8715,
      "alys": 8716,
      "ications": 8717,
      "ounter": 8718,
      "ĠHouse": 8719,
      "ilibrium": 8720,
      "ĠFrederick": 8721,
      "Ġdif": 8722,
      "ced": 8723,
      "ĠP": 8724,
      "Ġrelation": 8725,
      "Ġmark": 8726,
      "Ġpaint": 8727,
      "ĠÂ": 8728,
      "Ġplans": 8729,
      "Ġexposed": 8730,
      "elve": 8731,
      "ĠTreat": 8732,
      "Ġcategory": 8733,
      "Ġwhere": 8734,
      "asts": 8735,
      "ulsion": 8736,
      "ĠSweden": 8737,
      "Ġformal": 8738,
      "Ġ23": 8739,
      "erved": 8740,
      "ĠRod": 8741,
      "ĠIndia": 8742,
      "ach": 8743,
      "Ġowner": 8744,
      "olk": 8745,
      "all": 8746,
      "Ġserving": 8747,
      "Ġsong": 8748,
      "1002": 8749,
      "Ġdigital": 8750,
      "Ġroyal": 8751,
      "ĠConstitution": 8752,
      "hand": 8753,
      "iast": 8754,
      "Ġwill": 8755,
      "ĠAtlantic": 8756,
      "ĭ": 8757,
      "ĠWil": 8758,
      "Ġ1996": 8759,
      "French": 8760,
      "Ġconsist": 8761,
      "ĠGuide": 8762,
      "ests": 8763,
      "ĠDor": 8764,
      "Ġsc": 8765,
      "Ġratio": 8766,
      "Ġwaste": 8767,
      "oma": 8768,
      "Ġdomain": 8769,
      "Ð²": 8770,
      "ney": 8771,
      "pro": 8772,
      "Ġor": 8773,
      "Ġcapital": 8774,
      "ĠIC": 8775,
      "Ġpred": 8776,
      "orig": 8777,
      "ored": 8778,
      "ĠPriv": 8779,
      "Ġteach": 8780,
      "Ġimmediately": 8781,
      "Ġsale": 8782,
      "at": 8783,
      "Ġ...": 8784,
      "ĠMain": 8785,
      "mouth": 8786,
      "ward": 8787,
      "Ġbetter": 8788,
      "Ġestimated": 8789,
      "ĠFestival": 8790,
      "Ġlooked": 8791,
      "mund": 8792,
      "Ġsell": 8793,
      "Ġobjective": 8794,
      "Ġgrass": 8795,
      "Ġpreced": 8796,
      "Ġregist": 8797,
      "tt": 8798,
      "Ġsome": 8799,
      "ĠCommunity": 8800,
      "ĠPa": 8801,
      "ĠSystem": 8802,
      "rical": 8803,
      "Ġmarch": 8804,
      "ĠCrim": 8805,
      "uary": 8806,
      "Ġpriests": 8807,
      "Ġarranged": 8808,
      "Ġir": 8809,
      "ĠSec": 8810,
      "ĠHall": 8811,
      "Ġcho": 8812,
      "ĠCanal": 8813,
      "ĠMany": 8814,
      "oph": 8815,
      "ĠClin": 8816,
      "ĠNetwork": 8817,
      "Ġfif": 8818,
      "Ġcould": 8819,
      "Ġinstrum": 8820,
      "oke": 8821,
      "Ġground": 8822,
      "r": 8823,
      "roph": 8824,
      "vel": 8825,
      "Ġloc": 8826,
      "09": 8827,
      "Ġexception": 8828,
      "Ġdefeated": 8829,
      "Ġá¼": 8830,
      "ellig": 8831,
      "Ġinstead": 8832,
      "Ġtools": 8833,
      "Ġid": 8834,
      "Ġentrance": 8835,
      "Ġtobacco": 8836,
      "Ã": 8837,
      "Ġbehind": 8838,
      "Ġcentral": 8839,
      "ween": 8840,
      "tal": 8841,
      "Ġdemocracy": 8842,
      "Ġprop": 8843,
      "ĠItaly": 8844,
      "+": 8845,
      "ĠAli": 8846,
      "ĠRe": 8847,
      "clud": 8848,
      "arts": 8849,
      "gypt": 8850,
      "Ġunusual": 8851,
      "ĠMand": 8852,
      "es": 8853,
      "Ġz": 8854,
      "onomous": 8855,
      "wall": 8856,
      "ately": 8857,
      "ĠCost": 8858,
      "ĠEncyclopÃ¦dia": 8859,
      "ĠItal": 8860,
      "ĠLaw": 8861,
      "Ġmobile": 8862,
      "Ġexercise": 8863,
      "Ġarts": 8864,
      "Ġsum": 8865,
      "Ġedited": 8866,
      "ĠGroup": 8867,
      "Ġscore": 8868,
      "Ġtaught": 8869,
      "Ġthr": 8870,
      "ĠMaryland": 8871,
      "Ġunlike": 8872,
      "Ġproject": 8873,
      "Ġviolence": 8874,
      "Ġtransform": 8875,
      "Ġagree": 8876,
      "pres": 8877,
      "Ġprogramming": 8878,
      "ĠProf": 8879,
      "chan": 8880,
      "Ġdraft": 8881,
      "ĠEconomy": 8882,
      "Ġreference": 8883,
      "ĠAnton": 8884,
      "ĠCurrent": 8885,
      "ĠIrish": 8886,
      "ative": 8887,
      "Ġrate": 8888,
      "ĠRom": 8889,
      "Ġactually": 8890,
      "Ġbranch": 8891,
      "rance": 8892,
      "Ġwire": 8893,
      "Ġimmigrants": 8894,
      "Ġdevice": 8895,
      "Ġfought": 8896,
      "Ġopposite": 8897,
      "Ġpapers": 8898,
      "ĠFrance": 8899,
      "Ġinside": 8900,
      "ples": 8901,
      "Ġar": 8902,
      "Ġresponse": 8903,
      "ivation": 8904,
      "Ġmax": 8905,
      "Ġseconds": 8906,
      "Ġrequest": 8907,
      "ĠDav": 8908,
      "ude": 8909,
      "que": 8910,
      "Ġquite": 8911,
      ".": 8912,
      "Ġholding": 8913,
      "á": 8914,
      "Ġexpl": 8915,
      "top": 8916,
      "down": 8917,
      "type": 8918,
      "Ġdoing": 8919,
      "eph": 8920,
      "Ġ": 8921,
      "Ġcurrent": 8922,
      "ĠMedieval": 8923,
      "ĠMathemat": 8924,
      "ĠOcc": 8925,
      "Ġnit": 8926,
      "Ġdiscipl": 8927,
      "ĠInd": 8928,
      "ĠMaced": 8929,
      "ĠInn": 8930,
      "Ġused": 8931,
      "Ġoccup": 8932,
      "ounds": 8933,
      "though": 8934,
      "Ġpositions": 8935,
      "49": 8936,
      "Ġsystematic": 8937,
      "London": 8938,
      "also": 8939,
      "Ġfoss": 8940,
      "ĠCorpor": 8941,
      "oes": 8942,
      "Ġage": 8943,
      "umer": 8944,
      "Ġsurround": 8945,
      "ream": 8946,
      "âĢĿ": 8947,
      "IP": 8948,
      "Ġcam": 8949,
      "Ġwa": 8950,
      "Ġproble": 8951,
      "SA": 8952,
      "ĠFair": 8953,
      "icide": 8954,
      "Ġhypot": 8955,
      "ocese": 8956,
      "ieg": 8957,
      "é": 8958,
      "Ġlow": 8959,
      "ille": 8960,
      "BI": 8961,
      "ET": 8962,
      "Ġswim": 8963,
      "ĠNaz": 8964,
      "Ġdifferences": 8965,
      "Ġcitations": 8966,
      "Re": 8967,
      ",": 8968,
      "Ġ1970": 8969,
      "olars": 8970,
      "min": 8971,
      "ĠSome": 8972,
      "foot": 8973,
      "ĠModern": 8974,
      "1996": 8975,
      "inction": 8976,
      "imum": 8977,
      "ivered": 8978,
      "Ġcompan": 8979,
      "Ã´": 8980,
      "Ġadop": 8981,
      "engers": 8982,
      "Ġiniti": 8983,
      "Ġdistrib": 8984,
      "Ġgrounds": 8985,
      "ĠClassical": 8986,
      "Ġlie": 8987,
      "II": 8988,
      "ith": 8989,
      "Ġgained": 8990,
      "ĠWall": 8991,
      "Ġuser": 8992,
      "Ġslave": 8993,
      "Ġtax": 8994,
      ",'": 8995,
      "Ġpeak": 8996,
      "ĠAnti": 8997,
      "atic": 8998,
      "ĠMuslim": 8999,
      "ĠNewton": 9000,
      "ubl": 9001,
      "Ġ59": 9002,
      "ls": 9003,
      "ĠEle": 9004,
      "Ġresearc": 9005,
      "uliar": 9006,
      "ĠStudy": 9007,
      "alse": 9008,
      "ield": 9009,
      "ĠSm": 9010,
      "ĠAllen": 9011,
      "Ġrec": 9012,
      "fall": 9013,
      "Ġseems": 9014,
      "peror": 9015,
      "Ġdirector": 9016,
      "ĠPopular": 9017,
      "ond": 9018,
      "Ġperson": 9019,
      "Ġmult": 9020,
      "orld": 9021,
      "ĠLeb": 9022,
      "ĠStandard": 9023,
      "resents": 9024,
      "Ġfold": 9025,
      "itte": 9026,
      "ethe": 9027,
      "Ġstrike": 9028,
      "ĠArk": 9029,
      "ĠHarper": 9030,
      "Ġshoot": 9031,
      "ĠRem": 9032,
      "Ġappropri": 9033,
      "itions": 9034,
      "east": 9035,
      "ĠVis": 9036,
      "ebru": 9037,
      "Ġlob": 9038,
      "idge": 9039,
      "Ġmultiple": 9040,
      "Ġplanning": 9041,
      "87": 9042,
      "sl": 9043,
      "Ġup": 9044,
      "ÑĤ": 9045,
      "ure": 9046,
      "asp": 9047,
      "ĠBas": 9048,
      "Ġ115": 9049,
      "Le": 9050,
      "ĠIV": 9051,
      "Ġretrieved": 9052,
      "ĠDaily": 9053,
      "Ġteaching": 9054,
      "Ġsuccessor": 9055,
      "ĠPolicy": 9056,
      "Ġchanges": 9057,
      "Ġlikely": 9058,
      "Ġhorizontal": 9059,
      "Ġeconom": 9060,
      "Ġdangerous": 9061,
      "Ġunderst": 9062,
      "Ġtunnel": 9063,
      "ructure": 9064,
      "ĠAqu": 9065,
      "ĠD": 9066,
      "Ġmiles": 9067,
      "Ä±": 9068,
      "August": 9069,
      "Ġbirds": 9070,
      "amber": 9071,
      "Ġsulf": 9072,
      "anc": 9073,
      "era": 9074,
      "leb": 9075,
      "bar": 9076,
      "19": 9077,
      "EN": 9078,
      "Ġchronic": 9079,
      "ĠClub": 9080,
      "ĠGreen": 9081,
      "ik": 9082,
      "ĠEgyptian": 9083,
      "Ġproved": 9084,
      "Ġtowards": 9085,
      "Ġsick": 9086,
      "Ġproport": 9087,
      "Ġspread": 9088,
      ".),": 9089,
      "Ġminutes": 9090,
      "Ġtimes": 9091,
      "ĠKenn": 9092,
      "Ġhills": 9093,
      "Ġrule": 9094,
      "ona": 9095,
      "ĠTe": 9096,
      "Ġwestern": 9097,
      "ĠThree": 9098,
      "oqu": 9099,
      "81": 9100,
      "Ġes": 9101,
      "real": 9102,
      "ĠFree": 9103,
      "eum": 9104,
      "ull": 9105,
      "duct": 9106,
      "Ġarticles": 9107,
      "roc": 9108,
      "ĠMar": 9109,
      "avel": 9110,
      "Ġcapt": 9111,
      "mad": 9112,
      "74": 9113,
      "ĠAbout": 9114,
      "ĠIf": 9115,
      "Ġgu": 9116,
      "aries": 9117,
      "Ġ1986": 9118,
      "Ġfactors": 9119,
      "ĠMart": 9120,
      "ĠWild": 9121,
      "ifically": 9122,
      "Ġturb": 9123,
      "arn": 9124,
      "Ġdiscovery": 9125,
      "ĠMechan": 9126,
      "And": 9127,
      "Ġanimal": 9128,
      "ĠRep": 9129,
      "ĠWeb": 9130,
      "Ġshows": 9131,
      "ĠFlor": 9132,
      "Ġconsistent": 9133,
      "after": 9134,
      "Ġroom": 9135,
      "Ġdiscover": 9136,
      "hus": 9137,
      "aign": 9138,
      "Ġfluid": 9139,
      "ĠMap": 9140,
      "Ġintroduction": 9141,
      "Ġpermanent": 9142,
      "ĠNort": 9143,
      "ĠAndrew": 9144,
      "upiter": 9145,
      "ĺ": 9146,
      "Ġrepresentatives": 9147,
      "ĠBanglades": 9148,
      "Americ": 9149,
      "ode": 9150,
      "ĠStreet": 9151,
      "ĠBad": 9152,
      "ĠLe": 9153,
      "ĠHell": 9154,
      "'s": 9155,
      "ĠCollege": 9156,
      "perial": 9157,
      "Ġgods": 9158,
      "ere": 9159,
      "Ġassumed": 9160,
      "Ġactual": 9161,
      "ĠPage": 9162,
      "ect": 9163,
      "Ġscholar": 9164,
      "Ġdominant": 9165,
      "Ġwithdraw": 9166,
      "Ġ1863": 9167,
      "BA": 9168,
      "yd": 9169,
      "Ġdivine": 9170,
      "Ġchanging": 9171,
      "nest": 9172,
      "Ġseparation": 9173,
      "ĠTra": 9174,
      "Ġmarried": 9175,
      "ĠPal": 9176,
      "Ġdrawing": 9177,
      "ap": 9178,
      "Ġchair": 9179,
      "lim": 9180,
      "dead": 9181,
      "Ġ2018": 9182,
      "iver": 9183,
      "ĠMaster": 9184,
      "Ġfacts": 9185,
      "Ġult": 9186,
      "Ġegg": 9187,
      "Ġwithd": 9188,
      "urity": 9189,
      "ĠRef": 9190,
      "Ġcontaining": 9191,
      "Ġdefin": 9192,
      "ody": 9193,
      "178": 9194,
      "ĠAlban": 9195,
      "ĠColumb": 9196,
      "ick": 9197,
      "Ġdistribution": 9198,
      "Ġtill": 9199,
      "Ġrequired": 9200,
      "Ġclothing": 9201,
      "Ġoriginally": 9202,
      "Ġst": 9203,
      "va": 9204,
      "Ġtop": 9205,
      "Ġformed": 9206,
      "Ġcrop": 9207,
      "Ġlarg": 9208,
      "Ġplant": 9209,
      "Ġtrad": 9210,
      "Ġdram": 9211,
      "91": 9212,
      "Ê": 9213,
      "ĠAnother": 9214,
      "ually": 9215,
      "Ġover": 9216,
      "Ġfellow": 9217,
      "ĠKansas": 9218,
      "ĠMus": 9219,
      "Ġrese": 9220,
      "Ġby": 9221,
      "Ġexplicit": 9222,
      "idd": 9223,
      "ournal": 9224,
      "Ð°": 9225,
      "Ġengaged": 9226,
      "aches": 9227,
      "joy": 9228,
      "Ġsuff": 9229,
      "Ġsituations": 9230,
      "ics": 9231,
      "Ġideas": 9232,
      "iful": 9233,
      "Ġpage": 9234,
      "oted": 9235,
      "Ġadjust": 9236,
      "eh": 9237,
      "yle": 9238,
      "ĠSign": 9239,
      "phone": 9240,
      "ĠBenjamin": 9241,
      "ĠPruss": 9242,
      "Ġorgans": 9243,
      "ĠMr": 9244,
      "ĠEduc": 9245,
      "lightenment": 9246,
      "Ġcensus": 9247,
      "lor": 9248,
      "c": 9249,
      "onald": 9250,
      "ĠMid": 9251,
      "ĠLegion": 9252,
      "ĠUSA": 9253,
      "December": 9254,
      "Ġproposal": 9255,
      "Ġox": 9256,
      "Ġabol": 9257,
      "ulus": 9258,
      "Ġdating": 9259,
      "Ġbanks": 9260,
      "42": 9261,
      "Ġstruct": 9262,
      "Ġtakes": 9263,
      "ĠAgency": 9264,
      "embers": 9265,
      "where": 9266,
      "Ġvent": 9267,
      "Ġmil": 9268,
      "earch": 9269,
      "reland": 9270,
      "sch": 9271,
      "Ġtit": 9272,
      "Ġwere": 9273,
      "ension": 9274,
      "Ġviol": 9275,
      "Ġsubsequ": 9276,
      "oper": 9277,
      "ĠHung": 9278,
      "Sc": 9279,
      "Ġperformance": 9280,
      "Ó": 9281,
      "ĠMur": 9282,
      "Ġlist": 9283,
      "hest": 9284,
      "Ġsports": 9285,
      "Ġfundamental": 9286,
      "ore": 9287,
      "ĠInf": 9288,
      "ĠCry": 9289,
      "Ġversions": 9290,
      "Ġanti": 9291,
      "Ġwords": 9292,
      "Ġmoved": 9293,
      "ĠDenmark": 9294,
      "ron": 9295,
      "uri": 9296,
      "Ġpr": 9297,
      "eneral": 9298,
      "rought": 9299,
      "life": 9300,
      "Ġdetermine": 9301,
      "Ġdoctrine": 9302,
      "ĠBa": 9303,
      "Ġparliament": 9304,
      "ĠCambridge": 9305,
      "isk": 9306,
      "65": 9307,
      "Ġaccompan": 9308,
      "Ġsovere": 9309,
      "Ġblood": 9310,
      "ace": 9311,
      "uma": 9312,
      "Ġrelevant": 9313,
      "Cent": 9314,
      "ĠJuan": 9315,
      "rees": 9316,
      "ensive": 9317,
      "cean": 9318,
      "Ġvolcan": 9319,
      "ĠText": 9320,
      "Ġopen": 9321,
      "itis": 9322,
      "Ġrare": 9323,
[...]
